{
  "version": "1.0",
  "truncation": null,
  "padding": null,
  "added_tokens": [
    {
      "id": 0,
      "content": "[PAD]",
      "single_word": false,
      "lstrip": false,
      "rstrip": false,
      "normalized": false,
      "special": true
    },
    {
      "id": 1,
      "content": "[UNK]",
      "single_word": false,
      "lstrip": false,
      "rstrip": false,
      "normalized": false,
      "special": true
    },
    {
      "id": 2,
      "content": "[CLS]",
      "single_word": false,
      "lstrip": false,
      "rstrip": false,
      "normalized": false,
      "special": true
    },
    {
      "id": 3,
      "content": "[SEP]",
      "single_word": false,
      "lstrip": false,
      "rstrip": false,
      "normalized": false,
      "special": true
    },
    {
      "id": 4,
      "content": "[MASK]",
      "single_word": false,
      "lstrip": false,
      "rstrip": false,
      "normalized": false,
      "special": true
    }
  ],
  "normalizer": {
    "type": "NFD"
  },
  "pre_tokenizer": {
    "type": "Whitespace"
  },
  "post_processor": null,
  "decoder": null,
  "model": {
    "type": "BPE",
    "dropout": null,
    "unk_token": null,
    "continuing_subword_prefix": null,
    "end_of_word_suffix": null,
    "fuse_unk": false,
    "byte_fallback": false,
    "ignore_merges": false,
    "vocab": {
      "[PAD]": 0,
      "[UNK]": 1,
      "[CLS]": 2,
      "[SEP]": 3,
      "[MASK]": 4,
      "!": 5,
      "\"": 6,
      "#": 7,
      "$": 8,
      "%": 9,
      "&": 10,
      "'": 11,
      "(": 12,
      ")": 13,
      "*": 14,
      "+": 15,
      ",": 16,
      "-": 17,
      ".": 18,
      "/": 19,
      "0": 20,
      "1": 21,
      "2": 22,
      "3": 23,
      "4": 24,
      "5": 25,
      "6": 26,
      "7": 27,
      "8": 28,
      "9": 29,
      ":": 30,
      ";": 31,
      "<": 32,
      "=": 33,
      ">": 34,
      "?": 35,
      "@": 36,
      "A": 37,
      "B": 38,
      "C": 39,
      "D": 40,
      "E": 41,
      "F": 42,
      "G": 43,
      "H": 44,
      "I": 45,
      "J": 46,
      "K": 47,
      "L": 48,
      "M": 49,
      "N": 50,
      "O": 51,
      "P": 52,
      "Q": 53,
      "R": 54,
      "S": 55,
      "T": 56,
      "U": 57,
      "V": 58,
      "W": 59,
      "X": 60,
      "Y": 61,
      "Z": 62,
      "[": 63,
      "\\": 64,
      "]": 65,
      "^": 66,
      "_": 67,
      "`": 68,
      "a": 69,
      "b": 70,
      "c": 71,
      "d": 72,
      "e": 73,
      "f": 74,
      "g": 75,
      "h": 76,
      "i": 77,
      "j": 78,
      "k": 79,
      "l": 80,
      "m": 81,
      "n": 82,
      "o": 83,
      "p": 84,
      "q": 85,
      "r": 86,
      "s": 87,
      "t": 88,
      "u": 89,
      "v": 90,
      "w": 91,
      "x": 92,
      "y": 93,
      "z": 94,
      "{": 95,
      "|": 96,
      "}": 97,
      "~": 98,
      "": 99,
      "": 100,
      "": 101,
      "": 102,
      "": 103,
      "£": 104,
      "§": 105,
      "©": 106,
      "«": 107,
      "­": 108,
      "®": 109,
      "°": 110,
      "±": 111,
      "¶": 112,
      "·": 113,
      "»": 114,
      "¼": 115,
      "½": 116,
      "œ": 117,
      "̀": 118,
      "́": 119,
      "̂": 120,
      "̃": 121,
      "̆": 122,
      "̈": 123,
      "̧": 124,
      "α": 125,
      "γ": 126,
      "ζ": 127,
      "ι": 128,
      "κ": 129,
      "λ": 130,
      "ρ": 131,
      "υ": 132,
      "А": 133,
      "Б": 134,
      "В": 135,
      "Г": 136,
      "Д": 137,
      "Е": 138,
      "Ж": 139,
      "З": 140,
      "И": 141,
      "К": 142,
      "Л": 143,
      "М": 144,
      "Н": 145,
      "О": 146,
      "П": 147,
      "Р": 148,
      "С": 149,
      "Т": 150,
      "У": 151,
      "Ф": 152,
      "Х": 153,
      "Ч": 154,
      "Ш": 155,
      "Э": 156,
      "Ю": 157,
      "Я": 158,
      "а": 159,
      "б": 160,
      "в": 161,
      "г": 162,
      "д": 163,
      "е": 164,
      "ж": 165,
      "з": 166,
      "и": 167,
      "к": 168,
      "л": 169,
      "м": 170,
      "н": 171,
      "о": 172,
      "п": 173,
      "р": 174,
      "с": 175,
      "т": 176,
      "у": 177,
      "ф": 178,
      "х": 179,
      "ц": 180,
      "ч": 181,
      "ш": 182,
      "щ": 183,
      "ъ": 184,
      "ы": 185,
      "ь": 186,
      "э": 187,
      "ю": 188,
      "я": 189,
      "،": 190,
      "ء": 191,
      "ا": 192,
      "ب": 193,
      "ة": 194,
      "ت": 195,
      "ث": 196,
      "ج": 197,
      "ح": 198,
      "خ": 199,
      "د": 200,
      "ذ": 201,
      "ر": 202,
      "ز": 203,
      "س": 204,
      "ش": 205,
      "ص": 206,
      "ض": 207,
      "ط": 208,
      "ظ": 209,
      "ع": 210,
      "ف": 211,
      "ق": 212,
      "ك": 213,
      "ل": 214,
      "م": 215,
      "ن": 216,
      "ه": 217,
      "و": 218,
      "ى": 219,
      "ي": 220,
      "ً": 221,
      "ٓ": 222,
      "ٔ": 223,
      "ٕ": 224,
      "​": 225,
      "–": 226,
      "—": 227,
      "―": 228,
      "‘": 229,
      "’": 230,
      "“": 231,
      "”": 232,
      "†": 233,
      "•": 234,
      "…": 235,
      "‬": 236,
      "‭": 237,
      "′": 238,
      "″": 239,
      "€": 240,
      "™": 241,
      "→": 242,
      "❤": 243,
      "ﷺ": 244,
      "️": 245,
      "�": 246,
      "🇸": 247,
      "🇺": 248,
      "😊": 249,
      "th": 250,
      "in": 251,
      "er": 252,
      "an": 253,
      "on": 254,
      "the": 255,
      "re": 256,
      "at": 257,
      "en": 258,
      "or": 259,
      "st": 260,
      "ed": 261,
      "al": 262,
      "ou": 263,
      "to": 264,
      "ing": 265,
      "is": 266,
      "ar": 267,
      "es": 268,
      "of": 269,
      "it": 270,
      "and": 271,
      "ic": 272,
      "as": 273,
      "le": 274,
      "ion": 275,
      "om": 276,
      "ent": 277,
      "he": 278,
      "il": 279,
      "se": 280,
      "ad": 281,
      "ve": 282,
      "ac": 283,
      "be": 284,
      "id": 285,
      "ly": 286,
      "ro": 287,
      "for": 288,
      "am": 289,
      "that": 290,
      "ay": 291,
      "ow": 292,
      "ol": 293,
      "wh": 294,
      "im": 295,
      "ch": 296,
      "ig": 297,
      "ot": 298,
      "ver": 299,
      "ation": 300,
      "su": 301,
      "ut": 302,
      "un": 303,
      "ec": 304,
      "ir": 305,
      "ter": 306,
      "are": 307,
      "ce": 308,
      "ur": 309,
      "ag": 310,
      "The": 311,
      "et": 312,
      "em": 313,
      "ith": 314,
      "el": 315,
      "us": 316,
      "ill": 317,
      "ers": 318,
      "op": 319,
      "com": 320,
      "ab": 321,
      "con": 322,
      "with": 323,
      "ist": 324,
      "res": 325,
      "ha": 326,
      "tr": 327,
      "ere": 328,
      "our": 329,
      "li": 330,
      "ew": 331,
      "ate": 332,
      "ld": 333,
      "pro": 334,
      "ain": 335,
      "all": 336,
      "fr": 337,
      "was": 338,
      "out": 339,
      "lo": 340,
      "mo": 341,
      "ex": 342,
      "ment": 343,
      "ke": 344,
      "ul": 345,
      "ts": 346,
      "by": 347,
      "de": 348,
      "we": 349,
      "oun": 350,
      "not": 351,
      "sh": 352,
      "pe": 353,
      "his": 354,
      "igh": 355,
      "one": 356,
      "ap": 357,
      "so": 358,
      "if": 359,
      "from": 360,
      "po": 361,
      "have": 362,
      "ess": 363,
      "ould": 364,
      "art": 365,
      "ies": 366,
      "ther": 367,
      "ity": 368,
      "ct": 369,
      "20": 370,
      "ive": 371,
      "sa": 372,
      "est": 373,
      "um": 374,
      "ear": 375,
      "ri": 376,
      "has": 377,
      "pl": 378,
      "ast": 379,
      "end": 380,
      "over": 381,
      "sp": 382,
      "ran": 383,
      "In": 384,
      "do": 385,
      "this": 386,
      "up": 387,
      "you": 388,
      "ust": 389,
      "bl": 390,
      "ep": 391,
      "wor": 392,
      "gh": 393,
      "ial": 394,
      "ud": 395,
      "act": 396,
      "any": 397,
      "who": 398,
      "por": 399,
      "per": 400,
      "oo": 401,
      "ight": 402,
      "ant": 403,
      "they": 404,
      "ack": 405,
      "ome": 406,
      "said": 407,
      "qu": 408,
      "St": 409,
      "ne": 410,
      "day": 411,
      "ak": 412,
      "ore": 413,
      "ian": 414,
      "ect": 415,
      "iv": 416,
      "ge": 417,
      "der": 418,
      "Th": 419,
      "ev": 420,
      "me": 421,
      "their": 422,
      "cl": 423,
      "mer": 424,
      "ich": 425,
      "ice": 426,
      "ough": 427,
      "oc": 428,
      "pr": 429,
      "ally": 430,
      "ard": 431,
      "own": 432,
      "au": 433,
      "but": 434,
      "will": 435,
      "ind": 436,
      "ail": 437,
      "gr": 438,
      "ia": 439,
      "ong": 440,
      "af": 441,
      "off": 442,
      "ous": 443,
      "ks": 444,
      "can": 445,
      "ber": 446,
      "ary": 447,
      "ign": 448,
      "more": 449,
      "ell": 450,
      ".”": 451,
      "An": 452,
      "ef": 453,
      "ire": 454,
      "ide": 455,
      "ions": 456,
      "iz": 457,
      "00": 458,
      "new": 459,
      "ine": 460,
      "year": 461,
      "had": 462,
      "tim": 463,
      "ubl": 464,
      "uc": 465,
      "ra": 466,
      "would": 467,
      "ated": 468,
      "ound": 469,
      "which": 470,
      "about": 471,
      "ans": 472,
      "no": 473,
      "its": 474,
      "int": 475,
      "It": 476,
      "ople": 477,
      "ure": 478,
      "been": 479,
      "port": 480,
      "age": 481,
      "vi": 482,
      "other": 483,
      "..": 484,
      "man": 485,
      "were": 486,
      "201": 487,
      "ory": 488,
      "now": 489,
      "pol": 490,
      "New": 491,
      "ru": 492,
      "pres": 493,
      "some": 494,
      "ite": 495,
      "ical": 496,
      "ass": 497,
      "ence": 498,
      "thing": 499,
      "He": 500,
      "sc": 501,
      "te": 502,
      "ates": 503,
      "comp": 504,
      "people": 505,
      "av": 506,
      "aw": 507,
      "her": 508,
      "ser": 509,
      "ident": 510,
      "like": 511,
      "Wh": 512,
      "king": 513,
      "ue": 514,
      "med": 515,
      "ublic": 516,
      "ip": 517,
      "bo": 518,
      "ish": 519,
      "ations": 520,
      "ase": 521,
      "pre": 522,
      "Ch": 523,
      "ame": 524,
      "pos": 525,
      "Iran": 526,
      "Con": 527,
      "ors": 528,
      "ren": 529,
      "cent": 530,
      "ever": 531,
      "ll": 532,
      "ake": 533,
      "cre": 534,
      "read": 535,
      "co": 536,
      "go": 537,
      "inter": 538,
      "them": 539,
      "dis": 540,
      "able": 541,
      "Amer": 542,
      "cont": 543,
      "ace": 544,
      "Americ": 545,
      "than": 546,
      "cr": 547,
      ",”": 548,
      "att": 549,
      "old": 550,
      "what": 551,
      "Un": 552,
      "19": 553,
      "get": 554,
      "when": 555,
      "ood": 556,
      "coun": 557,
      "part": 558,
      "Mr": 559,
      "ib": 560,
      "my": 561,
      "ree": 562,
      "min": 563,
      "there": 564,
      "fe": 565,
      "ade": 566,
      "cor": 567,
      "ition": 568,
      "ance": 569,
      "pt": 570,
      "ach": 571,
      "time": 572,
      "ater": 573,
      "way": 574,
      "fore": 575,
      "form": 576,
      "Ob": 577,
      "just": 578,
      "again": 579,
      "low": 580,
      "ama": 581,
      "ens": 582,
      "also": 583,
      "We": 584,
      "your": 585,
      "ark": 586,
      "overn": 587,
      "Ad": 588,
      "But": 589,
      "ile": 590,
      "ress": 591,
      "Is": 592,
      "ob": 593,
      "fir": 594,
      "dec": 595,
      "ty": 596,
      "enc": 597,
      "ause": 598,
      "even": 599,
      "tw": 600,
      "rough": 601,
      "This": 602,
      "cur": 603,
      "uss": 604,
      "most": 605,
      "comm": 606,
      "ose": 607,
      "after": 608,
      "say": 609,
      "ang": 610,
      "let": 611,
      "into": 612,
      "sub": 613,
      "''": 614,
      "ok": 615,
      "only": 616,
      "could": 617,
      "him": 618,
      "Obama": 619,
      "try": 620,
      "fer": 621,
      "ning": 622,
      "200": 623,
      "how": 624,
      "ick": 625,
      "red": 626,
      "ents": 627,
      "sy": 628,
      "ho": 629,
      "work": 630,
      "lear": 631,
      "amp": 632,
      "ational": 633,
      "under": 634,
      "govern": 635,
      "alth": 636,
      "ict": 637,
      "--": 638,
      "cause": 639,
      "ited": 640,
      "ry": 641,
      "vis": 642,
      "As": 643,
      "back": 644,
      "many": 645,
      "Tr": 646,
      "add": 647,
      "sup": 648,
      "call": 649,
      "US": 650,
      "br": 651,
      "leg": 652,
      "ild": 653,
      "und": 654,
      "And": 655,
      "serv": 656,
      "ort": 657,
      "Rep": 658,
      "ful": 659,
      "lect": 660,
      "main": 661,
      "tur": 662,
      "two": 663,
      "==": 664,
      "sel": 665,
      "she": 666,
      "war": 667,
      "ating": 668,
      "ism": 669,
      "ump": 670,
      "come": 671,
      "ons": 672,
      "itt": 673,
      "anc": 674,
      "see": 675,
      "row": 676,
      "ath": 677,
      "ink": 678,
      "government": 679,
      "years": 680,
      "don": 681,
      "reg": 682,
      "os": 683,
      "ise": 684,
      "vers": 685,
      "hel": 686,
      "where": 687,
      "did": 688,
      "down": 689,
      "use": 690,
      "iss": 691,
      "No": 692,
      "gu": 693,
      "Russ": 694,
      "bet": 695,
      "ext": 696,
      "vel": 697,
      "through": 698,
      "exp": 699,
      "incl": 700,
      "reat": 701,
      "You": 702,
      "fl": 703,
      "because": 704,
      "ci": 705,
      "may": 706,
      "illion": 707,
      "eral": 708,
      "ement": 709,
      "first": 710,
      "Le": 711,
      "ative": 712,
      "ied": 713,
      "od": 714,
      "ror": 715,
      "air": 716,
      "know": 717,
      "mon": 718,
      "ven": 719,
      "less": 720,
      "ists": 721,
      "cer": 722,
      "Ar": 723,
      "news": 724,
      "gan": 725,
      "ie": 726,
      "mu": 727,
      "these": 728,
      "ned": 729,
      "rel": 730,
      "lead": 731,
      "right": 732,
      "tt": 733,
      "ics": 734,
      "those": 735,
      "story": 736,
      "rit": 737,
      "ving": 738,
      "...": 739,
      "used": 740,
      "cord": 741,
      "against": 742,
      "last": 743,
      "law": 744,
      "ork": 745,
      "lar": 746,
      "then": 747,
      "Re": 748,
      "fin": 749,
      "made": 750,
      "ious": 751,
      "public": 752,
      "every": 753,
      "long": 754,
      "ved": 755,
      "ities": 756,
      "tain": 757,
      "cess": 758,
      "vest": 759,
      "very": 760,
      "Al": 761,
      "arch": 762,
      "pp": 763,
      "well": 764,
      "resident": 765,
      "rat": 766,
      "10": 767,
      "ck": 768,
      "ash": 769,
      "gy": 770,
      "sur": 771,
      "News": 772,
      "need": 773,
      "als": 774,
      "If": 775,
      "col": 776,
      "Republic": 777,
      "prod": 778,
      "ult": 779,
      "York": 780,
      "American": 781,
      "lease": 782,
      "being": 783,
      "uring": 784,
      "des": 785,
      "stud": 786,
      "ouse": 787,
      "polit": 788,
      "Com": 789,
      "ss": 790,
      "str": 791,
      "ph": 792,
      "ince": 793,
      "does": 794,
      "aking": 795,
      "spec": 796,
      "vot": 797,
      "ton": 798,
      "mem": 799,
      "oup": 800,
      "world": 801,
      "ank": 802,
      "Iranian": 803,
      "ble": 804,
      "minist": 805,
      "ices": 806,
      "much": 807,
      "__": 808,
      "ily": 809,
      "ments": 810,
      "make": 811,
      "wee": 812,
      "line": 813,
      "ner": 814,
      "ins": 815,
      "lam": 816,
      "ings": 817,
      "show": 818,
      "should": 819,
      "want": 820,
      ".\"": 821,
      "includ": 822,
      "ah": 823,
      "report": 824,
      "ub": 825,
      "ific": 826,
      "Trump": 827,
      "ww": 828,
      "such": 829,
      "help": 830,
      "emoc": 831,
      "ax": 832,
      "before": 833,
      "view": 834,
      "IS": 835,
      "boo": 836,
      "play": 837,
      "point": 838,
      "offic": 839,
      "President": 840,
      "stem": 841,
      "United": 842,
      ").": 843,
      "io": 844,
      "state": 845,
      "imes": 846,
      "They": 847,
      "irect": 848,
      "cond": 849,
      "000": 850,
      "par": 851,
      "resp": 852,
      "gen": 853,
      "national": 854,
      "ased": 855,
      "sure": 856,
      "econ": 857,
      "AC": 858,
      "high": 859,
      "land": 860,
      "mark": 861,
      "tal": 862,
      "uro": 863,
      "fam": 864,
      "cour": 865,
      "ration": 866,
      "ves": 867,
      "inue": 868,
      "bu": 869,
      "imp": 870,
      "ting": 871,
      "),": 872,
      "ys": 873,
      "stand": 874,
      "ional": 875,
      "Jo": 876,
      "put": 877,
      "ible": 878,
      "For": 879,
      "To": 880,
      "order": 881,
      "while": 882,
      "led": 883,
      "ters": 884,
      "invest": 885,
      "child": 886,
      "Islam": 887,
      "ave": 888,
      "ms": 889,
      "self": 890,
      "ency": 891,
      "aim": 892,
      "here": 893,
      "though": 894,
      "system": 895,
      "Fr": 896,
      "health": 897,
      "acy": 898,
      "ject": 899,
      "beli": 900,
      "Cont": 901,
      "going": 902,
      "ush": 903,
      "president": 904,
      "RE": 905,
      "terror": 906,
      "inform": 907,
      "fact": 908,
      "erson": 909,
      "ann": 910,
      "cons": 911,
      "IN": 912,
      "spe": 913,
      "econom": 914,
      "ason": 915,
      "Sen": 916,
      "percent": 917,
      "Cl": 918,
      "ft": 919,
      "still": 920,
      "olo": 921,
      "emocrat": 922,
      "think": 923,
      "prot": 924,
      "reading": 925,
      "net": 926,
      ",\"": 927,
      "15": 928,
      "ON": 929,
      "clo": 930,
      "miss": 931,
      "icle": 932,
      "car": 933,
      "ual": 934,
      "def": 935,
      "week": 936,
      "lin": 937,
      "ris": 938,
      "cho": 939,
      "soci": 940,
      "States": 941,
      "sul": 942,
      "There": 943,
      "aff": 944,
      "Mc": 945,
      "good": 946,
      "run": 947,
      "rest": 948,
      "head": 949,
      "ility": 950,
      "ared": 951,
      "police": 952,
      "ower": 953,
      "mar": 954,
      "pay": 955,
      "val": 956,
      "ward": 957,
      "stit": 958,
      "11": 959,
      "gg": 960,
      "On": 961,
      "ix": 962,
      "ret": 963,
      "mat": 964,
      "pri": 965,
      "son": 966,
      "enter": 967,
      "press": 968,
      "AT": 969,
      "Democrat": 970,
      "far": 971,
      "fol": 972,
      "real": 973,
      "Pro": 974,
      "che": 975,
      "ense": 976,
      "uct": 977,
      "vert": 978,
      "plan": 979,
      "group": 980,
      "CK": 981,
      "dif": 982,
      "ivers": 983,
      "That": 984,
      "ically": 985,
      "support": 986,
      "called": 987,
      "Ira": 988,
      "direct": 989,
      "fund": 990,
      "ues": 991,
      "ially": 992,
      "care": 993,
      "million": 994,
      "Iraq": 995,
      "requ": 996,
      "top": 997,
      "emp": 998,
      "country": 999,
      "incre": 1000,
      "happ": 1001,
      "30": 1002,
      "So": 1003,
      "Up": 1004,
      "told": 1005,
      "ime": 1006,
      "eff": 1007,
      "uclear": 1008,
      "25": 1009,
      "camp": 1010,
      "——": 1011,
      "ma": 1012,
      "take": 1013,
      "gram": 1014,
      "America": 1015,
      "ste": 1016,
      "look": 1017,
      "prof": 1018,
      "dr": 1019,
      "ony": 1020,
      "hoto": 1021,
      "thor": 1022,
      "stitut": 1023,
      "ds": 1024,
      "Euro": 1025,
      "Please": 1026,
      "during": 1027,
      "since": 1028,
      "ask": 1029,
      "//": 1030,
      "bro": 1031,
      "giv": 1032,
      "rist": 1033,
      "another": 1034,
      "ween": 1035,
      "Russia": 1036,
      "jo": 1037,
      "tell": 1038,
      "big": 1039,
      "les": 1040,
      "://": 1041,
      "cover": 1042,
      "ered": 1043,
      "====": 1044,
      "cording": 1045,
      "including": 1046,
      "kill": 1047,
      "wom": 1048,
      "home": 1049,
      "life": 1050,
      "ttp": 1051,
      "12": 1052,
      "http": 1053,
      "oper": 1054,
      "without": 1055,
      "days": 1056,
      "ized": 1057,
      "AN": 1058,
      "cap": 1059,
      "found": 1060,
      "iness": 1061,
      "ness": 1062,
      "ures": 1063,
      "start": 1064,
      "ederal": 1065,
      "ports": 1066,
      "commun": 1067,
      "information": 1068,
      "pop": 1069,
      "ten": 1070,
      "vent": 1071,
      "too": 1072,
      "issu": 1073,
      "chan": 1074,
      "attack": 1075,
      "coming": 1076,
      "between": 1077,
      "Mo": 1078,
      "bers": 1079,
      "ilit": 1080,
      "allow": 1081,
      "ished": 1082,
      "poss": 1083,
      "vertis": 1084,
      "She": 1085,
      "market": 1086,
      "sign": 1087,
      "never": 1088,
      "contro": 1089,
      "aign": 1090,
      "hn": 1091,
      "ety": 1092,
      "bal": 1093,
      "uman": 1094,
      "claim": 1095,
      "Mar": 1096,
      "got": 1097,
      "hand": 1098,
      "ship": 1099,
      "ians": 1100,
      "prom": 1101,
      "House": 1102,
      "az": 1103,
      "came": 1104,
      "iel": 1105,
      "person": 1106,
      "Islamic": 1107,
      "same": 1108,
      "program": 1109,
      "curren": 1110,
      "free": 1111,
      "ross": 1112,
      "prov": 1113,
      "ular": 1114,
      "oney": 1115,
      "month": 1116,
      "Continue": 1117,
      "vol": 1118,
      "Europe": 1119,
      "14": 1120,
      "cut": 1121,
      "dy": 1122,
      "num": 1123,
      "place": 1124,
      "Pol": 1125,
      "Rec": 1126,
      "elect": 1127,
      "ns": 1128,
      "stru": 1129,
      "ights": 1130,
      "appe": 1131,
      "produc": 1132,
      "Times": 1133,
      "blo": 1134,
      "lim": 1135,
      "rug": 1136,
      "del": 1137,
      "ff": 1138,
      "vir": 1139,
      "rece": 1140,
      "search": 1141,
      "char": 1142,
      "loy": 1143,
      "Co": 1144,
      "set": 1145,
      "book": 1146,
      "might": 1147,
      "ending": 1148,
      "ord": 1149,
      "ital": 1150,
      "former": 1151,
      "Stud": 1152,
      "En": 1153,
      "few": 1154,
      "three": 1155,
      "recent": 1156,
      "seem": 1157,
      "ames": 1158,
      "find": 1159,
      "har": 1160,
      "site": 1161,
      "ually": 1162,
      "$$": 1163,
      "eve": 1164,
      "tax": 1165,
      "ept": 1166,
      "ced": 1167,
      "ik": 1168,
      "men": 1169,
      "stat": 1170,
      "opp": 1171,
      "ban": 1172,
      "reme": 1173,
      "ases": 1174,
      "chang": 1175,
      "aren": 1176,
      "John": 1177,
      "campaign": 1178,
      "jor": 1179,
      "post": 1180,
      "ected": 1181,
      "both": 1182,
      "itional": 1183,
      "pur": 1184,
      "side": 1185,
      "ages": 1186,
      "ces": 1187,
      "power": 1188,
      "sm": 1189,
      "won": 1190,
      "ants": 1191,
      "atch": 1192,
      "left": 1193,
      "State": 1194,
      "scri": 1195,
      "What": 1196,
      "Add": 1197,
      "political": 1198,
      "la": 1199,
      "reet": 1200,
      "tra": 1201,
      "Ex": 1202,
      "must": 1203,
      "organ": 1204,
      "All": 1205,
      "something": 1206,
      "children": 1207,
      "ief": 1208,
      "ted": 1209,
      "iday": 1210,
      "letter": 1211,
      "dist": 1212,
      "oth": 1213,
      "ired": 1214,
      "posed": 1215,
      "ready": 1216,
      "chool": 1217,
      "18": 1218,
      "De": 1219,
      "sum": 1220,
      "ministration": 1221,
      "ger": 1222,
      "money": 1223,
      "nation": 1224,
      "oot": 1225,
      "pass": 1226,
      "ails": 1227,
      "foreign": 1228,
      "bus": 1229,
      "kn": 1230,
      "comes": 1231,
      "official": 1232,
      "Pl": 1233,
      "Sup": 1234,
      "bre": 1235,
      "ider": 1236,
      "ER": 1237,
      "How": 1238,
      "ather": 1239,
      "ref": 1240,
      "imin": 1241,
      "app": 1242,
      "When": 1243,
      "media": 1244,
      "bur": 1245,
      "dem": 1246,
      "wr": 1247,
      "ond": 1248,
      "today": 1249,
      "ago": 1250,
      "author": 1251,
      "ittle": 1252,
      "change": 1253,
      "Med": 1254,
      "cal": 1255,
      "hold": 1256,
      "ient": 1257,
      "rad": 1258,
      "sit": 1259,
      "ont": 1260,
      "least": 1261,
      "away": 1262,
      "ey": 1263,
      "ina": 1264,
      "trans": 1265,
      "Ag": 1266,
      "ars": 1267,
      "akes": 1268,
      "ives": 1269,
      "ways": 1270,
      "fil": 1271,
      "cept": 1272,
      "death": 1273,
      "quest": 1274,
      "list": 1275,
      "contr": 1276,
      "Inter": 1277,
      "ashing": 1278,
      "differ": 1279,
      "later": 1280,
      "really": 1281,
      "best": 1282,
      "move": 1283,
      "exper": 1284,
      "follow": 1285,
      "ude": 1286,
      "ately": 1287,
      "May": 1288,
      "One": 1289,
      "cy": 1290,
      "fac": 1291,
      "resul": 1292,
      "ese": 1293,
      "open": 1294,
      "early": 1295,
      "Advertis": 1296,
      "interest": 1297,
      "drug": 1298,
      "Christ": 1299,
      "cit": 1300,
      "ling": 1301,
      "nal": 1302,
      "proble": 1303,
      "keep": 1304,
      "family": 1305,
      "investig": 1306,
      "AR": 1307,
      "den": 1308,
      "ee": 1309,
      "polic": 1310,
      "job": 1311,
      "nes": 1312,
      "Af": 1313,
      "little": 1314,
      "sk": 1315,
      "ст": 1316,
      "around": 1317,
      "ney": 1318,
      "current": 1319,
      "17": 1320,
      "empt": 1321,
      "ize": 1322,
      "four": 1323,
      "hour": 1324,
      "ify": 1325,
      "Te": 1326,
      "sing": 1327,
      "ern": 1328,
      "using": 1329,
      "body": 1330,
      "contin": 1331,
      "special": 1332,
      "major": 1333,
      "hist": 1334,
      "ов": 1335,
      "doc": 1336,
      "2016": 1337,
      "White": 1338,
      "Dav": 1339,
      "Or": 1340,
      "Sy": 1341,
      "among": 1342,
      "crit": 1343,
      "Ro": 1344,
      "late": 1345,
      "pec": 1346,
      "turn": 1347,
      "better": 1348,
      "olog": 1349,
      "Sept": 1350,
      "dep": 1351,
      "likely": 1352,
      "case": 1353,
      "mig": 1354,
      "past": 1355,
      "ends": 1356,
      "present": 1357,
      "www": 1358,
      "ilitary": 1359,
      "grow": 1360,
      "next": 1361,
      "water": 1362,
      "atur": 1363,
      "ember": 1364,
      "plain": 1365,
      "ock": 1366,
      "viol": 1367,
      "Brit": 1368,
      "Col": 1369,
      "Don": 1370,
      "clear": 1371,
      "gun": 1372,
      "ls": 1373,
      "й": 1374,
      "loo": 1375,
      "article": 1376,
      "subscri": 1377,
      "Russian": 1378,
      "business": 1379,
      "Washing": 1380,
      "ca": 1381,
      "outh": 1382,
      "ecut": 1383,
      "ably": 1384,
      "inton": 1385,
      "believe": 1386,
      "Advertisement": 1387,
      "Washington": 1388,
      "EN": 1389,
      "Nor": 1390,
      "West": 1391,
      "det": 1392,
      "hop": 1393,
      "lot": 1394,
      "wit": 1395,
      "ley": 1396,
      "why": 1397,
      "ization": 1398,
      "employ": 1399,
      "50": 1400,
      "gle": 1401,
      "mus": 1402,
      "force": 1403,
      "appro": 1404,
      "feel": 1405,
      "Dep": 1406,
      "TH": 1407,
      "cri": 1408,
      "soc": 1409,
      "ended": 1410,
      "Car": 1411,
      "Pe": 1412,
      "level": 1413,
      "ified": 1414,
      "things": 1415,
      "At": 1416,
      "Can": 1417,
      "eb": 1418,
      "gin": 1419,
      "vide": 1420,
      "import": 1421,
      "ection": 1422,
      "Republican": 1423,
      "13": 1424,
      "AL": 1425,
      "Act": 1426,
      "Gr": 1427,
      "War": 1428,
      "hol": 1429,
      "human": 1430,
      "nuclear": 1431,
      "sal": 1432,
      "school": 1433,
      "administration": 1434,
      "199": 1435,
      "says": 1436,
      "Be": 1437,
      "aid": 1438,
      "iver": 1439,
      "ни": 1440,
      "took": 1441,
      "company": 1442,
      "____": 1443,
      "ield": 1444,
      "hal": 1445,
      "key": 1446,
      "women": 1447,
      "Recs": 1448,
      "Bar": 1449,
      "ID": 1450,
      "idence": 1451,
      "augh": 1452,
      "Sec": 1453,
      "sol": 1454,
      "artment": 1455,
      "ivil": 1456,
      "Clinton": 1457,
      "Cong": 1458,
      "Ed": 1459,
      "bor": 1460,
      "states": 1461,
      "sever": 1462,
      "acc": 1463,
      "ided": 1464,
      "room": 1465,
      "fort": 1466,
      "uck": 1467,
      "legal": 1468,
      "Ac": 1469,
      "Jan": 1470,
      "bed": 1471,
      "city": 1472,
      "fight": 1473,
      "great": 1474,
      "ler": 1475,
      "research": 1476,
      "eng": 1477,
      "times": 1478,
      "given": 1479,
      "known": 1480,
      "Fran": 1481,
      "Now": 1482,
      "aring": 1483,
      "ader": 1484,
      "fri": 1485,
      "spir": 1486,
      "vious": 1487,
      "Health": 1488,
      "ior": 1489,
      "jud": 1490,
      "enough": 1491,
      "ories": 1492,
      "ability": 1493,
      "trad": 1494,
      "large": 1495,
      "AP": 1496,
      "Bl": 1497,
      "Mus": 1498,
      "Sh": 1499,
      "gre": 1500,
      "night": 1501,
      "ug": 1502,
      "secur": 1503,
      "chief": 1504,
      "oung": 1505,
      "viron": 1506,
      "Put": 1507,
      "federal": 1508,
      "record": 1509,
      "Congress": 1510,
      "Am": 1511,
      "Dr": 1512,
      "His": 1513,
      "gress": 1514,
      "gether": 1515,
      "members": 1516,
      "happen": 1517,
      "Supreme": 1518,
      "Pr": 1519,
      "Sign": 1520,
      "With": 1521,
      "dom": 1522,
      "sl": 1523,
      "writ": 1524,
      "already": 1525,
      "Art": 1526,
      "iversity": 1527,
      "Photo": 1528,
      "Wor": 1529,
      "based": 1530,
      "hard": 1531,
      "mis": 1532,
      "aged": 1533,
      "ards": 1534,
      "ground": 1535,
      "vote": 1536,
      "mission": 1537,
      "possible": 1538,
      "others": 1539,
      "More": 1540,
      "OR": 1541,
      "bar": 1542,
      "pat": 1543,
      "went": 1544,
      "ata": 1545,
      "concer": 1546,
      "lobal": 1547,
      "oogle": 1548,
      "aily": 1549,
      "turned": 1550,
      "fail": 1551,
      "uly": 1552,
      "reason": 1553,
      "together": 1554,
      "ised": 1555,
      "nothing": 1556,
      "reported": 1557,
      "Min": 1558,
      "Ser": 1559,
      "bing": 1560,
      "ister": 1561,
      "deal": 1562,
      "count": 1563,
      "velop": 1564,
      ".,": 1565,
      "01": 1566,
      "bill": 1567,
      "hip": 1568,
      "non": 1569,
      "inc": 1570,
      "ators": 1571,
      "ster": 1572,
      "unt": 1573,
      "certain": 1574,
      "struct": 1575,
      "citiz": 1576,
      "OP": 1577,
      "win": 1578,
      "execut": 1579,
      "cost": 1580,
      "leaders": 1581,
      "course": 1582,
      "sent": 1583,
      "urch": 1584,
      "doesn": 1585,
      "member": 1586,
      "stead": 1587,
      "AS": 1588,
      "Google": 1589,
      "Res": 1590,
      "ience": 1591,
      "itions": 1592,
      "ured": 1593,
      "partic": 1594,
      "services": 1595,
      "ances": 1596,
      "effect": 1597,
      "kind": 1598,
      "ove": 1599,
      "share": 1600,
      "address": 1601,
      "Ali": 1602,
      "Mon": 1603,
      "National": 1604,
      "ged": 1605,
      "name": 1606,
      "idd": 1607,
      "unch": 1608,
      "shot": 1609,
      "ife": 1610,
      "ived": 1611,
      "Friday": 1612,
      "control": 1613,
      "changes": 1614,
      "**": 1615,
      "billion": 1616,
      "adv": 1617,
      "according": 1618,
      "ides": 1619,
      "une": 1620,
      "activ": 1621,
      "Americans": 1622,
      "consider": 1623,
      "16": 1624,
      "Cor": 1625,
      "Just": 1626,
      "ov": 1627,
      "ric": 1628,
      "ints": 1629,
      "second": 1630,
      "raw": 1631,
      "----": 1632,
      "number": 1633,
      "Ge": 1634,
      "Ger": 1635,
      "aud": 1636,
      "hind": 1637,
      "met": 1638,
      "ral": 1639,
      "spo": 1640,
      "once": 1641,
      "step": 1642,
      "often": 1643,
      "ands": 1644,
      "hether": 1645,
      "indust": 1646,
      "flu": 1647,
      "priv": 1648,
      "Department": 1649,
      "important": 1650,
      "half": 1651,
      "40": 1652,
      "field": 1653,
      "making": 1654,
      "uge": 1655,
      "remain": 1656,
      "weap": 1657,
      "meet": 1658,
      "class": 1659,
      "compan": 1660,
      "Leader": 1661,
      "security": 1662,
      "ham": 1663,
      "kes": 1664,
      "rain": 1665,
      "tar": 1666,
      "test": 1667,
      "на": 1668,
      "ones": 1669,
      "University": 1670,
      "selves": 1671,
      "several": 1672,
      "Do": 1673,
      "ges": 1674,
      "pain": 1675,
      "sen": 1676,
      "ither": 1677,
      "ource": 1678,
      "different": 1679,
      "Wed": 1680,
      "civil": 1681,
      "mit": 1682,
      "young": 1683,
      "online": 1684,
      "reed": 1685,
      "ener": 1686,
      "ggest": 1687,
      "Putin": 1688,
      "My": 1689,
      "bad": 1690,
      "ball": 1691,
      "ator": 1692,
      "team": 1693,
      "didn": 1694,
      "Po": 1695,
      "Pal": 1696,
      "eas": 1697,
      "equ": 1698,
      "ike": 1699,
      "rights": 1700,
      "suggest": 1701,
      "ird": 1702,
      "email": 1703,
      "ulation": 1704,
      "action": 1705,
      "By": 1706,
      "Hill": 1707,
      "Man": 1708,
      "food": 1709,
      "hy": 1710,
      "vo": 1711,
      "erous": 1712,
      "tow": 1713,
      "ects": 1714,
      "ury": 1715,
      "tries": 1716,
      "aken": 1717,
      "ublished": 1718,
      "video": 1719,
      "Bush": 1720,
      "Tor": 1721,
      "ps": 1722,
      "reports": 1723,
      "environ": 1724,
      "icking": 1725,
      "ott": 1726,
      "having": 1727,
      "develop": 1728,
      "full": 1729,
      "Syri": 1730,
      "IC": 1731,
      "house": 1732,
      "ision": 1733,
      "itor": 1734,
      "deb": 1735,
      "upd": 1736,
      "court": 1737,
      "imple": 1738,
      "Study": 1739,
      "officials": 1740,
      "Ms": 1741,
      "face": 1742,
      "pi": 1743,
      "ream": 1744,
      "seen": 1745,
      "ament": 1746,
      "term": 1747,
      "working": 1748,
      "mean": 1749,
      "vision": 1750,
      "announ": 1751,
      "opping": 1752,
      "80": 1753,
      "Bo": 1754,
      "East": 1755,
      "ра": 1756,
      "become": 1757,
      "suc": 1758,
      "process": 1759,
      "mental": 1760,
      "web": 1761,
      "doing": 1762,
      "Street": 1763,
      "position": 1764,
      "study": 1765,
      "profess": 1766,
      "asked": 1767,
      "small": 1768,
      "music": 1769,
      "cas": 1770,
      "ech": 1771,
      "mor": 1772,
      "nor": 1773,
      "invol": 1774,
      "behind": 1775,
      "ournal": 1776,
      "prob": 1777,
      "ivid": 1778,
      "party": 1779,
      "thought": 1780,
      "Senate": 1781,
      "looking": 1782,
      "Wednes": 1783,
      "cle": 1784,
      "di": 1785,
      "done": 1786,
      "gest": 1787,
      "game": 1788,
      "whether": 1789,
      "ison": 1790,
      "ications": 1791,
      "ution": 1792,
      "front": 1793,
      "box": 1794,
      "Republicans": 1795,
      "minister": 1796,
      "companies": 1797,
      "26": 1798,
      "ben": 1799,
      "fell": 1800,
      "ier": 1801,
      "mber": 1802,
      "across": 1803,
      "2014": 1804,
      "terrorism": 1805,
      "economy": 1806,
      "products": 1807,
      "23": 1808,
      "Bro": 1809,
      "ST": 1810,
      "each": 1811,
      "gir": 1812,
      "always": 1813,
      "ential": 1814,
      "conn": 1815,
      "2015": 1816,
      "From": 1817,
      "economic": 1818,
      "risk": 1819,
      "100": 1820,
      "ibut": 1821,
      "mind": 1822,
      "stop": 1823,
      "alk": 1824,
      "unity": 1825,
      "uses": 1826,
      "disc": 1827,
      "crimin": 1828,
      "talk": 1829,
      "========": 1830,
      "Coun": 1831,
      "Feb": 1832,
      "ece": 1833,
      "2017": 1834,
      "interview": 1835,
      "ensive": 1836,
      "European": 1837,
      "election": 1838,
      ",''": 1839,
      "IR": 1840,
      "Tues": 1841,
      "give": 1842,
      "sex": 1843,
      "urs": 1844,
      "conf": 1845,
      "saying": 1846,
      "Nove": 1847,
      "Fl": 1848,
      "Some": 1849,
      "Tur": 1850,
      "bit": 1851,
      "fall": 1852,
      "rate": 1853,
      "threat": 1854,
      "reach": 1855,
      "ale": 1856,
      "soon": 1857,
      "tee": 1858,
      "tele": 1859,
      "avy": 1860,
      "November": 1861,
      ".)": 1862,
      "five": 1863,
      "iew": 1864,
      "wide": 1865,
      "repe": 1866,
      "ald": 1867,
      "ollar": 1868,
      "offers": 1869,
      "countries": 1870,
      "question": 1871,
      "weapons": 1872,
      "Ne": 1873,
      "mass": 1874,
      "ring": 1875,
      "sec": 1876,
      "live": 1877,
      "short": 1878,
      "pose": 1879,
      "While": 1880,
      "197": 1881,
      "subject": 1882,
      "problem": 1883,
      "history": 1884,
      "David": 1885,
      "Wednesday": 1886,
      "AD": 1887,
      "Bank": 1888,
      "ET": 1889,
      "II": 1890,
      "dang": 1891,
      "fire": 1892,
      "military": 1893,
      "near": 1894,
      "var": 1895,
      "по": 1896,
      "anal": 1897,
      "reas": 1898,
      "star": 1899,
      "lex": 1900,
      "agree": 1901,
      "proper": 1902,
      "Ind": 1903,
      "aker": 1904,
      "occur": 1905,
      "avail": 1906,
      "2009": 1907,
      "product": 1908,
      "ulture": 1909,
      "gener": 1910,
      "Democratic": 1911,
      "ED": 1912,
      "EU": 1913,
      "Gen": 1914,
      "Not": 1915,
      "light": 1916,
      "uary": 1917,
      "almost": 1918,
      "isl": 1919,
      "comment": 1920,
      "plac": 1921,
      "black": 1922,
      "visit": 1923,
      "buy": 1924,
      "protest": 1925,
      "Additional": 1926,
      "Agency": 1927,
      "Canad": 1928,
      "iddle": 1929,
      "industry": 1930,
      "IA": 1931,
      "Sun": 1932,
      "cand": 1933,
      "cast": 1934,
      "dam": 1935,
      "uce": 1936,
      "watch": 1937,
      "ines": 1938,
      "ots": 1939,
      "liber": 1940,
      "grap": 1941,
      "social": 1942,
      "success": 1943,
      "Part": 1944,
      "global": 1945,
      "ium": 1946,
      "rul": 1947,
      "uation": 1948,
      "ре": 1949,
      "susp": 1950,
      "workers": 1951,
      "understand": 1952,
      "build": 1953,
      "Mic": 1954,
      "Ph": 1955,
      "Will": 1956,
      "cop": 1957,
      "leave": 1958,
      "local": 1959,
      "individ": 1960,
      "compet": 1961,
      "pointed": 1962,
      "speech": 1963,
      "protect": 1964,
      "City": 1965,
      "LL": 1966,
      "Pat": 1967,
      "mess": 1968,
      "ny": 1969,
      "wa": 1970,
      "season": 1971,
      "immig": 1972,
      "actually": 1973,
      "efore": 1974,
      "commit": 1975,
      "Associ": 1976,
      "fully": 1977,
      "close": 1978,
      "matter": 1979,
      "groups": 1980,
      "Before": 1981,
      "Dec": 1982,
      "Mark": 1983,
      "Of": 1984,
      "espec": 1985,
      "white": 1986,
      "uture": 1987,
      "shopping": 1988,
      "ried": 1989,
      "cris": 1990,
      "After": 1991,
      "January": 1992,
      "available": 1993,
      "especially": 1994,
      "Ra": 1995,
      "gl": 1996,
      "hor": 1997,
      "mp": 1998,
      "oil": 1999,
      "photo": 2000,
      "rac": 2001,
      "usu": 2002,
      "yet": 2003,
      "error": 2004,
      "itive": 2005,
      "imil": 2006,
      "points": 2007,
      "attempt": 2008,
      "decad": 2009,
      "2008": 2010,
      "financ": 2011,
      "months": 2012,
      "until": 2013,
      "energy": 2014,
      "21": 2015,
      "Har": 2016,
      "cul": 2017,
      "nam": 2018,
      "ox": 2019,
      "ron": 2020,
      "explain": 2021,
      "shoot": 2022,
      "aper": 2023,
      "evidence": 2024,
      "added": 2025,
      "However": 2026,
      "Geor": 2027,
      "22": 2028,
      "Daily": 2029,
      "ele": 2030,
      "mir": 2031,
      "treat": 2032,
      "ering": 2033,
      "rele": 2034,
      "sell": 2035,
      "abor": 2036,
      "above": 2037,
      "rants": 2038,
      "2013": 2039,
      "scient": 2040,
      "serious": 2041,
      "trying": 2042,
      "ING": 2043,
      "policy": 2044,
      "hours": 2045,
      "According": 2046,
      "Muslim": 2047,
      "Tuesday": 2048,
      "Econ": 2049,
      "Sp": 2050,
      "Soc": 2051,
      "dou": 2052,
      "either": 2053,
      "began": 2054,
      "else": 2055,
      "thern": 2056,
      "office": 2057,
      "ference": 2058,
      "famil": 2059,
      "Econom": 2060,
      "Sc": 2061,
      "Sch": 2062,
      "round": 2063,
      "но": 2064,
      "ention": 2065,
      "ender": 2066,
      "means": 2067,
      "owners": 2068,
      "medical": 2069,
      "themselves": 2070,
      "explo": 2071,
      "ology": 2072,
      "community": 2073,
      "claims": 2074,
      "discuss": 2075,
      "God": 2076,
      "July": 2077,
      "Lin": 2078,
      "RO": 2079,
      "ming": 2080,
      "pot": 2081,
      "taking": 2082,
      "orice": 2083,
      "educ": 2084,
      "imal": 2085,
      "dest": 2086,
      "spending": 2087,
      "McC": 2088,
      "Democrats": 2089,
      "receive": 2090,
      "candid": 2091,
      ".''": 2092,
      "Day": 2093,
      "nec": 2094,
      "pen": 2095,
      "pet": 2096,
      "six": 2097,
      "yed": 2098,
      "ery": 2099,
      "lege": 2100,
      "ford": 2101,
      "works": 2102,
      "rael": 2103,
      "manag": 2104,
      "someone": 2105,
      "Israel": 2106,
      "————": 2107,
      "continu": 2108,
      "World": 2109,
      "IT": 2110,
      "hran": 2111,
      "ature": 2112,
      "secre": 2113,
      "anyone": 2114,
      "que": 2115,
      "ored": 2116,
      "Thurs": 2117,
      "ruary": 2118,
      "ences": 2119,
      "service": 2120,
      "break": 2121,
      "Tehran": 2122,
      "Hillary": 2123,
      "February": 2124,
      "imilar": 2125,
      "Bill": 2126,
      "bot": 2127,
      "bank": 2128,
      "dro": 2129,
      "fur": 2130,
      "gold": 2131,
      "mater": 2132,
      "makes": 2133,
      "along": 2134,
      "held": 2135,
      "ilt": 2136,
      "formed": 2137,
      "igin": 2138,
      "conserv": 2139,
      "words": 2140,
      "cred": 2141,
      "continue": 2142,
      "bring": 2143,
      "itted": 2144,
      "relation": 2145,
      "surve": 2146,
      "general": 2147,
      "increase": 2148,
      "killed": 2149,
      "started": 2150,
      "issue": 2151,
      "Donald": 2152,
      "27": 2153,
      "Me": 2154,
      "Nuclear": 2155,
      "South": 2156,
      "Wal": 2157,
      "fair": 2158,
      "mom": 2159,
      "vice": 2160,
      "lies": 2161,
      "Thank": 2162,
      "meas": 2163,
      "international": 2164,
      "ample": 2165,
      "strong": 2166,
      "issues": 2167,
      "depend": 2168,
      "town": 2169,
      "Aug": 2170,
      "Center": 2171,
      "hom": 2172,
      "hot": 2173,
      "iety": 2174,
      "anks": 2175,
      "icorice": 2176,
      "true": 2177,
      "saw": 2178,
      "worth": 2179,
      "anything": 2180,
      "anti": 2181,
      "China": 2182,
      "host": 2183,
      "legisl": 2184,
      "respons": 2185,
      "Ab": 2186,
      "GOP": 2187,
      "Per": 2188,
      "draw": 2189,
      "dollar": 2190,
      "gn": 2191,
      "psy": 2192,
      "ал": 2193,
      "acts": 2194,
      "poor": 2195,
      "occas": 2196,
      "2012": 2197,
      "hosp": 2198,
      "Read": 2199,
      "everyone": 2200,
      "Polit": 2201,
      "statement": 2202,
      "film": 2203,
      "jobs": 2204,
      "29": 2205,
      "60": 2206,
      "MO": 2207,
      "Sub": 2208,
      "aul": 2209,
      "future": 2210,
      "iber": 2211,
      "thous": 2212,
      "ising": 2213,
      "iting": 2214,
      "within": 2215,
      "ained": 2216,
      "rather": 2217,
      "tech": 2218,
      "getting": 2219,
      "everything": 2220,
      "descri": 2221,
      "defense": 2222,
      "ordin": 2223,
      "situation": 2224,
      "drugs": 2225,
      "People": 2226,
      "citizens": 2227,
      "occurred": 2228,
      "relationship": 2229,
      "24": 2230,
      "TV": 2231,
      "fig": 2232,
      "pite": 2233,
      "ко": 2234,
      "ali": 2235,
      "select": 2236,
      "advis": 2237,
      "begin": 2238,
      "road": 2239,
      "living": 2240,
      "dead": 2241,
      "assist": 2242,
      "believ": 2243,
      "seems": 2244,
      "demand": 2245,
      "North": 2246,
      "Che": 2247,
      "March": 2248,
      "Our": 2249,
      "UK": 2250,
      "View": 2251,
      "bas": 2252,
      "border": 2253,
      "gal": 2254,
      "ken": 2255,
      "mag": 2256,
      "mill": 2257,
      "mail": 2258,
      "push": 2259,
      "yan": 2260,
      "ats": 2261,
      "igence": 2262,
      "ute": 2263,
      "cell": 2264,
      "rant": 2265,
      "event": 2266,
      "izing": 2267,
      "comput": 2268,
      "join": 2269,
      "Plus": 2270,
      "ES": 2271,
      "Federal": 2272,
      "fel": 2273,
      "fast": 2274,
      "games": 2275,
      "taken": 2276,
      "ert": 2277,
      "irst": 2278,
      "series": 2279,
      "2007": 2280,
      "sales": 2281,
      "updates": 2282,
      "benef": 2283,
      "June": 2284,
      "Press": 2285,
      "mot": 2286,
      "vin": 2287,
      "ос": 2288,
      "third": 2289,
      "lete": 2290,
      "ull": 2291,
      "range": 2292,
      "2018": 2293,
      "ption": 2294,
      "however": 2295,
      "strate": 2296,
      "wanted": 2297,
      "probably": 2298,
      "crisis": 2299,
      "Blo": 2300,
      "Di": 2301,
      "Face": 2302,
      "Public": 2303,
      "Uk": 2304,
      "bom": 2305,
      "dict": 2306,
      "father": 2307,
      "rup": 2308,
      "ет": 2309,
      "erve": 2310,
      "stay": 2311,
      "ico": 2312,
      "associ": 2313,
      "agre": 2314,
      "moved": 2315,
      "dog": 2316,
      "Comp": 2317,
      "friend": 2318,
      "Minister": 2319,
      "Ukrain": 2320,
      "Govern": 2321,
      "TO": 2322,
      "dri": 2323,
      "hib": 2324,
      "lap": 2325,
      "mur": 2326,
      "uel": 2327,
      "income": 2328,
      "ican": 2329,
      "access": 2330,
      "role": 2331,
      "iff": 2332,
      "firm": 2333,
      "regist": 2334,
      "expected": 2335,
      "director": 2336,
      "received": 2337,
      "docu": 2338,
      "reedom": 2339,
      "Syria": 2340,
      "Thursday": 2341,
      "Cha": 2342,
      "gas": 2343,
      "gave": 2344,
      "journal": 2345,
      "similar": 2346,
      "vict": 2347,
      "wro": 2348,
      "zer": 2349,
      "stri": 2350,
      "alleg": 2351,
      "ids": 2352,
      "rod": 2353,
      "ched": 2354,
      "endment": 2355,
      "following": 2356,
      "investigation": 2357,
      "private": 2358,
      "45": 2359,
      "Even": 2360,
      "fun": 2361,
      "gar": 2362,
      "sound": 2363,
      "uth": 2364,
      "inv": 2365,
      "enk": 2366,
      "isn": 2367,
      "asing": 2368,
      "forces": 2369,
      "lost": 2370,
      "ction": 2371,
      "cannot": 2372,
      "bert": 2373,
      "obtain": 2374,
      "supp": 2375,
      "tural": 2376,
      "Today": 2377,
      "woman": 2378,
      "Student": 2379,
      "recently": 2380,
      "result": 2381,
      "material": 2382,
      "wrote": 2383,
      "Ho": 2384,
      "Here": 2385,
      "ION": 2386,
      "Qu": 2387,
      "UN": 2388,
      "date": 2389,
      "ees": 2390,
      "ients": 2391,
      "inj": 2392,
      "atives": 2393,
      "toward": 2394,
      "argu": 2395,
      "below": 2396,
      "iding": 2397,
      "chance": 2398,
      "ets": 2399,
      "love": 2400,
      "ought": 2401,
      "answ": 2402,
      "letters": 2403,
      "Iraqi": 2404,
      "vention": 2405,
      "September": 2406,
      "psych": 2407,
      "Tails": 2408,
      "link": 2409,
      "enforce": 2410,
      "ively": 2411,
      "Then": 2412,
      "indow": 2413,
      "medi": 2414,
      "medic": 2415,
      "design": 2416,
      "imply": 2417,
      "capital": 2418,
      "population": 2419,
      "signific": 2420,
      "British": 2421,
      "subscribe": 2422,
      "dangerous": 2423,
      "Rahim": 2424,
      "El": 2425,
      "First": 2426,
      "Gu": 2427,
      "NA": 2428,
      "Oc": 2429,
      "Source": 2430,
      "Ty": 2431,
      "ded": 2432,
      "flo": 2433,
      "foc": 2434,
      "ffer": 2435,
      "san": 2436,
      "tion": 2437,
      "не": 2438,
      "secut": 2439,
      "trade": 2440,
      "lier": 2441,
      "ples": 2442,
      "plic": 2443,
      "quick": 2444,
      "Char": 2445,
      "readers": 2446,
      "gets": 2447,
      "include": 2448,
      "students": 2449,
      "respond": 2450,
      "wrong": 2451,
      "ological": 2452,
      "hope": 2453,
      "Article": 2454,
      "piece": 2455,
      "General": 2456,
      "McCain": 2457,
      "necess": 2458,
      "Law": 2459,
      "Par": 2460,
      "ped": 2461,
      "paren": 2462,
      "paid": 2463,
      "vic": 2464,
      "wood": 2465,
      "street": 2466,
      "stances": 2467,
      "ality": 2468,
      "tox": 2469,
      "arm": 2470,
      "heart": 2471,
      "ook": 2472,
      "Why": 2473,
      "pret": 2474,
      "previous": 2475,
      "itting": 2476,
      "respon": 2477,
      "valid": 2478,
      "allowed": 2479,
      "banks": 2480,
      "executive": 2481,
      "Party": 2482,
      "financial": 2483,
      "computer": 2484,
      "Facebook": 2485,
      "CIA": 2486,
      "Hol": 2487,
      "bi": 2488,
      "cil": 2489,
      "ging": 2490,
      "iam": 2491,
      "mult": 2492,
      "sil": 2493,
      "tit": 2494,
      "thin": 2495,
      "enem": 2496,
      "orid": 2497,
      "origin": 2498,
      "arrest": 2499,
      "forman": 2500,
      "ements": 2501,
      "spent": 2502,
      "whose": 2503,
      "quar": 2504,
      "pract": 2505,
      "reng": 2506,
      "create": 2507,
      "decision": 2508,
      "terrorist": 2509,
      "promot": 2510,
      "results": 2511,
      "secret": 2512,
      "Gre": 2513,
      "Let": 2514,
      "Oct": 2515,
      "PM": 2516,
      "cust": 2517,
      "mal": 2518,
      "ners": 2519,
      "sed": 2520,
      "ла": 2521,
      "то": 2522,
      "ال": 2523,
      "leav": 2524,
      "els": 2525,
      "istan": 2526,
      "example": 2527,
      "deep": 2528,
      "whole": 2529,
      "complete": 2530,
      "lower": 2531,
      "leading": 2532,
      "society": 2533,
      "stitution": 2534,
      "website": 2535,
      "further": 2536,
      "August": 2537,
      "Afr": 2538,
      "BI": 2539,
      "Bel": 2540,
      "Life": 2541,
      "Park": 2542,
      "Paul": 2543,
      "Satur": 2544,
      "Twit": 2545,
      "band": 2546,
      "hit": 2547,
      "iation": 2548,
      "stories": 2549,
      "entire": 2550,
      "accept": 2551,
      "amer": 2552,
      "amoun": 2553,
      "ources": 2554,
      "ctor": 2555,
      "worse": 2556,
      "clicking": 2557,
      "ruz": 2558,
      "shows": 2559,
      "check": 2560,
      "require": 2561,
      "launch": 2562,
      "latest": 2563,
      "implement": 2564,
      "techn": 2565,
      "significant": 2566,
      "35": 2567,
      "Licorice": 2568,
      "OT": 2569,
      "Rich": 2570,
      "Tex": 2571,
      "due": 2572,
      "ires": 2573,
      "pict": 2574,
      "race": 2575,
      "sou": 2576,
      "ро": 2577,
      "instead": 2578,
      "rew": 2579,
      "enn": 2580,
      "ently": 2581,
      "hear": 2582,
      "liament": 2583,
      "wasn": 2584,
      "express": 2585,
      "appointed": 2586,
      "safe": 2587,
      "2011": 2588,
      "attle": 2589,
      "ibility": 2590,
      "rown": 2591,
      "needed": 2592,
      "running": 2593,
      "involved": 2594,
      "George": 2595,
      "Twitter": 2596,
      "AM": 2597,
      "Im": 2598,
      "James": 2599,
      "foot": 2600,
      "ube": 2601,
      "streng": 2602,
      "oud": 2603,
      "iter": 2604,
      "iles": 2605,
      "forward": 2606,
      "church": 2607,
      "agency": 2608,
      "spect": 2609,
      "porters": 2610,
      "These": 2611,
      "eful": 2612,
      "idea": 2613,
      "content": 2614,
      "popular": 2615,
      "Secret": 2616,
      "particular": 2617,
      "Germany": 2618,
      "spokes": 2619,
      "response": 2620,
      "28": 2621,
      "Back": 2622,
      "Ma": 2623,
      "NC": 2624,
      "OF": 2625,
      "wants": 2626,
      "ona": 2627,
      "org": 2628,
      "heard": 2629,
      "roy": 2630,
      "sue": 2631,
      "suffer": 2632,
      "ague": 2633,
      "haps": 2634,
      "performan": 2635,
      "auto": 2636,
      "Ang": 2637,
      "introd": 2638,
      "created": 2639,
      "venue": 2640,
      "conduct": 2641,
      "appear": 2642,
      "Monday": 2643,
      "morning": 2644,
      "graph": 2645,
      "enforcement": 2646,
      "Apr": 2647,
      "EC": 2648,
      "Off": 2649,
      "cases": 2650,
      "fav": 2651,
      "gain": 2652,
      "uff": 2653,
      "ер": 2654,
      "refer": 2655,
      "review": 2656,
      "represent": 2657,
      "area": 2658,
      "outside": 2659,
      "ester": 2660,
      "prices": 2661,
      "raz": 2662,
      "Union": 2663,
      "needs": 2664,
      "International": 2665,
      "critic": 2666,
      "occasional": 2667,
      "victim": 2668,
      "31": 2669,
      "Ear": 2670,
      "Fin": 2671,
      "han": 2672,
      "ihad": 2673,
      "rich": 2674,
      "та": 2675,
      "influ": 2676,
      "tober": 2677,
      "omet": 2678,
      "cele": 2679,
      "ops": 2680,
      "traff": 2681,
      "lied": 2682,
      "propos": 2683,
      "alls": 2684,
      "loss": 2685,
      "noted": 2686,
      "door": 2687,
      "vie": 2688,
      "prevent": 2689,
      "corpor": 2690,
      "rought": 2691,
      "Nov": 2692,
      "expect": 2693,
      "related": 2694,
      "longer": 2695,
      "Comm": 2696,
      "phone": 2697,
      "weeks": 2698,
      "officers": 2699,
      "broad": 2700,
      "communications": 2701,
      "orders": 2702,
      "enko": 2703,
      "Cr": 2704,
      "See": 2705,
      "nearly": 2706,
      "sold": 2707,
      "sense": 2708,
      "ени": 2709,
      "rem": 2710,
      "sett": 2711,
      "became": 2712,
      "robot": 2713,
      "suit": 2714,
      "tern": 2715,
      "illance": 2716,
      "comb": 2717,
      "abl": 2718,
      "tract": 2719,
      "lie": 2720,
      "depart": 2721,
      "plom": 2722,
      "Thanks": 2723,
      "indic": 2724,
      "uced": 2725,
      "2010": 2726,
      "goes": 2727,
      "newsletter": 2728,
      "relig": 2729,
      "final": 2730,
      "Newsletter": 2731,
      "phys": 2732,
      "blog": 2733,
      "atural": 2734,
      "girls": 2735,
      "families": 2736,
      "October": 2737,
      "CO": 2738,
      "LE": 2739,
      "Se": 2740,
      "aut": 2741,
      "data": 2742,
      "fear": 2743,
      "page": 2744,
      "rise": 2745,
      "simply": 2746,
      "го": 2747,
      "erc": 2748,
      "staff": 2749,
      "forts": 2750,
      "impro": 2751,
      "verify": 2752,
      "opport": 2753,
      "exist": 2754,
      "shut": 2755,
      "ctions": 2756,
      "ival": 2757,
      "crime": 2758,
      "counter": 2759,
      "newsletters": 2760,
      "collect": 2761,
      "continued": 2762,
      "moment": 2763,
      "thousands": 2764,
      "celebr": 2765,
      "Ber": 2766,
      "Ca": 2767,
      "Her": 2768,
      "Hor": 2769,
      "IG": 2770,
      "cir": 2771,
      "fill": 2772,
      "mach": 2773,
      "orney": 2774,
      "armed": 2775,
      "icles": 2776,
      "iling": 2777,
      "sem": 2778,
      "chall": 2779,
      "oph": 2780,
      "istic": 2781,
      "defin": 2782,
      "aks": 2783,
      "price": 2784,
      "books": 2785,
      "higher": 2786,
      "contribut": 2787,
      "growth": 2788,
      "THE": 2789,
      "announced": 2790,
      "television": 2791,
      "reasons": 2792,
      "millions": 2793,
      "Texas": 2794,
      "Data": 2795,
      "Jud": 2796,
      "Kos": 2797,
      "Your": 2798,
      "div": 2799,
      "died": 2800,
      "fic": 2801,
      "knew": 2802,
      "labor": 2803,
      "mad": 2804,
      "middle": 2805,
      "tro": 2806,
      "ties": 2807,
      "ли": 2808,
      "init": 2809,
      "immedi": 2810,
      "chair": 2811,
      "super": 2812,
      "trail": 2813,
      "load": 2814,
      "riz": 2815,
      "Invalid": 2816,
      "word": 2817,
      "grand": 2818,
      "pressure": 2819,
      "Chin": 2820,
      "cogn": 2821,
      "common": 2822,
      "supposed": 2823,
      "funds": 2824,
      "stitute": 2825,
      "travel": 2826,
      "problems": 2827,
      "single": 2828,
      "subscribing": 2829,
      "friends": 2830,
      "released": 2831,
      "scientific": 2832,
      "credit": 2833,
      "Br": 2834,
      "Every": 2835,
      "FA": 2836,
      "Mu": 2837,
      "TY": 2838,
      "bass": 2839,
      "fo": 2840,
      "hur": 2841,
      "ias": 2842,
      "published": 2843,
      "sw": 2844,
      "za": 2845,
      "inst": 2846,
      "reve": 2847,
      "ica": 2848,
      "bel": 2849,
      "ceed": 2850,
      "conven": 2851,
      "ours": 2852,
      "establ": 2853,
      "aster": 2854,
      "rance": 2855,
      "udget": 2856,
      "efforts": 2857,
      "decided": 2858,
      "regard": 2859,
      "leader": 2860,
      "operating": 2861,
      "programs": 2862,
      "Internet": 2863,
      "violence": 2864,
      "holiday": 2865,
      "Secur": 2866,
      "certainly": 2867,
      "various": 2868,
      "felt": 2869,
      "registered": 2870,
      "79": 2871,
      "BC": 2872,
      "Lo": 2873,
      "Rel": 2874,
      "iod": 2875,
      "nar": 2876,
      "ya": 2877,
      "rep": 2878,
      "enjo": 2879,
      "ises": 2880,
      "seven": 2881,
      "adm": 2882,
      "univers": 2883,
      "hael": 2884,
      "truth": 2885,
      "lives": 2886,
      "prop": 2887,
      "exact": 2888,
      "Ann": 2889,
      "effort": 2890,
      "avo": 2891,
      "attend": 2892,
      "himself": 2893,
      "tells": 2894,
      "attacks": 2895,
      "Media": 2896,
      "policies": 2897,
      "--------": 2898,
      "Post": 2899,
      "cultural": 2900,
      "Society": 2901,
      "conservative": 2902,
      "Are": 2903,
      "Bre": 2904,
      "CH": 2905,
      "Lit": 2906,
      "Window": 2907,
      "brought": 2908,
      "pun": 2909,
      "via": 2910,
      "ino": 2911,
      "bey": 2912,
      "ays": 2913,
      "emer": 2914,
      "movie": 2915,
      "willing": 2916,
      "ansion": 2917,
      "Head": 2918,
      "attention": 2919,
      "198": 2920,
      "voters": 2921,
      "ification": 2922,
      "AND": 2923,
      "produced": 2924,
      "wonder": 2925,
      "Afgh": 2926,
      "majority": 2927,
      "________": 2928,
      "message": 2929,
      "decades": 2930,
      "potential": 2931,
      "):": 2932,
      "Aust": 2933,
      "Cour": 2934,
      "Direct": 2935,
      "Go": 2936,
      "Human": 2937,
      "Published": 2938,
      "Well": 2939,
      "avi": 2940,
      "gender": 2941,
      "pan": 2942,
      "rap": 2943,
      "ination": 2944,
      "react": 2945,
      "ene": 2946,
      "orts": 2947,
      "stream": 2948,
      "editor": 2949,
      "ari": 2950,
      "icks": 2951,
      "roll": 2952,
      "period": 2953,
      "ailed": 2954,
      "board": 2955,
      "encies": 2956,
      "covered": 2957,
      "provide": 2958,
      "Organ": 2959,
      "Britain": 2960,
      "failed": 2961,
      "particip": 2962,
      "murder": 2963,
      "Richard": 2964,
      "Chinese": 2965,
      "Bec": 2966,
      "During": 2967,
      "Fore": 2968,
      "Gold": 2969,
      "Mart": 2970,
      "Sal": 2971,
      "ctr": 2972,
      "cru": 2973,
      "please": 2974,
      "uals": 2975,
      "ane": 2976,
      "atory": 2977,
      "utes": 2978,
      "concl": 2979,
      "track": 2980,
      "quite": 2981,
      "boys": 2982,
      "rench": 2983,
      "encour": 2984,
      "calling": 2985,
      "served": 2986,
      "warns": 2987,
      "regul": 2988,
      "politics": 2989,
      "built": 2990,
      "presidential": 2991,
      "harm": 2992,
      "refuge": 2993,
      "radio": 2994,
      "born": 2995,
      "target": 2996,
      "Florid": 2997,
      "Michael": 2998,
      "Phil": 2999,
      "agreement": 3000,
      "medicine": 3001,
      "Type": 3002,
      "Security": 3003,
      "Afghan": 3004,
      "39": 3005,
      "Ener": 3006,
      "French": 3007,
      "GET": 3008,
      "Has": 3009,
      "Mer": 3010,
      "Many": 3011,
      "Rom": 3012,
      "Wall": 3013,
      "bon": 3014,
      "bir": 3015,
      "huge": 3016,
      "mouth": 3017,
      "swe": 3018,
      "да": 3019,
      "ри": 3020,
      "reform": 3021,
      "stated": 3022,
      "arms": 3023,
      "tried": 3024,
      "apan": 3025,
      "raised": 3026,
      "ureau": 3027,
      "teach": 3028,
      "internet": 3029,
      "supports": 3030,
      "calls": 3031,
      "USAP": 3032,
      "brings": 3033,
      "parliament": 3034,
      "diffic": 3035,
      "giving": 3036,
      "blood": 3037,
      "aughter": 3038,
      "writes": 3039,
      "hospital": 3040,
      "Politics": 3041,
      "vinenko": 3042,
      "quarter": 3043,
      "Litvinenko": 3044,
      "Florida": 3045,
      "USAPA": 3046,
      "Att": 3047,
      "Fol": 3048,
      "Liber": 3049,
      "Military": 3050,
      "Over": 3051,
      "Ret": 3052,
      "coup": 3053,
      "lack": 3054,
      "rict": 3055,
      "tly": 3056,
      "van": 3057,
      "со": 3058,
      "”.": 3059,
      "informed": 3060,
      "store": 3061,
      "stock": 3062,
      "aled": 3063,
      "isk": 3064,
      "separ": 3065,
      "conference": 3066,
      "loc": 3067,
      "mother": 3068,
      "deter": 3069,
      "grad": 3070,
      "goal": 3071,
      "worked": 3072,
      "itten": 3073,
      "respect": 3074,
      "personal": 3075,
      "provided": 3076,
      "numbers": 3077,
      "Police": 3078,
      "passed": 3079,
      "sites": 3080,
      "growing": 3081,
      "Barack": 3082,
      "steps": 3083,
      "criminal": 3084,
      "production": 3085,
      "William": 3086,
      "Scott": 3087,
      "candidate": 3088,
      "esterday": 3089,
      "Energy": 3090,
      "\".": 3091,
      "43": 3092,
      "FBI": 3093,
      "Oh": 3094,
      "PA": 3095,
      "Sw": 3096,
      "San": 3097,
      "Spe": 3098,
      "Saf": 3099,
      "aur": 3100,
      "mist": 3101,
      "pil": 3102,
      "slow": 3103,
      "uan": 3104,
      "yn": 3105,
      "ны": 3106,
      "inations": 3107,
      "anony": 3108,
      "stick": 3109,
      "account": 3110,
      "imate": 3111,
      "ountain": 3112,
      "ctors": 3113,
      "earlier": 3114,
      "space": 3115,
      "upon": 3116,
      "Thom": 3117,
      "izations": 3118,
      "196": 3119,
      "feat": 3120,
      "extreme": 3121,
      "despite": 3122,
      "politic": 3123,
      "played": 3124,
      "talking": 3125,
      "investment": 3126,
      "request": 3127,
      "stitutional": 3128,
      "changed": 3129,
      "questions": 3130,
      "France": 3131,
      "property": 3132,
      "individual": 3133,
      "December": 3134,
      "shooting": 3135,
      "doub": 3136,
      "bomb": 3137,
      "obtained": 3138,
      "enemy": 3139,
      "April": 3140,
      "ometimes": 3141,
      "GETTY": 3142,
      "Clo": 3143,
      "Japan": 3144,
      "Last": 3145,
      "Say": 3146,
      "VD": 3147,
      "sha": 3148,
      "tour": 3149,
      "vices": 3150,
      "walk": 3151,
      "infl": 3152,
      "oring": 3153,
      "asking": 3154,
      "sequ": 3155,
      "forced": 3156,
      "ung": 3157,
      "ession": 3158,
      "actions": 3159,
      "intell": 3160,
      "typ": 3161,
      "expansion": 3162,
      "airs": 3163,
      "largest": 3164,
      "surpr": 3165,
      "playing": 3166,
      "lines": 3167,
      "increased": 3168,
      "increasing": 3169,
      "purpose": 3170,
      "nationally": 3171,
      "repeated": 3172,
      "Canada": 3173,
      "liberal": 3174,
      "assistance": 3175,
      "Ukraine": 3176,
      "parents": 3177,
      "exactly": 3178,
      "500": 3179,
      "AID": 3180,
      "Cent": 3181,
      "Dise": 3182,
      "Gov": 3183,
      "Moo": 3184,
      "Rev": 3185,
      "Tom": 3186,
      "Year": 3187,
      "bab": 3188,
      "dig": 3189,
      "hus": 3190,
      "ufact": 3191,
      "thers": 3192,
      "independ": 3193,
      "remember": 3194,
      "recogn": 3195,
      "eder": 3196,
      "itself": 3197,
      "icago": 3198,
      "rock": 3199,
      "surance": 3200,
      "terms": 3201,
      "opin": 3202,
      "progress": 3203,
      "moving": 3204,
      "model": 3205,
      "exam": 3206,
      "ultim": 3207,
      "Star": 3208,
      "Those": 3209,
      "evil": 3210,
      "prison": 3211,
      "berg": 3212,
      "minutes": 3213,
      "Obam": 3214,
      "inside": 3215,
      "players": 3216,
      "prior": 3217,
      "looked": 3218,
      "appeared": 3219,
      "deliver": 3220,
      "demon": 3221,
      "written": 3222,
      "happened": 3223,
      "Service": 3224,
      "================": 3225,
      "committee": 3226,
      "surveillance": 3227,
      "performance": 3228,
      "favor": 3229,
      "husband": 3230,
      "Ah": 3231,
      "Ben": 3232,
      "Great": 3233,
      "Jes": 3234,
      "Navy": 3235,
      "OU": 3236,
      "fa": 3237,
      "fect": 3238,
      "rout": 3239,
      "racy": 3240,
      "takes": 3241,
      "wo": 3242,
      "wife": 3243,
      "onto": 3244,
      "reli": 3245,
      "sty": 3246,
      "total": 3247,
      "aries": 3248,
      "ander": 3249,
      "ches": 3250,
      "sun": 3251,
      "abort": 3252,
      "deed": 3253,
      "estic": 3254,
      "umb": 3255,
      "Ste": 3256,
      "afford": 3257,
      "iple": 3258,
      "Constitution": 3259,
      "contain": 3260,
      "formation": 3261,
      "voted": 3262,
      "reporting": 3263,
      "ISIS": 3264,
      "experience": 3265,
      "Black": 3266,
      "Council": 3267,
      "analys": 3268,
      "Sunday": 3269,
      "damage": 3270,
      "legislation": 3271,
      "beyond": 3272,
      "difficult": 3273,
      "AIDS": 3274,
      "Au": 3275,
      "Ariz": 3276,
      "Cap": 3277,
      "Date": 3278,
      "DVD": 3279,
      "IM": 3280,
      "Ken": 3281,
      "Mex": 3282,
      "OS": 3283,
      "bul": 3284,
      "bri": 3285,
      "hood": 3286,
      "nia": 3287,
      "paper": 3288,
      "yesterday": 3289,
      "те": 3290,
      "return": 3291,
      "ening": 3292,
      "arri": 3293,
      "acter": 3294,
      "imm": 3295,
      "imag": 3296,
      "usion": 3297,
      "project": 3298,
      "exerc": 3299,
      "ift": 3300,
      "merc": 3301,
      "rule": 3302,
      "aware": 3303,
      "boy": 3304,
      "Chicago": 3305,
      "surv": 3306,
      "helped": 3307,
      "lands": 3308,
      "network": 3309,
      "marks": 3310,
      "authorities": 3311,
      "employees": 3312,
      "approach": 3313,
      "levels": 3314,
      "spiracy": 3315,
      "domin": 3316,
      "concerned": 3317,
      "Reserve": 3318,
      "copy": 3319,
      "victory": 3320,
      "Follow": 3321,
      "38": 3322,
      "70": 3323,
      "Dan": 3324,
      "Dis": 3325,
      "NY": 3326,
      "Red": 3327,
      "Sha": 3328,
      "budget": 3329,
      "fal": 3330,
      "ios": 3331,
      "mid": 3332,
      "pers": 3333,
      "pick": 3334,
      "sn": 3335,
      "tre": 3336,
      "vast": 3337,
      "ки": 3338,
      "theater": 3339,
      "release": 3340,
      "atic": 3341,
      "aly": 3342,
      "omen": 3343,
      "oll": 3344,
      "ols": 3345,
      "consum": 3346,
      "log": 3347,
      "moder": 3348,
      "kept": 3349,
      "shir": 3350,
      "apol": 3351,
      "saf": 3352,
      "Institute": 3353,
      "iving": 3354,
      "offer": 3355,
      "ishing": 3356,
      "ibly": 3357,
      "Issue": 3358,
      "Trade": 3359,
      "anced": 3360,
      "thens": 3361,
      "included": 3362,
      "ubmed": 3363,
      "claimed": 3364,
      "charges": 3365,
      "Allah": 3366,
      "contract": 3367,
      "citizen": 3368,
      "costs": 3369,
      "Justice": 3370,
      "remains": 3371,
      "environmental": 3372,
      "rules": 3373,
      "building": 3374,
      "usual": 3375,
      "named": 3376,
      "electr": 3377,
      "miral": 3378,
      "treatment": 3379,
      "described": 3380,
      "alleged": 3381,
      "custom": 3382,
      "southern": 3383,
      "Court": 3384,
      "33": 3385,
      "99": 3386,
      "Des": 3387,
      "GB": 3388,
      "Str": 3389,
      "freedom": 3390,
      "ht": 3391,
      "hum": 3392,
      "kids": 3393,
      "ml": 3394,
      "tic": 3395,
      "wel": 3396,
      "ло": 3397,
      "ми": 3398,
      "thus": 3399,
      "theory": 3400,
      "ilities": 3401,
      "illegal": 3402,
      "acare": 3403,
      "image": 3404,
      "etro": 3405,
      "elimin": 3406,
      "train": 3407,
      "tribut": 3408,
      "grim": 3409,
      "noon": 3410,
      "poses": 3411,
      "1980": 3412,
      "firmed": 3413,
      "visa": 3414,
      "undred": 3415,
      "lawy": 3416,
      "pped": 3417,
      "studies": 3418,
      "specific": 3419,
      "votes": 3420,
      "includes": 3421,
      "emocracy": 3422,
      "views": 3423,
      "speaker": 3424,
      "weekend": 3425,
      "profit": 3426,
      "Coast": 3427,
      "summer": 3428,
      "deaths": 3429,
      "Christian": 3430,
      "continues": 3431,
      "caused": 3432,
      "meeting": 3433,
      "debt": 3434,
      "Turkey": 3435,
      "measures": 3436,
      "dollars": 3437,
      "Substances": 3438,
      "quickly": 3439,
      "necessary": 3440,
      "toxic": 3441,
      "Saturday": 3442,
      "Organization": 3443,
      "intelligence": 3444,
      "Obamacare": 3445,
      "Alex": 3446,
      "CE": 3447,
      "Culture": 3448,
      "Cali": 3449,
      "Jer": 3450,
      "Mad": 3451,
      "Port": 3452,
      "Sony": 3453,
      "Tube": 3454,
      "Wil": 3455,
      "Yah": 3456,
      "ai": 3457,
      "cup": 3458,
      "cross": 3459,
      "jects": 3460,
      "ores": 3461,
      "rh": 3462,
      "ии": 3463,
      "ensure": 3464,
      "arian": 3465,
      "heavy": 3466,
      "advertis": 3467,
      "acies": 3468,
      "fornia": 3469,
      "opposition": 3470,
      "havi": 3471,
      "extra": 3472,
      "endor": 3473,
      "sport": 3474,
      "neg": 3475,
      "Ant": 3476,
      "coal": 3477,
      "dise": 3478,
      "Admiral": 3479,
      "guid": 3480,
      "drill": 3481,
      "taxes": 3482,
      "currently": 3483,
      "critical": 3484,
      "ologist": 3485,
      "accused": 3486,
      "domestic": 3487,
      "patients": 3488,
      "struction": 3489,
      "consideration": 3490,
      "connect": 3491,
      "individuals": 3492,
      "Economy": 3493,
      "Links": 3494,
      "document": 3495,
      "Secretary": 3496,
      "Afghanistan": 3497,
      "California": 3498,
      "Ham": 3499,
      "Hours": 3500,
      "Jam": 3501,
      "OL": 3502,
      "cli": 3503,
      "eth": 3504,
      "gather": 3505,
      "hous": 3506,
      "ique": 3507,
      "nut": 3508,
      "pack": 3509,
      "ux": 3510,
      "ened": 3511,
      "ston": 3512,
      "alone": 3513,
      "sets": 3514,
      "acity": 3515,
      "lying": 3516,
      "lycy": 3517,
      "proposed": 3518,
      "mention": 3519,
      "2000": 3520,
      "estin": 3521,
      "omey": 3522,
      "negot": 3523,
      "events": 3524,
      "club": 3525,
      "internationally": 3526,
      "parties": 3527,
      "justice": 3528,
      "yourself": 3529,
      "2006": 3530,
      "ission": 3531,
      "Arab": 3532,
      "coverage": 3533,
      "seemed": 3534,
      "trait": 3535,
      "radiation": 3536,
      "schools": 3537,
      "audi": 3538,
      "girl": 3539,
      "selling": 3540,
      "answer": 3541,
      "sanctions": 3542,
      "Holly": 3543,
      "amount": 3544,
      "implementation": 3545,
      "spokesman": 3546,
      "universities": 3547,
      "Moore": 3548,
      "false": 3549,
      "safety": 3550,
      "EL": 3551,
      "IL": 3552,
      "King": 3553,
      "Kay": 3554,
      "Pubmed": 3555,
      "Sci": 3556,
      "Since": 3557,
      "TS": 3558,
      "aver": 3559,
      "base": 3560,
      "mical": 3561,
      "nations": 3562,
      "smo": 3563,
      "send": 3564,
      "sort": 3565,
      "tren": 3566,
      "aters": 3567,
      "olution": 3568,
      "sumer": 3569,
      "comments": 3570,
      "resent": 3571,
      "offered": 3572,
      "scow": 3573,
      "Church": 3574,
      "counts": 3575,
      "minimal": 3576,
      "decl": 3577,
      "YouTube": 3578,
      "laws": 3579,
      "Reg": 3580,
      "Commit": 3581,
      "helping": 3582,
      "terrorists": 3583,
      "consid": 3584,
      "lined": 3585,
      "fighting": 3586,
      "judge": 3587,
      "effective": 3588,
      "****": 3589,
      "senior": 3590,
      "easy": 3591,
      "analy": 3592,
      "immigration": 3593,
      "usually": 3594,
      "Company": 3595,
      "PMID": 3596,
      "couple": 3597,
      "Jesus": 3598,
      "rhiz": 3599,
      "negoti": 3600,
      "Committee": 3601,
      "!!": 3602,
      ".;": 3603,
      "75": 3604,
      "914": 3605,
      "CON": 3606,
      "DC": 3607,
      "Hen": 3608,
      "Iv": 3609,
      "Risk": 3610,
      "Sm": 3611,
      "Sto": 3612,
      "battle": 3613,
      "die": 3614,
      "rid": 3615,
      "rates": 3616,
      "squ": 3617,
      "simple": 3618,
      "uk": 3619,
      "wound": 3620,
      "ди": 3621,
      "до": 3622,
      "insp": 3623,
      "recomm": 3624,
      "stant": 3625,
      "tocol": 3626,
      "icial": 3627,
      "ilty": 3628,
      "sea": 3629,
      "behavi": 3630,
      "union": 3631,
      "urning": 3632,
      "hav": 3633,
      "trip": 3634,
      "lif": 3635,
      "prosecut": 3636,
      "peace": 3637,
      "upcoming": 3638,
      "bled": 3639,
      "perhaps": 3640,
      "quot": 3641,
      "neigh": 3642,
      "owner": 3643,
      "compared": 3644,
      "interior": 3645,
      "Adel": 3646,
      "type": 3647,
      "enced": 3648,
      "learn": 3649,
      "Joe": 3650,
      "retail": 3651,
      "reality": 3652,
      "happy": 3653,
      "brother": 3654,
      "telling": 3655,
      "Moscow": 3656,
      "appears": 3657,
      "Eng": 3658,
      "iki": 3659,
      "sky": 3660,
      "looks": 3661,
      "launched": 3662,
      "plomacy": 3663,
      "holidays": 3664,
      "Diseases": 3665,
      "34": 3666,
      "36": 3667,
      "Ay": 3668,
      "Bern": 3669,
      "Ir": 3670,
      "Like": 3671,
      "Pri": 3672,
      "Round": 3673,
      "Yaz": 3674,
      "daughter": 3675,
      "gone": 3676,
      "hack": 3677,
      "hundred": 3678,
      "lad": 3679,
      "na": 3680,
      "nom": 3681,
      "ray": 3682,
      "rrhiz": 3683,
      "ses": 3684,
      "sched": 3685,
      "tou": 3686,
      "zz": 3687,
      "ен": 3688,
      "inn": 3689,
      "ined": 3690,
      "hest": 3691,
      "idge": 3692,
      "emot": 3693,
      "conspiracy": 3694,
      "exchanges": 3695,
      "plans": 3696,
      "antic": 3697,
      "Any": 3698,
      "Another": 3699,
      "intended": 3700,
      "serve": 3701,
      "century": 3702,
      "cry": 3703,
      "partners": 3704,
      "ension": 3705,
      "Web": 3706,
      "angu": 3707,
      "Commission": 3708,
      "speak": 3709,
      "defend": 3710,
      "restaur": 3711,
      "required": 3712,
      "effects": 3713,
      "homeowners": 3714,
      "strugg": 3715,
      "purch": 3716,
      "traditional": 3717,
      "records": 3718,
      "Amendment": 3719,
      "easily": 3720,
      "County": 3721,
      "Canadian": 3722,
      "Government": 3723,
      "pretty": 3724,
      "bassy": 3725,
      "birth": 3726,
      "apolis": 3727,
      "Hollywood": 3728,
      "44": 3729,
      "Bak": 3730,
      "Fact": 3731,
      "Fund": 3732,
      "Get": 3733,
      "HE": 3734,
      "IV": 3735,
      "Mur": 3736,
      "Net": 3737,
      "OW": 3738,
      "da": 3739,
      "fans": 3740,
      "fias": 3741,
      "hon": 3742,
      "hate": 3743,
      "ple": 3744,
      "sens": 3745,
      "source": 3746,
      "wire": 3747,
      "wage": 3748,
      "wise": 3749,
      "ка": 3750,
      "ondon": 3751,
      "iced": 3752,
      "owers": 3753,
      "iment": 3754,
      "complain": 3755,
      "confl": 3756,
      "lock": 3757,
      "west": 3758,
      "Instead": 3759,
      "doctors": 3760,
      "anta": 3761,
      "aft": 3762,
      "ously": 3763,
      "wouldn": 3764,
      "cents": 3765,
      "crimes": 3766,
      "object": 3767,
      "addition": 3768,
      "USB": 3769,
      "guilty": 3770,
      "Lee": 3771,
      "relative": 3772,
      "showed": 3773,
      "standards": 3774,
      "informs": 3775,
      "posted": 3776,
      "organization": 3777,
      "organizations": 3778,
      "interests": 3779,
      "histor": 3780,
      "doctr": 3781,
      "violent": 3782,
      "clearly": 3783,
      "Western": 3784,
      "socially": 3785,
      "Franc": 3786,
      "activities": 3787,
      "Corpor": 3788,
      "competition": 3789,
      "Associations": 3790,
      "Muslims": 3791,
      "responsible": 3792,
      "Returning": 3793,
      "doubt": 3794,
      "Ahmad": 3795,
      "endorse": 3796,
      "lycyrrhiz": 3797,
      "fiasco": 3798,
      "Bund": 3799,
      "GC": 3800,
      "Hab": 3801,
      "Hadd": 3802,
      "Jihad": 3803,
      "London": 3804,
      "Open": 3805,
      "Rem": 3806,
      "Su": 3807,
      "Saudi": 3808,
      "bail": 3809,
      "daily": 3810,
      "democracy": 3811,
      "ito": 3812,
      "jad": 3813,
      "liter": 3814,
      "mand": 3815,
      "mas": 3816,
      "malls": 3817,
      "sat": 3818,
      "wal": 3819,
      "thony": 3820,
      "arily": 3821,
      "hearing": 3822,
      "veh": 3823,
      "agon": 3824,
      "ope": 3825,
      "confirmed": 3826,
      "trust": 3827,
      "lose": 3828,
      "sharing": 3829,
      "doz": 3830,
      "acting": 3831,
      "perfect": 3832,
      "pray": 3833,
      "prim": 3834,
      "owned": 3835,
      "Anthony": 3836,
      "Conserv": 3837,
      "center": 3838,
      "myself": 3839,
      "conditions": 3840,
      "value": 3841,
      "folks": 3842,
      "Protocol": 3843,
      "254": 3844,
      "operation": 3845,
      "Most": 3846,
      "elected": 3847,
      "Added": 3848,
      "employment": 3849,
      "aught": 3850,
      "solute": 3851,
      "spiracies": 3852,
      "green": 3853,
      "leadership": 3854,
      "fellow": 3855,
      "massive": 3856,
      "wait": 3857,
      "education": 3858,
      "advisor": 3859,
      "strengthens": 3860,
      "traffic": 3861,
      "department": 3862,
      "circ": 3863,
      "avoid": 3864,
      "Attorney": 3865,
      "mercial": 3866,
      "ollah": 3867,
      "html": 3868,
      "considered": 3869,
      "46": 3870,
      "55": 3871,
      "90": 3872,
      "Big": 3873,
      "DA": 3874,
      "DE": 3875,
      "Hel": 3876,
      "Kn": 3877,
      "Lou": 3878,
      "Mass": 3879,
      "Mike": 3880,
      "RT": 3881,
      "Ryan": 3882,
      "Sey": 3883,
      "cks": 3884,
      "fired": 3885,
      "ram": 3886,
      "rare": 3887,
      "theid": 3888,
      "rect": 3889,
      "attract": 3890,
      "stuff": 3891,
      "andi": 3892,
      "chain": 3893,
      "unless": 3894,
      "uries": 3895,
      "agents": 3896,
      "embassy": 3897,
      "absolute": 3898,
      "lob": 3899,
      "exc": 3900,
      "except": 3901,
      "wear": 3902,
      "Invest": 3903,
      "teen": 3904,
      "predict": 3905,
      "Cond": 3906,
      "obvious": 3907,
      "submission": 3908,
      "couldn": 3909,
      "rowser": 3910,
      "regular": 3911,
      "finally": 3912,
      "Alf": 3913,
      "match": 3914,
      "ATE": 3915,
      "biggest": 3916,
      "issued": 3917,
      "skin": 3918,
      "docks": 3919,
      "witness": 3920,
      "feeling": 3921,
      "Educ": 3922,
      "tradition": 3923,
      "failure": 3924,
      "incident": 3925,
      "suggested": 3926,
      "meaning": 3927,
      "announce": 3928,
      "Turk": 3929,
      "About": 3930,
      "believes": 3931,
      "psychologist": 3932,
      "leaving": 3933,
      "African": 3934,
      "Angel": 3935,
      "religious": 3936,
      "opportunity": 3937,
      "chairman": 3938,
      "reactors": 3939,
      "pilgrim": 3940,
      "Arizona": 3941,
      "England": 3942,
      "doctrine": 3943,
      "pilgrims": 3944,
      "Azer": 3945,
      "Avenue": 3946,
      "Fox": 3947,
      "Gl": 3948,
      "Ghol": 3949,
      "Ke": 3950,
      "Mac": 3951,
      "Sil": 3952,
      "Spec": 3953,
      "Vir": 3954,
      "Wis": 3955,
      "aes": 3956,
      "gers": 3957,
      "hat": 3958,
      "iyan": 3959,
      "lude": 3960,
      "mart": 3961,
      "milit": 3962,
      "rick": 3963,
      "sle": 3964,
      "sid": 3965,
      "vil": 3966,
      "yl": 3967,
      "ль": 3968,
      "ти": 3969,
      "atollah": 3970,
      "stim": 3971,
      "stra": 3972,
      "aling": 3973,
      "becomes": 3974,
      "agencies": 3975,
      "Their": 3976,
      "tran": 3977,
      "truly": 3978,
      "oneh": 3979,
      "ribut": 3980,
      "spot": 3981,
      "Inc": 3982,
      "qual": 3983,
      "ideas": 3984,
      "hero": 3985,
      "Who": 3986,
      "prem": 3987,
      "preci": 3988,
      "creating": 3989,
      "Under": 3990,
      "corrup": 3991,
      "Administration": 3992,
      "submar": 3993,
      "reduce": 3994,
      "version": 3995,
      "knows": 3996,
      "officer": 3997,
      "impact": 3998,
      "ledge": 3999,
      "missed": 4000,
      "Only": 4001,
      "career": 4002,
      "broken": 4003,
      "controll": 4004,
      "harder": 4005,
      "Medic": 4006,
      "movement": 4007,
      "opened": 4008,
      "ifying": 4009,
      "College": 4010,
      "ENT": 4011,
      "details": 4012,
      "Music": 4013,
      "IRGC": 4014,
      "explained": 4015,
      "Diplomacy": 4016,
      "floor": 4017,
      "completely": 4018,
      "Background": 4019,
      "convening": 4020,
      "Annapolis": 4021,
      "Foreign": 4022,
      "Thomas": 4023,
      "Closure": 4024,
      "analysis": 4025,
      "exercise": 4026,
      "Jamal": 4027,
      "Ivory": 4028,
      "Ayatollah": 4029,
      "lycyrrhizin": 4030,
      "Conditions": 4031,
      "Gholam": 4032,
      "49": 4033,
      "Apar": 4034,
      "Aft": 4035,
      "Cub": 4036,
      "ILL": 4037,
      "Jew": 4038,
      "Jeff": 4039,
      "Key": 4040,
      "Kham": 4041,
      "MP": 4042,
      "Mary": 4043,
      "NOT": 4044,
      "Sok": 4045,
      "School": 4046,
      "Strait": 4047,
      "Tim": 4048,
      "Yet": 4049,
      "ek": 4050,
      "egal": 4051,
      "fuel": 4052,
      "hi": 4053,
      "iet": 4054,
      "mel": 4055,
      "mountain": 4056,
      "natural": 4057,
      "pul": 4058,
      "rative": 4059,
      "yari": 4060,
      "onic": 4061,
      "atter": 4062,
      "outr": 4063,
      "itch": 4064,
      "entail": 4065,
      "ads": 4066,
      "vement": 4067,
      "olich": 4068,
      "allery": 4069,
      "loved": 4070,
      "worst": 4071,
      "Steve": 4072,
      "nei": 4073,
      "Through": 4074,
      "cancer": 4075,
      "newsp": 4076,
      "inejad": 4077,
      "....": 4078,
      "manufact": 4079,
      "scre": 4080,
      "compiling": 4081,
      "prelude": 4082,
      "Conspiracies": 4083,
      "pted": 4084,
      "seeking": 4085,
      "guy": 4086,
      "expensive": 4087,
      "muz": 4088,
      "residents": 4089,
      "showing": 4090,
      "ISNA": 4091,
      "highly": 4092,
      "standing": 4093,
      "Senegal": 4094,
      "retire": 4095,
      "funding": 4096,
      "capacity": 4097,
      "Sheik": 4098,
      "hands": 4099,
      "limited": 4100,
      "experts": 4101,
      "Davar": 4102,
      "fortun": 4103,
      "Nowruz": 4104,
      "mising": 4105,
      "German": 4106,
      "voice": 4107,
      "environments": 4108,
      "debate": 4109,
      "secure": 4110,
      "Market": 4111,
      "decadence": 4112,
      "explos": 4113,
      "figure": 4114,
      "benefits": 4115,
      "strateg": 4116,
      "associated": 4117,
      "dogs": 4118,
      "Rahimiyan": 4119,
      "victims": 4120,
      "Cao": 4121,
      "Hormuz": 4122,
      "machinations": 4123,
      "mouthpiece": 4124,
      "Safavi": 4125,
      "anonymising": 4126,
      "Sayyari": 4127,
      "Yahya": 4128,
      "Kayhan": 4129,
      "havandi": 4130,
      "Yazd": 4131,
      "hundreds": 4132,
      "Baku": 4133,
      "Ahmadinejad": 4134,
      "Habib": 4135,
      "Haddad": 4136,
      "Seyyed": 4137,
      "Alfoneh": 4138,
      "Turkish": 4139,
      "Azeri": 4140,
      "submarines": 4141,
      "Apartheid": 4142,
      "Aftab": 4143,
      "Khamnei": 4144,
      "Sokolich": 4145,
      "Sheikhavandi": 4146,
      "47": 4147,
      "48": 4148,
      "Def": 4149,
      "Four": 4150,
      "Food": 4151,
      "Jack": 4152,
      "Jose": 4153,
      "Kore": 4154,
      "LA": 4155,
      "Middle": 4156,
      "NE": 4157,
      "Next": 4158,
      "RA": 4159,
      "Rad": 4160,
      "UC": 4161,
      "Watch": 4162,
      "bid": 4163,
      "culture": 4164,
      "fat": 4165,
      "lay": 4166,
      "mic": 4167,
      "og": 4168,
      "ries": 4169,
      "sof": 4170,
      "об": 4171,
      "insurance": 4172,
      "era": 4173,
      "reject": 4174,
      "station": 4175,
      "sector": 4176,
      "imum": 4177,
      "sus": 4178,
      "areas": 4179,
      "agent": 4180,
      "commercial": 4181,
      "resist": 4182,
      "ateg": 4183,
      "enda": 4184,
      "Information": 4185,
      "ocks": 4186,
      "science": 4187,
      "positive": 4188,
      "nings": 4189,
      "ancy": 4190,
      "seek": 4191,
      "Russians": 4192,
      "expand": 4193,
      "Senator": 4194,
      "directors": 4195,
      "Sovi": 4196,
      "killing": 4197,
      "allows": 4198,
      "markets": 4199,
      "arently": 4200,
      "Medical": 4201,
      "difference": 4202,
      "Robert": 4203,
      "businesses": 4204,
      "detailed": 4205,
      "iverse": 4206,
      "development": 4207,
      "Syrian": 4208,
      "professional": 4209,
      "clean": 4210,
      "connection": 4211,
      "waiting": 4212,
      "homes": 4213,
      "ordinary": 4214,
      "strategy": 4215,
      "automat": 4216,
      "influence": 4217,
      "immediately": 4218,
      "Because": 4219,
      "independent": 4220,
      "abortion": 4221,
      "Education": 4222,
      "Brown": 4223,
      "Found": 4224,
      "Free": 4225,
      "Global": 4226,
      "Journal": 4227,
      "LB": 4228,
      "Oly": 4229,
      "Out": 4230,
      "PRO": 4231,
      "Sur": 4232,
      "Tran": 4233,
      "Two": 4234,
      "UP": 4235,
      "Ve": 4236,
      "WH": 4237,
      "ahead": 4238,
      "bath": 4239,
      "crow": 4240,
      "cities": 4241,
      "frequ": 4242,
      "iev": 4243,
      "jump": 4244,
      "mere": 4245,
      "tor": 4246,
      "vies": 4247,
      "wish": 4248,
      "zy": 4249,
      "за": 4250,
      "ру": 4251,
      "ров": 4252,
      "inner": 4253,
      "orm": 4254,
      "isions": 4255,
      "ici": 4256,
      "assa": 4257,
      "enty": 4258,
      "entially": 4259,
      "sey": 4260,
      "amendment": 4261,
      "utter": 4262,
      "agan": 4263,
      "aging": 4264,
      "users": 4265,
      "oppos": 4266,
      "resh": 4267,
      "atever": 4268,
      "exchange": 4269,
      "ults": 4270,
      "weight": 4271,
      "wealth": 4272,
      "note": 4273,
      "shown": 4274,
      "iful": 4275,
      "articles": 4276,
      "spread": 4277,
      "raise": 4278,
      "poll": 4279,
      "correct": 4280,
      "decade": 4281,
      "brain": 4282,
      "mainstream": 4283,
      "throughout": 4284,
      "League": 4285,
      "student": 4286,
      "parts": 4287,
      "speed": 4288,
      "carry": 4289,
      "character": 4290,
      "purposes": 4291,
      "labe": 4292,
      "Plan": 4293,
      "write": 4294,
      "eye": 4295,
      "largely": 4296,
      "Palin": 4297,
      "Board": 4298,
      "Association": 4299,
      "supply": 4300,
      "original": 4301,
      "practice": 4302,
      "picture": 4303,
      "Director": 4304,
      "extremely": 4305,
      "Mexico": 4306,
      "brief": 4307,
      "disease": 4308,
      "analyst": 4309,
      "Olymp": 4310,
      "BE": 4311,
      "Del": 4312,
      "FO": 4313,
      "Fun": 4314,
      "Jr": 4315,
      "Jim": 4316,
      "Main": 4317,
      "Ros": 4318,
      "Section": 4319,
      "Val": 4320,
      "euro": 4321,
      "gent": 4322,
      "gency": 4323,
      "iers": 4324,
      "iant": 4325,
      "ked": 4326,
      "mix": 4327,
      "sis": 4328,
      "ta": 4329,
      "tem": 4330,
      "text": 4331,
      "vul": 4332,
      "во": 4333,
      "throw": 4334,
      "itors": 4335,
      "lyn": 4336,
      "olic": 4337,
      "etary": 4338,
      "usive": 4339,
      "opt": 4340,
      "aps": 4341,
      "earing": 4342,
      "bling": 4343,
      "akers": 4344,
      "print": 4345,
      "Chief": 4346,
      "central": 4347,
      "achie": 4348,
      "learned": 4349,
      "iction": 4350,
      "ancing": 4351,
      "college": 4352,
      "studio": 4353,
      "insist": 4354,
      "paying": 4355,
      "wards": 4356,
      "Once": 4357,
      "starting": 4358,
      "Allen": 4359,
      "burn": 4360,
      "followed": 4361,
      "facts": 4362,
      "Christie": 4363,
      "Corp": 4364,
      "privacy": 4365,
      "Palestin": 4366,
      "professor": 4367,
      "places": 4368,
      "immigrants": 4369,
      "figures": 4370,
      "beginning": 4371,
      "streets": 4372,
      "arrested": 4373,
      "corporate": 4374,
      "troops": 4375,
      "enjoy": 4376,
      "politicians": 4377,
      "faith": 4378,
      "average": 4379,
      "300": 4380,
      "?”": 4381,
      "Bu": 4382,
      "Bus": 4383,
      "Bureau": 4384,
      "Care": 4385,
      "Dist": 4386,
      "La": 4387,
      "Los": 4388,
      "Lyn": 4389,
      "ME": 4390,
      "Mor": 4391,
      "Rob": 4392,
      "Rights": 4393,
      "TR": 4394,
      "Time": 4395,
      "dies": 4396,
      "egr": 4397,
      "flow": 4398,
      "hig": 4399,
      "langu": 4400,
      "mut": 4401,
      "path": 4402,
      "sometimes": 4403,
      "wing": 4404,
      "ze": 4405,
      "zing": 4406,
      "бы": 4407,
      "пи": 4408,
      "че": 4409,
      "thal": 4410,
      "infr": 4411,
      "stage": 4412,
      "stopp": 4413,
      "tom": 4414,
      "icated": 4415,
      "assu": 4416,
      "seat": 4417,
      "accom": 4418,
      "amin": 4419,
      "whom": 4420,
      "igan": 4421,
      "ural": 4422,
      "aggress": 4423,
      "agreed": 4424,
      "trou": 4425,
      "exposed": 4426,
      "weet": 4427,
      "shar": 4428,
      "shared": 4429,
      "endum": 4430,
      "integr": 4431,
      "presents": 4432,
      "prep": 4433,
      "Mrs": 4434,
      "ibr": 4435,
      "commission": 4436,
      "2004": 4437,
      "USA": 4438,
      "anche": 4439,
      "seeing": 4440,
      "region": 4441,
      "tainment": 4442,
      "healthcare": 4443,
      "annual": 4444,
      "speaking": 4445,
      "carried": 4446,
      "links": 4447,
      "married": 4448,
      "promise": 4449,
      "cuts": 4450,
      "block": 4451,
      "powerful": 4452,
      "burg": 4453,
      "holding": 4454,
      "concerns": 4455,
      "reached": 4456,
      "placed": 4457,
      "journalists": 4458,
      "linked": 4459,
      "thinking": 4460,
      "Green": 4461,
      "Earth": 4462,
      "challen": 4463,
      "Martin": 4464,
      "determin": 4465,
      "gradu": 4466,
      "Author": 4467,
      "guidance": 4468,
      "Smith": 4469,
      "Soviet": 4470,
      "Ban": 4471,
      "Bix": 4472,
      "Fur": 4473,
      "Fire": 4474,
      "Home": 4475,
      "SH": 4476,
      "ders": 4477,
      "dark": 4478,
      "eight": 4479,
      "ky": 4480,
      "laugh": 4481,
      "pm": 4482,
      "powers": 4483,
      "sight": 4484,
      "sources": 4485,
      "ule": 4486,
      "wave": 4487,
      "ва": 4488,
      "ма": 4489,
      "inent": 4490,
      "removed": 4491,
      "reporters": 4492,
      "itals": 4493,
      "icient": 4494,
      "iled": 4495,
      "veter": 4496,
      "impress": 4497,
      "impossible": 4498,
      "verse": 4499,
      "ills": 4500,
      "option": 4501,
      "convers": 4502,
      "congress": 4503,
      "consumer": 4504,
      "movies": 4505,
      "pled": 4506,
      "acted": 4507,
      "clin": 4508,
      "minor": 4509,
      "2001": 4510,
      "2003": 4511,
      "governor": 4512,
      "turns": 4513,
      "governments": 4514,
      "belief": 4515,
      "protection": 4516,
      "closed": 4517,
      "McK": 4518,
      "chemical": 4519,
      "planet": 4520,
      "directly": 4521,
      "happens": 4522,
      "limit": 4523,
      "charge": 4524,
      "oppon": 4525,
      "Johnson": 4526,
      "refused": 4527,
      "experi": 4528,
      "migrants": 4529,
      "Group": 4530,
      "Prof": 4531,
      "writer": 4532,
      "writing": 4533,
      "advant": 4534,
      "activity": 4535,
      "Indian": 4536,
      "Michel": 4537,
      "Economic": 4538,
      "iffs": 4539,
      "documents": 4540,
      "previously": 4541,
      "Office": 4542,
      "proposal": 4543,
      "admitted": 4544,
      "Austral": 4545,
      "encourage": 4546,
      "refugees": 4547,
      "Ohio": 4548,
      "style": 4549,
      "conflict": 4550,
      "Francis": 4551,
      "stimul": 4552,
      "straight": 4553,
      "highest": 4554,
      "Bixby": 4555,
      "Cruz": 4556,
      "Fe": 4557,
      "Fer": 4558,
      "Far": 4559,
      "FOR": 4560,
      "Freedom": 4561,
      "Kel": 4562,
      "Lat": 4563,
      "Mich": 4564,
      "NN": 4565,
      "Sam": 4566,
      "Sest": 4567,
      "figh": 4568,
      "iative": 4569,
      "makers": 4570,
      "none": 4571,
      "nik": 4572,
      "nature": 4573,
      "vill": 4574,
      "мо": 4575,
      "ena": 4576,
      "inger": 4577,
      "itude": 4578,
      "anda": 4579,
      "heav": 4580,
      "abuse": 4581,
      "provision": 4582,
      "outs": 4583,
      "estival": 4584,
      "rial": 4585,
      "riage": 4586,
      "scen": 4587,
      "Convention": 4588,
      "coordin": 4589,
      "attemp": 4590,
      "syn": 4591,
      "additional": 4592,
      "download": 4593,
      "consist": 4594,
      "networks": 4595,
      "ATION": 4596,
      "statements": 4597,
      "radical": 4598,
      "Roy": 4599,
      "Carol": 4600,
      "ucky": 4601,
      "equal": 4602,
      "environment": 4603,
      "profession": 4604,
      "sexual": 4605,
      "confidence": 4606,
      "destroy": 4607,
      "responsibility": 4608,
      "cells": 4609,
      "focused": 4610,
      "multiple": 4611,
      "secretary": 4612,
      "leaves": 4613,
      "technology": 4614,
      "pictures": 4615,
      "Major": 4616,
      "razil": 4617,
      "physical": 4618,
      "Hasan": 4619,
      "ultimately": 4620,
      "demonstr": 4621,
      "consumers": 4622,
      "modern": 4623,
      "drilling": 4624,
      "newspaper": 4625,
      "Sestak": 4626,
      "attempts": 4627,
      "(@": 4628,
      "54": 4629,
      "BL": 4630,
      "Bur": 4631,
      "Brazil": 4632,
      "Cath": 4633,
      "Ko": 4634,
      "Pre": 4635,
      "Pay": 4636,
      "Penn": 4637,
      "Pharm": 4638,
      "Right": 4639,
      "Tru": 4640,
      "UR": 4641,
      "Vo": 4642,
      "Women": 4643,
      "Yes": 4644,
      "bound": 4645,
      "cat": 4646,
      "cing": 4647,
      "card": 4648,
      "camer": 4649,
      "gus": 4650,
      "hab": 4651,
      "sick": 4652,
      "table": 4653,
      "institut": 4654,
      "recover": 4655,
      "oride": 4656,
      "andal": 4657,
      "seas": 4658,
      "acqu": 4659,
      "choo": 4660,
      "suff": 4661,
      "user": 4662,
      "trillion": 4663,
      "umn": 4664,
      "astic": 4665,
      "spend": 4666,
      "perman": 4667,
      "Step": 4668,
      "aked": 4669,
      "Though": 4670,
      "Thread": 4671,
      "mechan": 4672,
      "offee": 4673,
      "otherwise": 4674,
      "Chan": 4675,
      "corner": 4676,
      "pton": 4677,
      "declined": 4678,
      "brand": 4679,
      "brut": 4680,
      "flag": 4681,
      "ody": 4682,
      "cert": 4683,
      "collap": 4684,
      "strict": 4685,
      "ISA": 4686,
      "condition": 4687,
      "investors": 4688,
      "consin": 4689,
      "sult": 4690,
      "McG": 4691,
      "supported": 4692,
      "gives": 4693,
      "operations": 4694,
      "allowing": 4695,
      "possibly": 4696,
      "currency": 4697,
      "Polic": 4698,
      "reflect": 4699,
      "holders": 4700,
      "expert": 4701,
      "ALL": 4702,
      "engine": 4703,
      "spoke": 4704,
      "suggests": 4705,
      "normal": 4706,
      "generation": 4707,
      "management": 4708,
      "basis": 4709,
      "pushing": 4710,
      "joined": 4711,
      "particularly": 4712,
      "suffering": 4713,
      "conducted": 4714,
      "referendum": 4715,
      "criticism": 4716,
      "broadcast": 4717,
      "filled": 4718,
      "propag": 4719,
      "Despite": 4720,
      "inspired": 4721,
      "behavior": 4722,
      "innoc": 4723,
      "primary": 4724,
      "Wisconsin": 4725,
      "screen": 4726,
      "Michigan": 4727,
      "42": 4728,
      "58": 4729,
      "59": 4730,
      "77": 4731,
      "78": 4732,
      "Air": 4733,
      "App": 4734,
      "Ba": 4735,
      "Drug": 4736,
      "Daes": 4737,
      "FL": 4738,
      "Gallery": 4739,
      "Hist": 4740,
      "Roc": 4741,
      "VA": 4742,
      "cash": 4743,
      "ding": 4744,
      "fit": 4745,
      "gment": 4746,
      "hatt": 4747,
      "ij": 4748,
      "iar": 4749,
      "kick": 4750,
      "mine": 4751,
      "march": 4752,
      "ping": 4753,
      "pect": 4754,
      "spl": 4755,
      "yes": 4756,
      "ле": 4757,
      "inking": 4758,
      "ites": 4759,
      "andon": 4760,
      "asc": 4761,
      "beat": 4762,
      "beaut": 4763,
      "idency": 4764,
      "iring": 4765,
      "ems": 4766,
      "trial": 4767,
      "trained": 4768,
      "atest": 4769,
      "expo": 4770,
      "weak": 4771,
      "ounder": 4772,
      "shall": 4773,
      "pover": 4774,
      "umin": 4775,
      "rible": 4776,
      "Int": 4777,
      "bless": 4778,
      "perform": 4779,
      "quality": 4780,
      "Still": 4781,
      "iano": 4782,
      "ignore": 4783,
      "aves": 4784,
      "ishment": 4785,
      "prefer": 4786,
      "Conn": 4787,
      "feed": 4788,
      "decide": 4789,
      "afternoon": 4790,
      "maintain": 4791,
      "turning": 4792,
      "warned": 4793,
      "guys": 4794,
      "maybe": 4795,
      "Also": 4796,
      "produce": 4797,
      "voting": 4798,
      "standard": 4799,
      "marriage": 4800,
      "uction": 4801,
      "stein": 4802,
      "smart": 4803,
      "district": 4804,
      "ERS": 4805,
      "listen": 4806,
      "interesting": 4807,
      "guns": 4808,
      "videos": 4809,
      "borrow": 4810,
      "greater": 4811,
      "equip": 4812,
      "Manhatt": 4813,
      "Social": 4814,
      "hotel": 4815,
      "benefit": 4816,
      "silver": 4817,
      "title": 4818,
      "setting": 4819,
      "Berlin": 4820,
      "hurt": 4821,
      "repeatedly": 4822,
      "Central": 4823,
      "opinion": 4824,
      "copyright": 4825,
      "lawyer": 4826,
      "Henry": 4827,
      "Angeles": 4828,
      "ville": 4829,
      "Business": 4830,
      "Michelle": 4831,
      "Daesh": 4832,
      "Manhattan": 4833,
      "51": 4834,
      "57": 4835,
      "Camp": 4836,
      "FC": 4837,
      "FS": 4838,
      "Hz": 4839,
      "IRE": 4840,
      "MA": 4841,
      "Mat": 4842,
      "Mal": 4843,
      "Miss": 4844,
      "Ron": 4845,
      "SA": 4846,
      "Sar": 4847,
      "Secon": 4848,
      "TA": 4849,
      "Ts": 4850,
      "WE": 4851,
      "Wood": 4852,
      "Wiki": 4853,
      "bes": 4854,
      "bag": 4855,
      "gia": 4856,
      "lic": 4857,
      "nel": 4858,
      "pull": 4859,
      "song": 4860,
      "sitting": 4861,
      "wages": 4862,
      "вы": 4863,
      "же": 4864,
      "си": 4865,
      "ся": 4866,
      "ть": 4867,
      "”,": 4868,
      "inf": 4869,
      "instru": 4870,
      "anch": 4871,
      "stamp": 4872,
      "stocks": 4873,
      "altern": 4874,
      "lets": 4875,
      "entagon": 4876,
      "ador": 4877,
      "adults": 4878,
      "aces": 4879,
      "rose": 4880,
      "amed": 4881,
      "unlikely": 4882,
      "emic": 4883,
      "ellect": 4884,
      "confirm": 4885,
      "consequ": 4886,
      "lived": 4887,
      "save": 4888,
      "estim": 4889,
      "earch": 4890,
      "riot": 4891,
      "porter": 4892,
      "ellow": 4893,
      "rub": 4894,
      "complex": 4895,
      "Child": 4896,
      "partner": 4897,
      "forms": 4898,
      "evening": 4899,
      "2005": 4900,
      "although": 4901,
      "Andrew": 4902,
      "regime": 4903,
      "guard": 4904,
      "Army": 4905,
      "nedy": 4906,
      "larger": 4907,
      "surround": 4908,
      "colle": 4909,
      "farm": 4910,
      "direction": 4911,
      "increases": 4912,
      "virt": 4913,
      "banking": 4914,
      "burden": 4915,
      "authority": 4916,
      "Christians": 4917,
      "Christmas": 4918,
      "keeping": 4919,
      "critics": 4920,
      "causes": 4921,
      "judges": 4922,
      "advoc": 4923,
      "activists": 4924,
      "diary": 4925,
      "Brook": 4926,
      "IRS": 4927,
      "scientists": 4928,
      "double": 4929,
      "Schro": 4930,
      "candidates": 4931,
      "drop": 4932,
      "measure": 4933,
      "believed": 4934,
      "journalist": 4935,
      "challeng": 4936,
      "revealed": 4937,
      "regarding": 4938,
      "Kennedy": 4939,
      "declared": 4940,
      "Priv": 4941,
      "Corporation": 4942,
      "Louis": 4943,
      "Foundation": 4944,
      "language": 4945,
      "McKin": 4946,
      ".’": 4947,
      "32": 4948,
      "ARE": 4949,
      "BS": 4950,
      "Bal": 4951,
      "Cop": 4952,
      "DO": 4953,
      "Detro": 4954,
      "FISA": 4955,
      "GE": 4956,
      "Good": 4957,
      "Kar": 4958,
      "MS": 4959,
      "Mill": 4960,
      "Morgan": 4961,
      "UL": 4962,
      "Vot": 4963,
      "Vide": 4964,
      "bow": 4965,
      "dream": 4966,
      "ean": 4967,
      "fresh": 4968,
      "rating": 4969,
      "ши": 4970,
      "thr": 4971,
      "anim": 4972,
      "stars": 4973,
      "army": 4974,
      "itarian": 4975,
      "asef": 4976,
      "ilater": 4977,
      "ams": 4978,
      "whatever": 4979,
      "cha": 4980,
      "eces": 4981,
      "irty": 4982,
      "ares": 4983,
      "ceasef": 4984,
      "ett": 4985,
      "comfort": 4986,
      "resources": 4987,
      "haven": 4988,
      "proceed": 4989,
      "deput": 4990,
      "notice": 4991,
      "essor": 4992,
      "earth": 4993,
      "astro": 4994,
      "Intell": 4995,
      "dose": 4996,
      "permission": 4997,
      "iven": 4998,
      "coach": 4999,
      "discrimin": 5000,
      "thank": 5001,
      "legally": 5002,
      "lawsuit": 5003,
      "ashion": 5004,
      "choice": 5005,
      "https": 5006,
      "communities": 5007,
      "gotten": 5008,
      "taxpay": 5009,
      "distur": 5010,
      "transfer": 5011,
      "ста": 5012,
      "Carson": 5013,
      "1990": 5014,
      "grew": 5015,
      "happening": 5016,
      "winning": 5017,
      "civilian": 5018,
      "Eastern": 5019,
      "ruling": 5020,
      "Mean": 5021,
      "Walmart": 5022,
      "basic": 5023,
      "function": 5024,
      "designed": 5025,
      "deeply": 5026,
      "Africa": 5027,
      "introduced": 5028,
      "improve": 5029,
      "Stein": 5030,
      "shirts": 5031,
      "Irish": 5032,
      "touch": 5033,
      "endorsement": 5034,
      "lobby": 5035,
      "controlled": 5036,
      "bathroom": 5037,
      "stopped": 5038,
      "challenge": 5039,
      "innocent": 5040,
      "exposure": 5041,
      "poverty": 5042,
      "Detroit": 5043,
      "Intelligence": 5044,
      "400": 5045,
      "?\"": 5046,
      "Ap": 5047,
      "AOL": 5048,
      "Bearing": 5049,
      "Du": 5050,
      "Dev": 5051,
      "DNA": 5052,
      "Ev": 5053,
      "Feder": 5054,
      "Gates": 5055,
      "Hay": 5056,
      "Hun": 5057,
      "Mem": 5058,
      "Nations": 5059,
      "Natural": 5060,
      "River": 5061,
      "SF": 5062,
      "SS": 5063,
      "Sand": 5064,
      "caught": 5065,
      "categ": 5066,
      "coffee": 5067,
      "dance": 5068,
      "fix": 5069,
      "ga": 5070,
      "gree": 5071,
      "mort": 5072,
      "pages": 5073,
      "skill": 5074,
      "tight": 5075,
      "tick": 5076,
      "ying": 5077,
      "ско": 5078,
      "stone": 5079,
      "stood": 5080,
      "stores": 5081,
      "tot": 5082,
      "arant": 5083,
      "icide": 5084,
      "entit": 5085,
      "acher": 5086,
      "becoming": 5087,
      "unning": 5088,
      "emails": 5089,
      "confront": 5090,
      "constitutional": 5091,
      "ourselves": 5092,
      "prohib": 5093,
      "losing": 5094,
      "mob": 5095,
      "kefell": 5096,
      "apart": 5097,
      "appoint": 5098,
      "ums": 5099,
      "plant": 5100,
      "plications": 5101,
      "bles": 5102,
      "actor": 5103,
      "prime": 5104,
      "offering": 5105,
      "izes": 5106,
      "intent": 5107,
      "intellect": 5108,
      "boss": 5109,
      "minimum": 5110,
      "decline": 5111,
      "decisions": 5112,
      "reduc": 5113,
      "Report": 5114,
      "ancer": 5115,
      "extrem": 5116,
      "Leaks": 5117,
      "leads": 5118,
      "Although": 5119,
      "color": 5120,
      "desk": 5121,
      "healthy": 5122,
      "plants": 5123,
      "planning": 5124,
      "capt": 5125,
      "popul": 5126,
      "azine": 5127,
      "virus": 5128,
      "Deal": 5129,
      "apped": 5130,
      "Road": 5131,
      "presented": 5132,
      "approval": 5133,
      "ginia": 5134,
      "Prime": 5135,
      "paint": 5136,
      "developed": 5137,
      "connected": 5138,
      "repeal": 5139,
      "suspect": 5140,
      "racist": 5141,
      "familiar": 5142,
      "discussion": 5143,
      "hospitals": 5144,
      "eventually": 5145,
      "injured": 5146,
      "focus": 5147,
      "plicit": 5148,
      "efully": 5149,
      "ение": 5150,
      "Jersey": 5151,
      "negative": 5152,
      "trend": 5153,
      "circum": 5154,
      "Virginia": 5155,
      "corruption": 5156,
      "assault": 5157,
      "Rockefell": 5158,
      "equipment": 5159,
      "Second": 5160,
      "WikiLeaks": 5161,
      "Meanwhile": 5162,
      "%.": 5163,
      "CNN": 5164,
      "Den": 5165,
      "GM": 5166,
      "GO": 5167,
      "IF": 5168,
      "IP": 5169,
      "Land": 5170,
      "NAT": 5171,
      "Shar": 5172,
      "Santa": 5173,
      "Top": 5174,
      "ba": 5175,
      "bare": 5176,
      "bought": 5177,
      "fare": 5178,
      "founder": 5179,
      "greg": 5180,
      "glycyrrhizin": 5181,
      "iat": 5182,
      "kid": 5183,
      "kins": 5184,
      "lvan": 5185,
      "miles": 5186,
      "names": 5187,
      "sor": 5188,
      "sch": 5189,
      "tend": 5190,
      "tact": 5191,
      "tough": 5192,
      "tort": 5193,
      "ued": 5194,
      "ве": 5195,
      "пре": 5196,
      "instruct": 5197,
      "indeed": 5198,
      "remark": 5199,
      "returned": 5200,
      "remind": 5201,
      "revenue": 5202,
      "icate": 5203,
      "older": 5204,
      "chron": 5205,
      "iger": 5206,
      "sures": 5207,
      "sugar": 5208,
      "unk": 5209,
      "unable": 5210,
      "territ": 5211,
      "agenda": 5212,
      "istics": 5213,
      "trig": 5214,
      "lip": 5215,
      "fraud": 5216,
      "onest": 5217,
      "cture": 5218,
      "ume": 5219,
      "doctor": 5220,
      "uded": 5221,
      "aug": 5222,
      "offensive": 5223,
      "portion": 5224,
      "scale": 5225,
      "Chris": 5226,
      "coin": 5227,
      "cohol": 5228,
      "contest": 5229,
      "feet": 5230,
      "Butler": 5231,
      "mostly": 5232,
      "sylvan": 5233,
      "adding": 5234,
      "bridge": 5235,
      "mayor": 5236,
      "Alab": 5237,
      "boost": 5238,
      "player": 5239,
      "talks": 5240,
      "putting": 5241,
      "defic": 5242,
      "requires": 5243,
      "broke": 5244,
      "signs": 5245,
      "breaking": 5246,
      "apparently": 5247,
      "cycle": 5248,
      "employed": 5249,
      "solution": 5250,
      "researchers": 5251,
      "Frank": 5252,
      "slight": 5253,
      "audience": 5254,
      "Does": 5255,
      "protesters": 5256,
      "watching": 5257,
      "successful": 5258,
      "Patrick": 5259,
      "Linux": 5260,
      "manager": 5261,
      "аль": 5262,
      "Block": 5263,
      "rupt": 5264,
      "injuries": 5265,
      "towards": 5266,
      "Greece": 5267,
      "----------------": 5268,
      "baby": 5269,
      "advertising": 5270,
      "walking": 5271,
      "Knicks": 5272,
      "Silver": 5273,
      "sleep": 5274,
      "fortunately": 5275,
      "crowd": 5276,
      "achieve": 5277,
      "sharp": 5278,
      "heavily": 5279,
      "Pennsylvan": 5280,
      "Pharmac": 5281,
      "permanent": 5282,
      "Policy": 5283,
      "Schroder": 5284,
      "Pennsylvania": 5285,
      ".'": 5286,
      "37": 5287,
      "69": 5288,
      "Bi": 5289,
      "Bad": 5290,
      "CD": 5291,
      "Civil": 5292,
      "Comey": 5293,
      "Dig": 5294,
      "Ep": 5295,
      "Er": 5296,
      "Gun": 5297,
      "Gree": 5298,
      "Gaz": 5299,
      "GMO": 5300,
      "High": 5301,
      "IE": 5302,
      "Irel": 5303,
      "LO": 5304,
      "Lew": 5305,
      "Manche": 5306,
      "NBC": 5307,
      "Oper": 5308,
      "PR": 5309,
      "Pentagon": 5310,
      "Ten": 5311,
      "Tar": 5312,
      "catch": 5313,
      "craz": 5314,
      "fem": 5315,
      "fake": 5316,
      "gang": 5317,
      "hen": 5318,
      "mitted": 5319,
      "rated": 5320,
      "tip": 5321,
      "vac": 5322,
      "wall": 5323,
      "zone": 5324,
      "де": 5325,
      "про": 5326,
      "thy": 5327,
      "alty": 5328,
      "isan": 5329,
      "icious": 5330,
      "omin": 5331,
      "olf": 5332,
      "champ": 5333,
      "utr": 5334,
      "agues": 5335,
      "abandon": 5336,
      "proven": 5337,
      "aint": 5338,
      "los": 5339,
      "degree": 5340,
      "shop": 5341,
      "shock": 5342,
      "rian": 5343,
      "riots": 5344,
      "astru": 5345,
      "ranch": 5346,
      "blow": 5347,
      "blame": 5348,
      "eps": 5349,
      "actual": 5350,
      "perpet": 5351,
      "quiet": 5352,
      "igned": 5353,
      "Italy": 5354,
      "scious": 5355,
      "scene": 5356,
      "crack": 5357,
      "myster": 5358,
      "roughly": 5359,
      "committed": 5360,
      "angel": 5361,
      "icted": 5362,
      "visions": 5363,
      "Represent": 5364,
      "issions": 5365,
      "guarant": 5366,
      "Leg": 5367,
      "finish": 5368,
      "politically": 5369,
      "worldwide": 5370,
      "courts": 5371,
      "systems": 5372,
      "rison": 5373,
      "rising": 5374,
      "values": 5375,
      "entertainment": 5376,
      "Project": 5377,
      "fundament": 5378,
      "eyes": 5379,
      "transition": 5380,
      "Again": 5381,
      "interested": 5382,
      "ski": 5383,
      "causing": 5384,
      "Atl": 5385,
      "Actions": 5386,
      "greatest": 5387,
      "Prince": 5388,
      "concern": 5389,
      "Research": 5390,
      "civilians": 5391,
      "update": 5392,
      "pieces": 5393,
      "Boston": 5394,
      "talked": 5395,
      "widely": 5396,
      "dropped": 5397,
      "survey": 5398,
      "demanding": 5399,
      "Blog": 5400,
      "driven": 5401,
      "Chap": 5402,
      "Chair": 5403,
      "argument": 5404,
      "gains": 5405,
      "established": 5406,
      "Loeb": 5407,
      "teaching": 5408,
      "increasingly": 5409,
      "digest": 5410,
      "delivered": 5411,
      "arrived": 5412,
      "treated": 5413,
      "western": 5414,
      "literally": 5415,
      "dozen": 5416,
      "absolutely": 5417,
      "Palestinian": 5418,
      "accompl": 5419,
      "advantage": 5420,
      "stimulus": 5421,
      "Carolina": 5422,
      "institutions": 5423,
      "Brooklyn": 5424,
      "ilateral": 5425,
      "Rockefeller": 5426,
      "NATO": 5427,
      "Pharmacological": 5428,
      "Ireland": 5429,
      "Manchester": 5430,
      "astructure": 5431,
      "215": 5432,
      "53": 5433,
      "87": 5434,
      "Ale": 5435,
      "Call": 5436,
      "Down": 5437,
      "Fred": 5438,
      "Fort": 5439,
      "Hal": 5440,
      "Hot": 5441,
      "Lu": 5442,
      "Op": 5443,
      "Pan": 5444,
      "Pel": 5445,
      "Pak": 5446,
      "Power": 5447,
      "SU": 5448,
      "Sat": 5449,
      "Sou": 5450,
      "Show": 5451,
      "UT": 5452,
      "Us": 5453,
      "Vlad": 5454,
      "Water": 5455,
      "bly": 5456,
      "cab": 5457,
      "fine": 5458,
      "feder": 5459,
      "gri": 5460,
      "gue": 5461,
      "gins": 5462,
      "jihad": 5463,
      "kne": 5464,
      "ni": 5465,
      "rum": 5466,
      "vard": 5467,
      "ду": 5468,
      "хо": 5469,
      "….": 5470,
      "err": 5471,
      "animal": 5472,
      "theast": 5473,
      "remove": 5474,
      "remarks": 5475,
      "orial": 5476,
      "edge": 5477,
      "alcohol": 5478,
      "ingly": 5479,
      "lement": 5480,
      "leaf": 5481,
      "hell": 5482,
      "ilk": 5483,
      "iders": 5484,
      "aming": 5485,
      "agement": 5486,
      "convict": 5487,
      "reser": 5488,
      "prove": 5489,
      "excl": 5490,
      "appreci": 5491,
      "aste": 5492,
      "sports": 5493,
      "blue": 5494,
      "active": 5495,
      "acknow": 5496,
      "meant": 5497,
      "climate": 5498,
      "pra": 5499,
      "itely": 5500,
      "identified": 5501,
      "Where": 5502,
      "rent": 5503,
      "creation": 5504,
      "correspond": 5505,
      "decre": 5506,
      "anger": 5507,
      "reduced": 5508,
      "shel": 5509,
      "useum": 5510,
      "Lean": 5511,
      "knowledge": 5512,
      "Real": 5513,
      "Reagan": 5514,
      "species": 5515,
      "ACT": 5516,
      "aimed": 5517,
      "Click": 5518,
      "protected": 5519,
      "goods": 5520,
      "drive": 5521,
      "prominent": 5522,
      "volution": 5523,
      "numerous": 5524,
      "End": 5525,
      "Environ": 5526,
      "status": 5527,
      "Play": 5528,
      "transcri": 5529,
      "transgender": 5530,
      "facing": 5531,
      "denied": 5532,
      "hopes": 5533,
      "witch": 5534,
      "musical": 5535,
      "appropri": 5536,
      "spirit": 5537,
      "trading": 5538,
      "shares": 5539,
      "developing": 5540,
      "buying": 5541,
      "suspected": 5542,
      "messages": 5543,
      "photograph": 5544,
      "Georgia": 5545,
      "Israeli": 5546,
      "Perhaps": 5547,
      "laptop": 5548,
      "amounts": 5549,
      "expressed": 5550,
      "ения": 5551,
      "immediate": 5552,
      "emergency": 5553,
      "separate": 5554,
      "customers": 5555,
      "Alexander": 5556,
      "houses": 5557,
      "recommend": 5558,
      "neighbor": 5559,
      "Remember": 5560,
      "vehicle": 5561,
      "retirement": 5562,
      "Olympic": 5563,
      "Fergus": 5564,
      "Video": 5565,
      "ceasefire": 5566,
      "Alabama": 5567,
      "Blockchain": 5568,
      "64": 5569,
      "BA": 5570,
      "Bit": 5571,
      "Bas": 5572,
      "Bay": 5573,
      "Brun": 5574,
      "Cal": 5575,
      "Cur": 5576,
      "CFA": 5577,
      "Dall": 5578,
      "Emp": 5579,
      "Fed": 5580,
      "GD": 5581,
      "Gar": 5582,
      "Gore": 5583,
      "HD": 5584,
      "Ha": 5585,
      "Its": 5586,
      "Ju": 5587,
      "Mont": 5588,
      "SE": 5589,
      "Squ": 5590,
      "Town": 5591,
      "UD": 5592,
      "Ut": 5593,
      "Van": 5594,
      "WA": 5595,
      "athe": 5596,
      "bin": 5597,
      "cus": 5598,
      "cook": 5599,
      "fate": 5600,
      "fashion": 5601,
      "gay": 5602,
      "iated": 5603,
      "map": 5604,
      "nic": 5605,
      "nice": 5606,
      "pal": 5607,
      "sad": 5608,
      "wild": 5609,
      "yr": 5610,
      "Рос": 5611,
      "ем": 5612,
      "ме": 5613,
      "па": 5614,
      "пе": 5615,
      "ции": 5616,
      "inqu": 5617,
      "incent": 5618,
      "inspect": 5619,
      "rebe": 5620,
      "recess": 5621,
      "replace": 5622,
      "reaction": 5623,
      "stress": 5624,
      "itter": 5625,
      "lean": 5626,
      "roots": 5627,
      "sust": 5628,
      "utions": 5629,
      "unions": 5630,
      "unte": 5631,
      "concent": 5632,
      "istry": 5633,
      "tray": 5634,
      "proced": 5635,
      "peach": 5636,
      "essions": 5637,
      "plenty": 5638,
      "ivir": 5639,
      "princ": 5640,
      "proud": 5641,
      "arden": 5642,
      "ignored": 5643,
      "eller": 5644,
      "managed": 5645,
      "identity": 5646,
      "rence": 5647,
      "intercept": 5648,
      "disput": 5649,
      "discover": 5650,
      "contact": 5651,
      "Unfortunately": 5652,
      "enses": 5653,
      "obs": 5654,
      "obia": 5655,
      "subsid": 5656,
      "warm": 5657,
      "warning": 5658,
      "versial": 5659,
      "surger": 5660,
      "famous": 5661,
      "puts": 5662,
      "ordered": 5663,
      "Front": 5664,
      "closure": 5665,
      "missing": 5666,
      "affect": 5667,
      "heads": 5668,
      "Prot": 5669,
      "providing": 5670,
      "delay": 5671,
      "posts": 5672,
      "posting": 5673,
      "Execut": 5674,
      "burgh": 5675,
      "opening": 5676,
      "Columb": 5677,
      "Northern": 5678,
      "approved": 5679,
      "Warner": 5680,
      "Congressional": 5681,
      "failing": 5682,
      "reasonable": 5683,
      "Services": 5684,
      "advance": 5685,
      "threats": 5686,
      "generally": 5687,
      "Sundays": 5688,
      "understanding": 5689,
      "LLC": 5690,
      "————————": 5691,
      "bottom": 5692,
      "bringing": 5693,
      "drawn": 5694,
      "strike": 5695,
      "Holy": 5696,
      "Paris": 5697,
      "Saturdays": 5698,
      "entirely": 5699,
      "Commun": 5700,
      "soldiers": 5701,
      "combat": 5702,
      "opportun": 5703,
      "narrative": 5704,
      "rapid": 5705,
      "Romney": 5706,
      "recognize": 5707,
      "relief": 5708,
      "imagine": 5709,
      "restaurant": 5710,
      "HERE": 5711,
      "automatically": 5712,
      "opposite": 5713,
      "District": 5714,
      "fighters": 5715,
      "mechanism": 5716,
      "History": 5717,
      "Chairman": 5718,
      "Vladim": 5719,
      "Dallas": 5720,
      "08": 5721,
      "41": 5722,
      "52": 5723,
      "600": 5724,
      "85": 5725,
      "800": 5726,
      "Cold": 5727,
      "Dar": 5728,
      "Em": 5729,
      "Egy": 5730,
      "Hall": 5731,
      "Li": 5732,
      "List": 5733,
      "Lef": 5734,
      "Love": 5735,
      "Mag": 5736,
      "Old": 5737,
      "Pres": 5738,
      "Ref": 5739,
      "Rod": 5740,
      "Rock": 5741,
      "SP": 5742,
      "Ted": 5743,
      "Treas": 5744,
      "Ul": 5745,
      "Wel": 5746,
      "bol": 5747,
      "bott": 5748,
      "bureau": 5749,
      "cold": 5750,
      "eat": 5751,
      "fif": 5752,
      "fox": 5753,
      "hang": 5754,
      "hike": 5755,
      "ker": 5756,
      "nine": 5757,
      "rally": 5758,
      "size": 5759,
      "ua": 5760,
      "whel": 5761,
      "أ": 5762,
      "ining": 5763,
      "rec": 5764,
      "recru": 5765,
      "reporter": 5766,
      "encry": 5767,
      "stad": 5768,
      "stab": 5769,
      "stance": 5770,
      "alter": 5771,
      "allies": 5772,
      "ented": 5773,
      "ada": 5774,
      "accur": 5775,
      "accounts": 5776,
      "rol": 5777,
      "olen": 5778,
      "chann": 5779,
      "uty": 5780,
      "unique": 5781,
      "ager": 5782,
      "agric": 5783,
      "etc": 5784,
      "embar": 5785,
      "emissions": 5786,
      "optim": 5787,
      "opposed": 5788,
      "ables": 5789,
      "consult": 5790,
      "resol": 5791,
      "hair": 5792,
      "truck": 5793,
      "moves": 5794,
      "devast": 5795,
      "ounce": 5796,
      "shore": 5797,
      "shire": 5798,
      "peac": 5799,
      "essential": 5800,
      "artists": 5801,
      "ears": 5802,
      "plat": 5803,
      "plus": 5804,
      "endors": 5805,
      "ranny": 5806,
      "blig": 5807,
      "porary": 5808,
      "Stand": 5809,
      "neuro": 5810,
      "occup": 5811,
      "gry": 5812,
      "iabet": 5813,
      "scandal": 5814,
      "teacher": 5815,
      "compar": 5816,
      "bodies": 5817,
      "prepar": 5818,
      "Conroy": 5819,
      "discovered": 5820,
      "attorney": 5821,
      "amazing": 5822,
      "tware": 5823,
      "subpo": 5824,
      "visited": 5825,
      "backed": 5826,
      "regional": 5827,
      "monitor": 5828,
      "struck": 5829,
      "spects": 5830,
      "plays": 5831,
      "stands": 5832,
      "carbon": 5833,
      "retired": 5834,
      "privi": 5835,
      "Prov": 5836,
      "directed": 5837,
      "profits": 5838,
      "promised": 5839,
      "ields": 5840,
      "distribut": 5841,
      "Deep": 5842,
      "holds": 5843,
      "films": 5844,
      "faced": 5845,
      "сто": 5846,
      "empty": 5847,
      "Rober": 5848,
      "END": 5849,
      "THIS": 5850,
      "THAT": 5851,
      "Carter": 5852,
      "humanity": 5853,
      "1997": 5854,
      "judicial": 5855,
      "Share": 5856,
      "reportedly": 5857,
      "metal": 5858,
      "classified": 5859,
      "tests": 5860,
      "teams": 5861,
      "Broad": 5862,
      "properly": 5863,
      "India": 5864,
      "protecting": 5865,
      "racism": 5866,
      "Span": 5867,
      "Subscri": 5868,
      "roads": 5869,
      "Ukrainian": 5870,
      "strikes": 5871,
      "trafficking": 5872,
      "Judge": 5873,
      "instance": 5874,
      "participants": 5875,
      "Liberty": 5876,
      "inflation": 5877,
      "babies": 5878,
      "================================": 5879,
      "CEO": 5880,
      "Anti": 5881,
      "gathered": 5882,
      "Arabia": 5883,
      "nomine": 5884,
      "schedule": 5885,
      "relatively": 5886,
      "Jewish": 5887,
      "Korea": 5888,
      "options": 5889,
      "conversation": 5890,
      "congressional": 5891,
      "Francisco": 5892,
      "Catholic": 5893,
      "recovery": 5894,
      "sufficient": 5895,
      "beautiful": 5896,
      "Children": 5897,
      "McKinnon": 5898,
      "discrimination": 5899,
      "slightly": 5900,
      "Ferguson": 5901,
      "Egypt": 5902,
      "iabetes": 5903,
      "!”": 5904,
      ".[": 5905,
      "95": 5906,
      "Both": 5907,
      "Camer": 5908,
      "DR": 5909,
      "Fam": 5910,
      "Fair": 5911,
      "Ga": 5912,
      "HO": 5913,
      "Hu": 5914,
      "Hy": 5915,
      "Have": 5916,
      "Jon": 5917,
      "Jason": 5918,
      "Kir": 5919,
      "Less": 5920,
      "Long": 5921,
      "Labor": 5922,
      "Libr": 5923,
      "NU": 5924,
      "Ok": 5925,
      "Pet": 5926,
      "Rand": 5927,
      "Sum": 5928,
      "Sever": 5929,
      "WB": 5930,
      "WOR": 5931,
      "browser": 5932,
      "dil": 5933,
      "dump": 5934,
      "dden": 5935,
      "east": 5936,
      "eating": 5937,
      "fle": 5938,
      "fant": 5939,
      "leng": 5940,
      "lunch": 5941,
      "math": 5942,
      "master": 5943,
      "publ": 5944,
      "rig": 5945,
      "sister": 5946,
      "vation": 5947,
      "wake": 5948,
      "xit": 5949,
      "се": 5950,
      "erry": 5951,
      "ana": 5952,
      "theories": 5953,
      "rev": 5954,
      "recount": 5955,
      "ato": 5956,
      "aton": 5957,
      "sters": 5958,
      "alive": 5959,
      "ingu": 5960,
      "isher": 5961,
      "icts": 5962,
      "assum": 5963,
      "lethal": 5964,
      "ilos": 5965,
      "sees": 5966,
      "ades": 5967,
      "begun": 5968,
      "rob": 5969,
      "royed": 5970,
      "owed": 5971,
      "olly": 5972,
      "cher": 5973,
      "agno": 5974,
      "eless": 5975,
      "convent": 5976,
      "traces": 5977,
      "proof": 5978,
      "mod": 5979,
      "moon": 5980,
      "exports": 5981,
      "exhib": 5982,
      "uled": 5983,
      "devices": 5984,
      "sho": 5985,
      "apers": 5986,
      "poison": 5987,
      "overall": 5988,
      "Indeed": 5989,
      "acking": 5990,
      "ivity": 5991,
      "Three": 5992,
      "raig": 5993,
      "inty": 5994,
      "Ital": 5995,
      "polls": 5996,
      "scar": 5997,
      "sche": 5998,
      "compass": 5999,
      "aven": 6000,
      "pread": 6001,
      "code": 6002,
      "internal": 6003,
      "aceut": 6004,
      "craft": 6005,
      "minute": 6006,
      "corn": 6007,
      "firms": 6008,
      "sym": 6009,
      "symp": 6010,
      "Assem": 6011,
      "supporters": 6012,
      "lection": 6013,
      "athy": 6014,
      "guess": 6015,
      "relations": 6016,
      "lawmakers": 6017,
      "publicly": 6018,
      "coll": 6019,
      "column": 6020,
      "desper": 6021,
      "specified": 6022,
      "condem": 6023,
      "Former": 6024,
      "Toomey": 6025,
      "READ": 6026,
      "risks": 6027,
      "margin": 6028,
      "retch": 6029,
      "pression": 6030,
      "joint": 6031,
      "possibility": 6032,
      "controversial": 6033,
      "balance": 6034,
      "Mariano": 6035,
      "ships": 6036,
      "provides": 6037,
      "volunte": 6038,
      "charged": 6039,
      "Super": 6040,
      "faces": 6041,
      "Tea": 6042,
      "Without": 6043,
      "shots": 6044,
      "considering": 6045,
      "remained": 6046,
      "tariffs": 6047,
      "testim": 6048,
      "senators": 6049,
      "config": 6050,
      "Flu": 6051,
      "graphy": 6052,
      "ruled": 6053,
      "photos": 6054,
      "attempted": 6055,
      "explains": 6056,
      "ownership": 6057,
      "motiv": 6058,
      "invas": 6059,
      "Quest": 6060,
      "argued": 6061,
      "promote": 6062,
      "promoting": 6063,
      "accepted": 6064,
      "football": 6065,
      "churches": 6066,
      "suffered": 6067,
      "ophobia": 6068,
      "Brexit": 6069,
      "Windows": 6070,
      "refugee": 6071,
      "432": 6072,
      "mistake": 6073,
      "walked": 6074,
      "examples": 6075,
      "routes": 6076,
      "electric": 6077,
      "allegedly": 6078,
      "welcome": 6079,
      "Wilson": 6080,
      "excited": 6081,
      "transport": 6082,
      "software": 6083,
      "merely": 6084,
      "infrastructure": 6085,
      "determined": 6086,
      "McGinty": 6087,
      "alternative": 6088,
      "totally": 6089,
      "desktop": 6090,
      "angelical": 6091,
      "GDP": 6092,
      "Columbia": 6093,
      "Vladimir": 6094,
      "Left": 6095,
      "Library": 6096,
      "03": 6097,
      "07": 6098,
      "Bon": 6099,
      "Bru": 6100,
      "Brad": 6101,
      "Cross": 6102,
      "Div": 6103,
      "Die": 6104,
      "Dollar": 6105,
      "Email": 6106,
      "Happ": 6107,
      "Jac": 6108,
      "Jones": 6109,
      "NSA": 6110,
      "Oil": 6111,
      "Pac": 6112,
      "Pop": 6113,
      "SK": 6114,
      "Sher": 6115,
      "Sometimes": 6116,
      "Tri": 6117,
      "VE": 6118,
      "Vol": 6119,
      "Vict": 6120,
      "Vacc": 6121,
      "Yuan": 6122,
      "[…": 6123,
      "bish": 6124,
      "cz": 6125,
      "cult": 6126,
      "dad": 6127,
      "iro": 6128,
      "jail": 6129,
      "lights": 6130,
      "oblig": 6131,
      "pts": 6132,
      "pound": 6133,
      "park": 6134,
      "pair": 6135,
      "rhe": 6136,
      "rif": 6137,
      "sac": 6138,
      "session": 6139,
      "tank": 6140,
      "tweet": 6141,
      "uine": 6142,
      "vs": 6143,
      "vig": 6144,
      "ги": 6145,
      "нов": 6146,
      "ча": 6147,
      "ths": 6148,
      "thod": 6149,
      "iny": 6150,
      "inal": 6151,
      "inet": 6152,
      "inck": 6153,
      "ano": 6154,
      "thew": 6155,
      "revers": 6156,
      "represents": 6157,
      "toler": 6158,
      "icul": 6159,
      "asyl": 6160,
      "het": 6161,
      "adop": 6162,
      "acon": 6163,
      "acle": 6164,
      "root": 6165,
      "olar": 6166,
      "sudden": 6167,
      "utral": 6168,
      "cel": 6169,
      "urban": 6170,
      "agers": 6171,
      "trum": 6172,
      "proved": 6173,
      "loan": 6174,
      "expl": 6175,
      "explicit": 6176,
      "wearing": 6177,
      "notes": 6178,
      "soil": 6179,
      "estate": 6180,
      "hase": 6181,
      "spring": 6182,
      "upid": 6183,
      "evin": 6184,
      "Animal": 6185,
      "ucks": 6186,
      "score": 6187,
      "award": 6188,
      "creates": 6189,
      "gov": 6190,
      "disappointed": 6191,
      "mini": 6192,
      "formul": 6193,
      "Week": 6194,
      "2002": 6195,
      "USE": 6196,
      "legit": 6197,
      "serving": 6198,
      "surge": 6199,
      "studios": 6200,
      "phen": 6201,
      "memory": 6202,
      "genuine": 6203,
      "cars": 6204,
      "affected": 6205,
      "affairs": 6206,
      "matters": 6207,
      "folk": 6208,
      "realized": 6209,
      "supporting": 6210,
      "Update": 6211,
      "signed": 6212,
      "claiming": 6213,
      "bloc": 6214,
      "blogg": 6215,
      "Cost": 6216,
      "Engl": 6217,
      "Death": 6218,
      "knock": 6219,
      "authorized": 6220,
      "Maybe": 6221,
      "citing": 6222,
      "investigate": 6223,
      "fourth": 6224,
      "Peter": 6225,
      "Grand": 6226,
      "accus": 6227,
      "Among": 6228,
      "Ministry": 6229,
      "effectively": 6230,
      "easier": 6231,
      "smaller": 6232,
      "involving": 6233,
      "Nether": 6234,
      "variety": 6235,
      "Indust": 6236,
      "protests": 6237,
      "watched": 6238,
      "liberty": 6239,
      "Harvard": 6240,
      "seriously": 6241,
      "destroyed": 6242,
      "conservatives": 6243,
      "relationships": 6244,
      "Governor": 6245,
      "responded": 6246,
      "necessarily": 6247,
      "thinks": 6248,
      "originally": 6249,
      "significantly": 6250,
      "division": 6251,
      "Much": 6252,
      "fool": 6253,
      "Williams": 6254,
      "surprise": 6255,
      "favorite": 6256,
      "contains": 6257,
      "Daniel": 6258,
      "customer": 6259,
      "eliminate": 6260,
      "coalition": 6261,
      "housing": 6262,
      "mentioned": 6263,
      "Science": 6264,
      "neighb": 6265,
      "Bernie": 6266,
      "emotional": 6267,
      "Bundy": 6268,
      "bailout": 6269,
      "Conservative": 6270,
      "Medicare": 6271,
      "Defense": 6272,
      "Radio": 6273,
      "opponents": 6274,
      "experienced": 6275,
      "Kelly": 6276,
      "camera": 6277,
      "choose": 6278,
      "collapse": 6279,
      "propaganda": 6280,
      "FSB": 6281,
      "colleagues": 6282,
      "comfortable": 6283,
      "disturbing": 6284,
      "entitled": 6285,
      "Pakistan": 6286,
      "Utah": 6287,
      "Protection": 6288,
      "Roberts": 6289,
      "configured": 6290,
      "[…]": 6291,
      "inckley": 6292,
      "asylum": 6293,
      "English": 6294,
      "\",": 6295,
      "/...": 6296,
      "440": 6297,
      "4GB": 6298,
      "62": 6299,
      "65": 6300,
      "68": 6301,
      "845": 6302,
      "??": 6303,
      "AF": 6304,
      "Aff": 6305,
      "BY": 6306,
      "Bir": 6307,
      "Browser": 6308,
      "EM": 6309,
      "Fil": 6310,
      "FDA": 6311,
      "GNU": 6312,
      "Hinckley": 6313,
      "IAL": 6314,
      "Know": 6315,
      "Live": 6316,
      "Later": 6317,
      "Other": 6318,
      "Prison": 6319,
      "Sel": 6320,
      "Site": 6321,
      "TE": 6322,
      "Too": 6323,
      "Vill": 6324,
      "Vice": 6325,
      "Was": 6326,
      "Way": 6327,
      "Walk": 6328,
      "aust": 6329,
      "bs": 6330,
      "core": 6331,
      "dress": 6332,
      "dinner": 6333,
      "hu": 6334,
      "hun": 6335,
      "hide": 6336,
      "kers": 6337,
      "lan": 6338,
      "mm": 6339,
      "mes": 6340,
      "mns": 6341,
      "nest": 6342,
      "rational": 6343,
      "sides": 6344,
      "til": 6345,
      "ви": 6346,
      "му": 6347,
      "ну": 6348,
      "от": 6349,
      "сл": 6350,
      "ски": 6351,
      "intim": 6352,
      "inci": 6353,
      "ero": 6354,
      "erity": 6355,
      "theless": 6356,
      "oral": 6357,
      "oration": 6358,
      "stic": 6359,
      "stupid": 6360,
      "ara": 6361,
      "ication": 6362,
      "omy": 6363,
      "section": 6364,
      "ado": 6365,
      "aders": 6366,
      "administ": 6367,
      "ami": 6368,
      "amber": 6369,
      "ows": 6370,
      "otic": 6371,
      "unemployment": 6372,
      "universe": 6373,
      "emy": 6374,
      "elite": 6375,
      "illust": 6376,
      "concept": 6377,
      "trump": 6378,
      "prospect": 6379,
      "aine": 6380,
      "excess": 6381,
      "extradition": 6382,
      "noticed": 6383,
      "peak": 6384,
      "apolog": 6385,
      "apartment": 6386,
      "sored": 6387,
      "ifts": 6388,
      "artist": 6389,
      "plot": 6390,
      "asted": 6391,
      "overwhel": 6392,
      "spon": 6393,
      "worry": 6394,
      "ooking": 6395,
      "Stat": 6396,
      "iants": 6397,
      "ucci": 6398,
      "raising": 6399,
      "manip": 6400,
      "compound": 6401,
      "server": 6402,
      "lla": 6403,
      "coast": 6404,
      "fee": 6405,
      "fees": 6406,
      "ptions": 6407,
      "forever": 6408,
      "twice": 6409,
      "command": 6410,
      "leted": 6411,
      "sels": 6412,
      "Arsen": 6413,
      "ashed": 6414,
      "surface": 6415,
      "factors": 6416,
      "INE": 6417,
      "Senators": 6418,
      "percentage": 6419,
      "closures": 6420,
      "runs": 6421,
      "headed": 6422,
      "Progress": 6423,
      "plane": 6424,
      "attacked": 6425,
      "Moon": 6426,
      "receiving": 6427,
      "fewer": 6428,
      "harass": 6429,
      "passing": 6430,
      "listed": 6431,
      "facilities": 6432,
      "grown": 6433,
      "Gray": 6434,
      "1991": 6435,
      "viously": 6436,
      "executives": 6437,
      "ASE": 6438,
      "advice": 6439,
      "activist": 6440,
      "weapon": 6441,
      "diplom": 6442,
      "criminals": 6443,
      "1970": 6444,
      "ADHD": 6445,
      "horr": 6446,
      "21st": 6447,
      "managing": 6448,
      "pushed": 6449,
      "Hosp": 6450,
      "plication": 6451,
      "enemies": 6452,
      "expression": 6453,
      "Anglin": 6454,
      "introduce": 6455,
      "gaining": 6456,
      "religion": 6457,
      "Related": 6458,
      "________________": 6459,
      "Philip": 6460,
      "opinions": 6461,
      "Shao": 6462,
      "picked": 6463,
      "shirt": 6464,
      "training": 6465,
      "restaurants": 6466,
      "struggling": 6467,
      "sensitive": 6468,
      "Bundle": 6469,
      "announcement": 6470,
      "Cubs": 6471,
      "Joseph": 6472,
      "Surve": 6473,
      "Lynch": 6474,
      "prepared": 6475,
      "Authority": 6476,
      "Firefox": 6477,
      "Professor": 6478,
      "Australia": 6479,
      "Matthew": 6480,
      "Privacy": 6481,
      "deputy": 6482,
      "skills": 6483,
      "barely": 6484,
      "remarkable": 6485,
      "territory": 6486,
      "Environmental": 6487,
      "appropriate": 6488,
      "encrypted": 6489,
      "Subscribe": 6490,
      "nominee": 6491,
      "Cameron": 6492,
      "Italian": 6493,
      "aceutical": 6494,
      "Jacob": 6495,
      "Netherlands": 6496,
      ".-": 6497,
      "Bet": 6498,
      "Bab": 6499,
      "Bell": 6500,
      "CL": 6501,
      "Cy": 6502,
      "Cit": 6503,
      "Chel": 6504,
      "Craig": 6505,
      "Fast": 6506,
      "Gul": 6507,
      "Ill": 6508,
      "Kent": 6509,
      "Kerry": 6510,
      "LD": 6511,
      "Lord": 6512,
      "Mel": 6513,
      "Mood": 6514,
      "Macy": 6515,
      "Night": 6516,
      "NAS": 6517,
      "Niger": 6518,
      "Os": 6519,
      "Pers": 6520,
      "Tal": 6521,
      "Terror": 6522,
      "UE": 6523,
      "WAS": 6524,
      "Waters": 6525,
      "Ye": 6526,
      "Young": 6527,
      "ape": 6528,
      "bra": 6529,
      "cu": 6530,
      "democrat": 6531,
      "giant": 6532,
      "honest": 6533,
      "kin": 6534,
      "licorice": 6535,
      "maker": 6536,
      "nav": 6537,
      "pist": 6538,
      "sending": 6539,
      "wer": 6540,
      "wed": 6541,
      "waves": 6542,
      "га": 6543,
      "из": 6544,
      "кра": 6545,
      "ня": 6546,
      "ту": 6547,
      "ini": 6548,
      "angry": 6549,
      "oni": 6550,
      "onies": 6551,
      "thes": 6552,
      "replac": 6553,
      "atures": 6554,
      "ende": 6555,
      "stag": 6556,
      "strange": 6557,
      "alle": 6558,
      "isation": 6559,
      "items": 6560,
      "icians": 6561,
      "asks": 6562,
      "bear": 6563,
      "roat": 6564,
      "forget": 6565,
      "olate": 6566,
      "chat": 6567,
      "ota": 6568,
      "sured": 6569,
      "suicide": 6570,
      "uncertain": 6571,
      "iron": 6572,
      "cean": 6573,
      "Theater": 6574,
      "elines": 6575,
      "convention": 6576,
      "constant": 6577,
      "isters": 6578,
      "resolution": 6579,
      "liqu": 6580,
      "liance": 6581,
      "lift": 6582,
      "fru": 6583,
      "destruction": 6584,
      "sole": 6585,
      "pool": 6586,
      "20th": 6587,
      "sav": 6588,
      "rier": 6589,
      "rival": 6590,
      "ranted": 6591,
      "quant": 6592,
      "iance": 6593,
      "eval": 6594,
      "cles": 6595,
      "princi": 6596,
      "grade": 6597,
      "elled": 6598,
      "ansas": 6599,
      "nobody": 6600,
      "mann": 6601,
      "presidency": 6602,
      "somehow": 6603,
      "aving": 6604,
      "prec": 6605,
      "Confeder": 6606,
      "coa": 6607,
      "intervention": 6608,
      "thanks": 6609,
      "counsel": 6610,
      "counted": 6611,
      "Island": 6612,
      "substant": 6613,
      "oked": 6614,
      "learning": 6615,
      "vised": 6616,
      "guide": 6617,
      "extensive": 6618,
      "mond": 6619,
      "monetary": 6620,
      "Arts": 6621,
      "Reid": 6622,
      "Alcoa": 6623,
      "pping": 6624,
      "pharm": 6625,
      "philos": 6626,
      "marked": 6627,
      "ONE": 6628,
      "closer": 6629,
      "McLean": 6630,
      "ixon": 6631,
      "dram": 6632,
      "bigger": 6633,
      "129": 6634,
      "Cooper": 6635,
      "finds": 6636,
      "findings": 6637,
      "passion": 6638,
      "apping": 6639,
      "demands": 6640,
      "filed": 6641,
      "Mayo": 6642,
      "Mayor": 6643,
      "facility": 6644,
      "investigations": 6645,
      "сти": 6646,
      "detect": 6647,
      "1999": 6648,
      "Editor": 6649,
      "accident": 6650,
      "bills": 6651,
      "ASS": 6652,
      "advanced": 6653,
      "hypo": 6654,
      "fallen": 6655,
      "Note": 6656,
      "successfully": 6657,
      "immigrant": 6658,
      "horse": 6659,
      "attempting": 6660,
      "continuing": 6661,
      "MORE": 6662,
      "deadly": 6663,
      "Bloom": 6664,
      "invited": 6665,
      "injury": 6666,
      "answered": 6667,
      "так": 6668,
      "corporations": 6669,
      "expectations": 6670,
      "existence": 6671,
      "IGN": 6672,
      "definitely": 6673,
      "initial": 6674,
      "Everyone": 6675,
      "reveal": 6676,
      "narrow": 6677,
      "teachers": 6678,
      "Swed": 6679,
      "Swiss": 6680,
      "ных": 6681,
      "bombs": 6682,
      "typically": 6683,
      "Revolution": 6684,
      "progressive": 6685,
      "survived": 6686,
      "lawyers": 6687,
      "scheduled": 6688,
      "honor": 6689,
      "wiret": 6690,
      "historical": 6691,
      "mandate": 6692,
      "micro": 6693,
      "rejected": 6694,
      "iciary": 6695,
      "Valley": 6696,
      "mutual": 6697,
      "aggressive": 6698,
      "Banking": 6699,
      "Latin": 6700,
      "split": 6701,
      "Campaign": 6702,
      "instrument": 6703,
      "mortg": 6704,
      "confrontation": 6705,
      "torture": 6706,
      "mysterious": 6707,
      "fundamental": 6708,
      "Southern": 6709,
      "leaflet": 6710,
      "Bitcoin": 6711,
      "recession": 6712,
      "Executive": 6713,
      "opportunities": 6714,
      "bureaucr": 6715,
      "testimony": 6716,
      "Fluoride": 6717,
      "sponsored": 6718,
      "Chelsea": 6719,
      "Moody": 6720,
      "02": 6721,
      "88": 6722,
      "BO": 6723,
      "Bor": 6724,
      "Bob": 6725,
      "Eli": 6726,
      "Fine": 6727,
      "Facts": 6728,
      "Gross": 6729,
      "Given": 6730,
      "Hit": 6731,
      "HUD": 6732,
      "IAN": 6733,
      "Kat": 6734,
      "MC": 6735,
      "Mid": 6736,
      "Nick": 6737,
      "OK": 6738,
      "Ot": 6739,
      "Paren": 6740,
      "Prem": 6741,
      "Rick": 6742,
      "Som": 6743,
      "Sim": 6744,
      "Sure": 6745,
      "Sput": 6746,
      "Take": 6747,
      "Tax": 6748,
      "Vi": 6749,
      "bind": 6750,
      "bull": 6751,
      "dirty": 6752,
      "fre": 6753,
      "fought": 6754,
      "festival": 6755,
      "gro": 6756,
      "gap": 6757,
      "gift": 6758,
      "ius": 6759,
      "lor": 6760,
      "mac": 6761,
      "mice": 6762,
      "mous": 6763,
      "mans": 6764,
      "male": 6765,
      "milk": 6766,
      "nd": 6767,
      "nur": 6768,
      "sought": 6769,
      "tun": 6770,
      "wart": 6771,
      "wrest": 6772,
      "wides": 6773,
      "window": 6774,
      "жд": 6775,
      "при": 6776,
      "са": 6777,
      "inhib": 6778,
      "reh": 6779,
      "reference": 6780,
      "atab": 6781,
      "enable": 6782,
      "storm": 6783,
      "alb": 6784,
      "oul": 6785,
      "itable": 6786,
      "asp": 6787,
      "assets": 6788,
      "oma": 6789,
      "entry": 6790,
      "heel": 6791,
      "forth": 6792,
      "forcing": 6793,
      "amm": 6794,
      "whis": 6795,
      "iments": 6796,
      "choc": 6797,
      "suing": 6798,
      "suspects": 6799,
      "utch": 6800,
      "uni": 6801,
      "uration": 6802,
      "emon": 6803,
      "emen": 6804,
      "abs": 6805,
      "traged": 6806,
      "exempt": 6807,
      "deals": 6808,
      "weaken": 6809,
      "ounger": 6810,
      "shine": 6811,
      "apples": 6812,
      "earnings": 6813,
      "astron": 6814,
      "Init": 6815,
      "Independ": 6816,
      "doses": 6817,
      "eple": 6818,
      "udes": 6819,
      "anyway": 6820,
      "persu": 6821,
      "Stan": 6822,
      "Things": 6823,
      "method": 6824,
      "clim": 6825,
      "ocking": 6826,
      "owns": 6827,
      "rape": 6828,
      "novel": 6829,
      "prescri": 6830,
      "compreh": 6831,
      "avir": 6832,
      "awa": 6833,
      "boards": 6834,
      "preced": 6835,
      "positions": 6836,
      "Constitutional": 6837,
      "Contribut": 6838,
      "reads": 6839,
      "disab": 6840,
      "whenever": 6841,
      "Adam": 6842,
      "Advis": 6843,
      "twitter": 6844,
      "cury": 6845,
      "USC": 6846,
      "athlet": 6847,
      "donated": 6848,
      "useful": 6849,
      "guest": 6850,
      "extended": 6851,
      "odd": 6852,
      "Arch": 6853,
      "finance": 6854,
      "finished": 6855,
      "Alask": 6856,
      "studied": 6857,
      "tonight": 6858,
      "gene": 6859,
      "investments": 6860,
      "Contact": 6861,
      "factor": 6862,
      "Club": 6863,
      "realize": 6864,
      "emphas": 6865,
      "incred": 6866,
      "250": 6867,
      "drinking": 6868,
      "brothers": 6869,
      "Mosul": 6870,
      "appeal": 6871,
      "deliber": 6872,
      "finding": 6873,
      "changing": 6874,
      "Express": 6875,
      "organized": 6876,
      "summit": 6877,
      "experiment": 6878,
      "ARS": 6879,
      "Tech": 6880,
      "Britney": 6881,
      "feels": 6882,
      "Grass": 6883,
      "rooms": 6884,
      "pattern": 6885,
      "structure": 6886,
      "metals": 6887,
      "classes": 6888,
      "Management": 6889,
      "towns": 6890,
      "falling": 6891,
      "1976": 6892,
      "firearms": 6893,
      "nearby": 6894,
      "visiting": 6895,
      "suspended": 6896,
      "races": 6897,
      "moments": 6898,
      "assistant": 6899,
      "Chech": 6900,
      "galax": 6901,
      "magazine": 6902,
      "driver": 6903,
      "murders": 6904,
      "allegations": 6905,
      "materials": 6906,
      "Charles": 6907,
      "multi": 6908,
      "Below": 6909,
      "NCLB": 6910,
      "Earlier": 6911,
      "Community": 6912,
      "definition": 6913,
      "initiative": 6914,
      "supposedly": 6915,
      "Brus": 6916,
      "regardless": 6917,
      "enjoyed": 6918,
      "Golden": 6919,
      "conclusion": 6920,
      "concluded": 6921,
      "regulations": 6922,
      "Merr": 6923,
      "Japanese": 6924,
      "surprising": 6925,
      "specifically": 6926,
      "toxicity": 6927,
      "ethnic": 6928,
      "********": 6929,
      "negotiations": 6930,
      "wounded": 6931,
      "prosecutors": 6932,
      "retailers": 6933,
      "partnership": 6934,
      "purchase": 6935,
      "predicted": 6936,
      "militants": 6937,
      "pulled": 6938,
      "NEW": 6939,
      "Further": 6940,
      "clinic": 6941,
      "professionals": 6942,
      "BLM": 6943,
      "Voice": 6944,
      "consequences": 6945,
      "lobbying": 6946,
      "sharply": 6947,
      "Epub": 6948,
      "Lewis": 6949,
      "photographs": 6950,
      "Square": 6951,
      "Holyfield": 6952,
      "Treasury": 6953,
      "platform": 6954,
      "Broadway": 6955,
      "Several": 6956,
      "Question": 6957,
      "legitimate": 6958,
      "overwhelming": 6959,
      "Arsenal": 6960,
      "Gulf": 6961,
      "Kentucky": 6962,
      "Sputnik": 6963,
      "04": 6964,
      "330": 6965,
      "63": 6966,
      "Ama": 6967,
      "Bron": 6968,
      "BBC": 6969,
      "Dou": 6970,
      "Did": 6971,
      "Dam": 6972,
      "Dear": 6973,
      "Dark": 6974,
      "GRE": 6975,
      "Garden": 6976,
      "Hand": 6977,
      "Hud": 6978,
      "Hamp": 6979,
      "Jay": 6980,
      "Ku": 6981,
      "Kle": 6982,
      "Lad": 6983,
      "Low": 6984,
      "Loc": 6985,
      "Lie": 6986,
      "Little": 6987,
      "Mail": 6988,
      "MAR": 6989,
      "NO": 6990,
      "Nest": 6991,
      "Naz": 6992,
      "Ow": 6993,
      "Ox": 6994,
      "Oss": 6995,
      "Page": 6996,
      "Pict": 6997,
      "Rub": 6998,
      "SW": 6999,
      "Sus": 7000,
      "Sessions": 7001,
      "Ter": 7002,
      "Tour": 7003,
      "TON": 7004,
      "Von": 7005,
      "Vene": 7006,
      "cro": 7007,
      "coc": 7008,
      "cue": 7009,
      "cott": 7010,
      "een": 7011,
      "fed": 7012,
      "file": 7013,
      "fasc": 7014,
      "gs": 7015,
      "hid": 7016,
      "hits": 7017,
      "hitting": 7018,
      "ki": 7019,
      "max": 7020,
      "nament": 7021,
      "ppo": 7022,
      "pure": 7023,
      "rass": 7024,
      "sider": 7025,
      "switch": 7026,
      "tts": 7027,
      "tree": 7028,
      "tired": 7029,
      "va": 7030,
      "von": 7031,
      "wig": 7032,
      "wind": 7033,
      "yard": 7034,
      "По": 7035,
      "ку": 7036,
      "ры": 7037,
      "сов": 7038,
      "thood": 7039,
      "inaug": 7040,
      "rey": 7041,
      "restrict": 7042,
      "ensus": 7043,
      "sts": 7044,
      "toya": 7045,
      "tools": 7046,
      "iscal": 7047,
      "aron": 7048,
      "esa": 7049,
      "itz": 7050,
      "asy": 7051,
      "assem": 7052,
      "lé": 7053,
      "league": 7054,
      "oms": 7055,
      "hem": 7056,
      "belong": 7057,
      "behalf": 7058,
      "images": 7059,
      "imposed": 7060,
      "chose": 7061,
      "suprem": 7062,
      "unit": 7063,
      "terrible": 7064,
      "urged": 7065,
      "etime": 7066,
      "illness": 7067,
      "comed": 7068,
      "withdraw": 7069,
      "frust": 7070,
      "frame": 7071,
      "wash": 7072,
      "outlets": 7073,
      "ulated": 7074,
      "apt": 7075,
      "essed": 7076,
      "essentially": 7077,
      "hasn": 7078,
      "spray": 7079,
      "ranean": 7080,
      "doors": 7081,
      "epis": 7082,
      "ghong": 7083,
      "Story": 7084,
      "evens": 7085,
      "evangelical": 7086,
      "offense": 7087,
      "Anton": 7088,
      "izz": 7089,
      "newly": 7090,
      "presence": 7091,
      "somebody": 7092,
      "assert": 7093,
      "scored": 7094,
      "ipal": 7095,
      "ishes": 7096,
      "disaster": 7097,
      "cruc": 7098,
      "attach": 7099,
      "council": 7100,
      "ancest": 7101,
      "achuse": 7102,
      "achiev": 7103,
      "declar": 7104,
      "encing": 7105,
      "lett": 7106,
      "serves": 7107,
      "warrant": 7108,
      "extend": 7109,
      "Leon": 7110,
      "Argent": 7111,
      "Albert": 7112,
      "rators": 7113,
      "beings": 7114,
      "phones": 7115,
      "spectrum": 7116,
      "memo": 7117,
      "helps": 7118,
      "iox": 7119,
      "genet": 7120,
      "McDonald": 7121,
      "payment": 7122,
      "Prod": 7123,
      "carefully": 7124,
      "steel": 7125,
      "profile": 7126,
      "drink": 7127,
      "operate": 7128,
      "Sheeple": 7129,
      "signing": 7130,
      "handed": 7131,
      "distr": 7132,
      "distingu": 7133,
      "Dean": 7134,
      "applied": 7135,
      "Agents": 7136,
      "follows": 7137,
      "investigating": 7138,
      "investigators": 7139,
      "Origin": 7140,
      "deploy": 7141,
      "Coll": 7142,
      "Color": 7143,
      "subscription": 7144,
      "detention": 7145,
      "Barbar": 7146,
      "severe": 7147,
      "engaged": 7148,
      "Price": 7149,
      "Serge": 7150,
      "dealing": 7151,
      "addressed": 7152,
      "Montoya": 7153,
      "Fridays": 7154,
      "meetings": 7155,
      "equival": 7156,
      "hyper": 7157,
      "Toronto": 7158,
      "Boy": 7159,
      "раз": 7160,
      "diagno": 7161,
      "STATE": 7162,
      "reaching": 7163,
      "telephone": 7164,
      "generations": 7165,
      "closely": 7166,
      "explaining": 7167,
      "ной": 7168,
      "discussed": 7169,
      "managers": 7170,
      "Wallet": 7171,
      "strongly": 7172,
      "MOSF": 7173,
      "thousand": 7174,
      "fasting": 7175,
      "Charlie": 7176,
      "Chargers": 7177,
      "Lawrence": 7178,
      "titled": 7179,
      "promoted": 7180,
      "performances": 7181,
      "losses": 7182,
      "indicated": 7183,
      "collective": 7184,
      "Directors": 7185,
      "panel": 7186,
      "murdered": 7187,
      "featured": 7188,
      "typical": 7189,
      "Review": 7190,
      "evils": 7191,
      "routine": 7192,
      "affordable": 7193,
      "snip": 7194,
      "1980s": 7195,
      "ethics": 7196,
      "gathering": 7197,
      "historic": 7198,
      "vehicles": 7199,
      "dozens": 7200,
      "Massachuse": 7201,
      "heroin": 7202,
      "Jefferson": 7203,
      "Keywords": 7204,
      "manufactur": 7205,
      "Trans": 7206,
      "UPD": 7207,
      "jumped": 7208,
      "iciency": 7209,
      "Ross": 7210,
      "veteran": 7211,
      "beliefs": 7212,
      "Truth": 7213,
      "habit": 7214,
      "Stephen": 7215,
      "Changhong": 7216,
      "brutal": 7217,
      "pective": 7218,
      "advocates": 7219,
      "taxpayers": 7220,
      "category": 7221,
      "reduces": 7222,
      "paintings": 7223,
      "scholar": 7224,
      "chronic": 7225,
      "crazy": 7226,
      "Legisl": 7227,
      "Chapter": 7228,
      "accomplish": 7229,
      "Aleppo": 7230,
      "Satan": 7231,
      "surgery": 7232,
      "stadium": 7233,
      "embarrass": 7234,
      "preparing": 7235,
      "Victor": 7236,
      "phenomen": 7237,
      "accusations": 7238,
      "Hospital": 7239,
      "weren": 7240,
      "Brussels": 7241,
      "Hudson": 7242,
      "Hampshire": 7243,
      "Nestlé": 7244,
      "Venez": 7245,
      "Barbara": 7246,
      "MOSFIRE": 7247,
      "Massachusetts": 7248,
      "05": 7249,
      "09": 7250,
      "56": 7251,
      "67": 7252,
      "86": 7253,
      "911": 7254,
      "BM": 7255,
      "Bart": 7256,
      "Bert": 7257,
      "CP": 7258,
      "CT": 7259,
      "Cat": 7260,
      "Cancer": 7261,
      "Dick": 7262,
      "Festival": 7263,
      "GLO": 7264,
      "Hus": 7265,
      "Ida": 7266,
      "KE": 7267,
      "KING": 7268,
      "Lar": 7269,
      "Las": 7270,
      "Lav": 7271,
      "Link": 7272,
      "Men": 7273,
      "Mot": 7274,
      "Matt": 7275,
      "Mountain": 7276,
      "MENT": 7277,
      "N1": 7278,
      "NF": 7279,
      "Non": 7280,
      "Nel": 7281,
      "Never": 7282,
      "Por": 7283,
      "RW": 7284,
      "Rose": 7285,
      "Stop": 7286,
      "Select": 7287,
      "SIGN": 7288,
      "TC": 7289,
      "Tay": 7290,
      "Taking": 7291,
      "Vit": 7292,
      "Wire": 7293,
      "Wild": 7294,
      "WILL": 7295,
      "aus": 7296,
      "aire": 7297,
      "bars": 7298,
      "borders": 7299,
      "cart": 7300,
      "dent": 7301,
      "dry": 7302,
      "dancing": 7303,
      "eter": 7304,
      "fan": 7305,
      "fly": 7306,
      "fold": 7307,
      "finger": 7308,
      "fields": 7309,
      "fiscal": 7310,
      "gut": 7311,
      "gate": 7312,
      "glo": 7313,
      "gained": 7314,
      "hman": 7315,
      "iqu": 7316,
      "iSIGN": 7317,
      "ju": 7318,
      "jack": 7319,
      "lun": 7320,
      "loud": 7321,
      "latter": 7322,
      "nick": 7323,
      "pup": 7324,
      "pump": 7325,
      "rom": 7326,
      "sop": 7327,
      "tens": 7328,
      "task": 7329,
      "vals": 7330,
      "wid": 7331,
      "wine": 7332,
      "ye": 7333,
      "yellow": 7334,
      "younger": 7335,
      "zed": 7336,
      "zoo": 7337,
      "гла": 7338,
      "ря": 7339,
      "ري": 7340,
      "thrown": 7341,
      "inos": 7342,
      "inject": 7343,
      "ani": 7344,
      "remin": 7345,
      "revel": 7346,
      "recalled": 7347,
      "atically": 7348,
      "enthus": 7349,
      "stal": 7350,
      "stolen": 7351,
      "stretch": 7352,
      "edia": 7353,
      "ingred": 7354,
      "ario": 7355,
      "argue": 7356,
      "ita": 7357,
      "itage": 7358,
      "lements": 7359,
      "ionally": 7360,
      "segment": 7361,
      "adult": 7362,
      "aced": 7363,
      "idel": 7364,
      "amb": 7365,
      "chos": 7366,
      "ira": 7367,
      "TheDC": 7368,
      "emb": 7369,
      "emed": 7370,
      "eline": 7371,
      "conv": 7372,
      "constit": 7373,
      "construct": 7374,
      "istle": 7375,
      "istically": 7376,
      "ouri": 7377,
      "prote": 7378,
      "projects": 7379,
      "fron": 7380,
      "determ": 7381,
      "defeat": 7382,
      "appl": 7383,
      "spons": 7384,
      "upper": 7385,
      "portray": 7386,
      "Stevens": 7387,
      "meat": 7388,
      "merger": 7389,
      "ideal": 7390,
      "ideology": 7391,
      "ported": 7392,
      "somewhere": 7393,
      "Hey": 7394,
      "aved": 7395,
      "pregn": 7396,
      "posing": 7397,
      "creative": 7398,
      "disorders": 7399,
      "letting": 7400,
      "subsequ": 7401,
      "worker": 7402,
      "understood": 7403,
      "Asia": 7404,
      "USD": 7405,
      "brace": 7406,
      "Nothing": 7407,
      "flav": 7408,
      "suring": 7409,
      "deser": 7410,
      "Comments": 7411,
      "ISP": 7412,
      "officially": 7413,
      "Presidential": 7414,
      "ACA": 7415,
      "tale": 7416,
      "childhood": 7417,
      "150": 7418,
      "closing": 7419,
      "clothes": 7420,
      "affil": 7421,
      "payments": 7422,
      "matic": 7423,
      "Program": 7424,
      "chest": 7425,
      "drome": 7426,
      "joy": 7427,
      "joke": 7428,
      "capable": 7429,
      "promising": 7430,
      "prompted": 7431,
      "monthly": 7432,
      "elections": 7433,
      "limits": 7434,
      "Enter": 7435,
      "Exp": 7436,
      "Dead": 7437,
      "breath": 7438,
      "Mediter": 7439,
      "contrast": 7440,
      "movements": 7441,
      "keeper": 7442,
      "deny": 7443,
      "Tele": 7444,
      "violations": 7445,
      "hoping": 7446,
      "importance": 7447,
      "Warren": 7448,
      "humanitarian": 7449,
      "Beach": 7450,
      "solve": 7451,
      "greatly": 7452,
      "Blue": 7453,
      "grounds": 7454,
      "execution": 7455,
      "sentence": 7456,
      "shareholders": 7457,
      "fluorid": 7458,
      "hymns": 7459,
      "north": 7460,
      "probable": 7461,
      "threatening": 7462,
      "threatened": 7463,
      "1973": 7464,
      "dangers": 7465,
      "Associated": 7466,
      "potentially": 7467,
      "penalty": 7468,
      "Reading": 7469,
      "Political": 7470,
      "describe": 7471,
      "magn": 7472,
      "association": 7473,
      "supplies": 7474,
      "deduct": 7475,
      "Laws": 7476,
      "toxins": 7477,
      "introduc": 7478,
      "Finally": 7479,
      "proposals": 7480,
      "improved": 7481,
      "existing": 7482,
      "machine": 7483,
      "Judiciary": 7484,
      "willingness": 7485,
      "wonderful": 7486,
      "Going": 7487,
      "participate": 7488,
      "Salaway": 7489,
      "cruise": 7490,
      "sweet": 7491,
      "uana": 7492,
      "shape": 7493,
      "types": 7494,
      "rocket": 7495,
      "ultimate": 7496,
      "OUR": 7497,
      "containing": 7498,
      "awareness": 7499,
      "survive": 7500,
      "citizenship": 7501,
      "Madison": 7502,
      "Madrid": 7503,
      "Portland": 7504,
      "nuts": 7505,
      "smoke": 7506,
      "trips": 7507,
      "Anyone": 7508,
      "satis": 7509,
      "Keep": 7510,
      "outrage": 7511,
      "Korean": 7512,
      "Vegas": 7513,
      "carrying": 7514,
      "Maine": 7515,
      "vulner": 7516,
      "vulgar": 7517,
      "TRAN": 7518,
      "graduate": 7519,
      "Indiana": 7520,
      "coordination": 7521,
      "seasons": 7522,
      "ijuana": 7523,
      "Connect": 7524,
      "Sarah": 7525,
      "virtually": 7526,
      "Copy": 7527,
      "Apex": 7528,
      "appointment": 7529,
      "circumstances": 7530,
      "reminded": 7531,
      "deficit": 7532,
      "Tennes": 7533,
      "female": 7534,
      "abandoned": 7535,
      "knee": 7536,
      "acknowled": 7537,
      "sustain": 7538,
      "iviral": 7539,
      "recip": 7540,
      "accurate": 7541,
      "channel": 7542,
      "privilege": 7543,
      "Kirk": 7544,
      "compassion": 7545,
      "invasion": 7546,
      "Division": 7547,
      "rhetor": 7548,
      "adopted": 7549,
      "Affairs": 7550,
      "Film": 7551,
      "Walker": 7552,
      "Citiz": 7553,
      "Hitler": 7554,
      "widespread": 7555,
      "Initiative": 7556,
      "Alaska": 7557,
      "Merritt": 7558,
      "Ossoff": 7559,
      "Venezuel": 7560,
      "Idaho": 7561,
      "Nelson": 7562,
      "chosen": 7563,
      "constitu": 7564,
      "determine": 7565,
      "Mediterranean": 7566,
      "120": 7567,
      "61": 7568,
      "73": 7569,
      "83": 7570,
      "89": 7571,
      "AB": 7572,
      "Ash": 7573,
      "Bey": 7574,
      "Come": 7575,
      "CAR": 7576,
      "Cook": 7577,
      "CBS": 7578,
      "Dun": 7579,
      "Det": 7580,
      "EP": 7581,
      "FR": 7582,
      "GH": 7583,
      "GR": 7584,
      "Je": 7585,
      "Kur": 7586,
      "Kevin": 7587,
      "LY": 7588,
      "Lim": 7589,
      "Lau": 7590,
      "Mil": 7591,
      "Mell": 7592,
      "Make": 7593,
      "Miam": 7594,
      "Museum": 7595,
      "Nich": 7596,
      "Nature": 7597,
      "Nico": 7598,
      "NRA": 7599,
      "Oreg": 7600,
      "Pas": 7601,
      "Person": 7602,
      "Pope": 7603,
      "Ru": 7604,
      "SO": 7605,
      "Sor": 7606,
      "Sol": 7607,
      "Sep": 7608,
      "SARS": 7609,
      "Tit": 7610,
      "Tony": 7611,
      "Talk": 7612,
      "TED": 7613,
      "TLB": 7614,
      "Vat": 7615,
      "VID": 7616,
      "Wa": 7617,
      "Work": 7618,
      "Wars": 7619,
      "Yan": 7620,
      "bn": 7621,
      "bird": 7622,
      "cards": 7623,
      "dd": 7624,
      "dot": 7625,
      "fro": 7626,
      "fab": 7627,
      "gall": 7628,
      "gust": 7629,
      "iate": 7630,
      "jur": 7631,
      "ka": 7632,
      "mn": 7633,
      "ode": 7634,
      "pic": 7635,
      "pill": 7636,
      "pson": 7637,
      "rand": 7638,
      "sim": 7639,
      "sample": 7640,
      "tied": 7641,
      "ument": 7642,
      "uber": 7643,
      "vant": 7644,
      "vital": 7645,
      "xim": 7646,
      "yield": 7647,
      "ак": 7648,
      "зи": 7649,
      "лет": 7650,
      "спе": 7651,
      "ты": 7652,
      "тов": 7653,
      "thrit": 7654,
      "inev": 7655,
      "inary": 7656,
      "inher": 7657,
      "ono": 7658,
      "onics": 7659,
      "thetic": 7660,
      "rely": 7661,
      "reward": 7662,
      "reverse": 7663,
      "revolution": 7664,
      "attribut": 7665,
      "enal": 7666,
      "encounter": 7667,
      "orous": 7668,
      "stan": 7669,
      "stro": 7670,
      "stew": 7671,
      "alert": 7672,
      "tomor": 7673,
      "isen": 7674,
      "arran": 7675,
      "arthrit": 7676,
      "esp": 7677,
      "itis": 7678,
      "aside": 7679,
      "omed": 7680,
      "illegally": 7681,
      "seats": 7682,
      "aded": 7683,
      "adel": 7684,
      "adjust": 7685,
      "acing": 7686,
      "acad": 7687,
      "acept": 7688,
      "impeach": 7689,
      "chip": 7690,
      "oted": 7691,
      "versy": 7692,
      "versus": 7693,
      "uters": 7694,
      "unfair": 7695,
      "unexpected": 7696,
      "eck": 7697,
      "eman": 7698,
      "opher": 7699,
      "oppose": 7700,
      "abroad": 7701,
      "conscious": 7702,
      "tri": 7703,
      "trick": 7704,
      "trails": 7705,
      "alloc": 7706,
      "outcome": 7707,
      "loans": 7708,
      "explan": 7709,
      "extract": 7710,
      "ulate": 7711,
      "defe": 7712,
      "device": 7713,
      "shr": 7714,
      "sovo": 7715,
      "saving": 7716,
      "earn": 7717,
      "ria": 7718,
      "asty": 7719,
      "ups": 7720,
      "epid": 7721,
      "worn": 7722,
      "worried": 7723,
      "anymore": 7724,
      "anybody": 7725,
      "permit": 7726,
      "performed": 7727,
      "ooks": 7728,
      "neither": 7729,
      "neutral": 7730,
      "Ther": 7731,
      "Thus": 7732,
      "evol": 7733,
      "click": 7734,
      "merce": 7735,
      "auth": 7736,
      "affl": 7737,
      "offices": 7738,
      "ignor": 7739,
      "ucking": 7740,
      "polling": 7741,
      "assess": 7742,
      "assass": 7743,
      "scam": 7744,
      "scream": 7745,
      "herself": 7746,
      "predec": 7747,
      "cool": 7748,
      "disgust": 7749,
      "context": 7750,
      "feared": 7751,
      "forecast": 7752,
      "ensed": 7753,
      "decent": 7754,
      "aftermath": 7755,
      "submitted": 7756,
      "ictly": 7757,
      "visits": 7758,
      "backing": 7759,
      "adds": 7760,
      "legs": 7761,
      "unders": 7762,
      "mainly": 7763,
      "warming": 7764,
      "ancial": 7765,
      "seeks": 7766,
      "osi": 7767,
      "versions": 7768,
      "Lehman": 7769,
      "everybody": 7770,
      "Almond": 7771,
      "ratio": 7772,
      "inson": 7773,
      "pointing": 7774,
      "Josh": 7775,
      "Islamophobia": 7776,
      "Contin": 7777,
      "annon": 7778,
      "speaks": 7779,
      "economists": 7780,
      "Senior": 7781,
      "Class": 7782,
      "Therefore": 7783,
      "pressed": 7784,
      "topics": 7785,
      "thorough": 7786,
      "broader": 7787,
      "covering": 7788,
      "opera": 7789,
      "foundation": 7790,
      "attacking": 7791,
      "Moham": 7792,
      "marketing": 7793,
      "controls": 7794,
      "cutting": 7795,
      "seemingly": 7796,
      "ika": 7797,
      "statistics": 7798,
      "lavery": 7799,
      "label": 7800,
      "Exper": 7801,
      "distric": 7802,
      "apple": 7803,
      "apply": 7804,
      "facilit": 7805,
      "resulting": 7806,
      "Advertisements": 7807,
      "continent": 7808,
      "employee": 7809,
      "Barry": 7810,
      "solid": 7811,
      "solutions": 7812,
      "Jane": 7813,
      "bedroom": 7814,
      "Putnam": 7815,
      "Hispan": 7816,
      "patient": 7817,
      "Series": 7818,
      "incere": 7819,
      "winner": 7820,
      "Mondays": 7821,
      "industrial": 7822,
      "testing": 7823,
      "equally": 7824,
      "Manufact": 7825,
      "ICH": 7826,
      "confused": 7827,
      "III": 7828,
      "damaged": 7829,
      "horrible": 7830,
      "racial": 7831,
      "Harris": 7832,
      "treaty": 7833,
      "INGTON": 7834,
      "Space": 7835,
      "elsewhere": 7836,
      "educational": 7837,
      "worthy": 7838,
      "legislators": 7839,
      "Abd": 7840,
      "aliens": 7841,
      "adviser": 7842,
      "faster": 7843,
      "agreements": 7844,
      "driving": 7845,
      "sounds": 7846,
      "argues": 7847,
      "Elli": 7848,
      "dedicated": 7849,
      "flood": 7850,
      "Parliament": 7851,
      "pedoph": 7852,
      "parent": 7853,
      "silent": 7854,
      "graphic": 7855,
      "represented": 7856,
      "Finance": 7857,
      "Financial": 7858,
      "combination": 7859,
      "collection": 7860,
      "Judges": 7861,
      "install": 7862,
      "universal": 7863,
      "rolled": 7864,
      "encouraged": 7865,
      "mistakes": 7866,
      "Thompson": 7867,
      "politician": 7868,
      "surprised": 7869,
      "Century": 7870,
      "OUT": 7871,
      "abortions": 7872,
      "Capital": 7873,
      "Disney": 7874,
      "perspective": 7875,
      "Strictly": 7876,
      "extraordinary": 7877,
      "documentary": 7878,
      "clients": 7879,
      "package": 7880,
      "Scient": 7881,
      "quoted": 7882,
      "pleas": 7883,
      "regularly": 7884,
      "witnesses": 7885,
      "Special": 7886,
      "transp": 7887,
      "qualified": 7888,
      "precious": 7889,
      "Cuba": 7890,
      "Jews": 7891,
      "hiking": 7892,
      "explosion": 7893,
      "strategic": 7894,
      "strategies": 7895,
      "resistance": 7896,
      "expanded": 7897,
      "automatic": 7898,
      "frequently": 7899,
      "labeling": 7900,
      "Planned": 7901,
      "assume": 7902,
      "minority": 7903,
      "Australian": 7904,
      "village": 7905,
      "consistent": 7906,
      "Kosovo": 7907,
      "kicked": 7908,
      "uminum": 7909,
      "songs": 7910,
      "estimated": 7911,
      "animals": 7912,
      "Sanders": 7913,
      "intellectual": 7914,
      "sorry": 7915,
      "tactics": 7916,
      "Greek": 7917,
      "shocked": 7918,
      "rebels": 7919,
      "Liby": 7920,
      "agriculture": 7921,
      "peaceful": 7922,
      "subpoena": 7923,
      "Family": 7924,
      "conventional": 7925,
      "condemned": 7926,
      "Diego": 7927,
      "Vaccines": 7928,
      "suddenly": 7929,
      "NASA": 7930,
      "WASH": 7931,
      "principles": 7932,
      "pharmaceutical": 7933,
      "Simon": 7934,
      "chocolate": 7935,
      "athletes": 7936,
      "Grassley": 7937,
      "Klein": 7938,
      "Colorado": 7939,
      "equivalent": 7940,
      "GLOCK": 7941,
      "Tennessee": 7942,
      "Miami": 7943,
      "Oregon": 7944,
      "Vatican": 7945,
      "fabric": 7946,
      "ximately": 7947,
      "tomorrow": 7948,
      "districts": 7949,
      "!\"": 7950,
      ",'": 7951,
      ",’": 7952,
      ".?": 7953,
      "06": 7954,
      "72": 7955,
      "74": 7956,
      "ABC": 7957,
      "BR": 7958,
      "Bone": 7959,
      "Bible": 7960,
      "CA": 7961,
      "Cly": 7962,
      "Could": 7963,
      "Dur": 7964,
      "Doc": 7965,
      "Domin": 7966,
      "Diabetes": 7967,
      "Ever": 7968,
      "Eisen": 7969,
      "Future": 7970,
      "GA": 7971,
      "Gers": 7972,
      "Greg": 7973,
      "Glycyrrhizin": 7974,
      "Had": 7975,
      "Hop": 7976,
      "IQ": 7977,
      "Ice": 7978,
      "Jul": 7979,
      "KFC": 7980,
      "Lt": 7981,
      "Light": 7982,
      "Lind": 7983,
      "Met": 7984,
      "Max": 7985,
      "MAN": 7986,
      "Money": 7987,
      "Nation": 7988,
      "None": 7989,
      "Name": 7990,
      "PD": 7991,
      "Pul": 7992,
      "Qa": 7993,
      "Reven": 7994,
      "Rush": 7995,
      "Ruth": 7996,
      "SC": 7997,
      "SN": 7998,
      "SON": 7999,
      "Six": 8000,
      "TF": 8001,
      "Tol": 8002,
      "UFO": 8003,
      "Ver": 8004,
      "VER": 8005,
      "WI": 8006,
      "WO": 8007,
      "Whether": 8008,
      "].": 8009,
      "afr": 8010,
      "bip": 8011,
      "branch": 8012,
      "cable": 8013,
      "cited": 8014,
      "dust": 8015,
      "datab": 8016,
      "fing": 8017,
      "hz": 8018,
      "iest": 8019,
      "ipr": 8020,
      "iable": 8021,
      "mun": 8022,
      "mally": 8023,
      "mails": 8024,
      "nie": 8025,
      "ogy": 8026,
      "pace": 8027,
      "plead": 8028,
      "pills": 8029,
      "rations": 8030,
      "sin": 8031,
      "sam": 8032,
      "uer": 8033,
      "voc": 8034,
      "winter": 8035,
      "walls": 8036,
      "waste": 8037,
      "zov": 8038,
      "́n": 8039,
      "бе": 8040,
      "вер": 8041,
      "ей": 8042,
      "ля": 8043,
      "мет": 8044,
      "سو": 8045,
      "من": 8046,
      "incomes": 8047,
      "inspir": 8048,
      "info": 8049,
      "onium": 8050,
      "restr": 8051,
      "retal": 8052,
      "remot": 8053,
      "removing": 8054,
      "enh": 8055,
      "ori": 8056,
      "stom": 8057,
      "eda": 8058,
      "alt": 8059,
      "toll": 8060,
      "toms": 8061,
      "isive": 8062,
      "arity": 8063,
      "arks": 8064,
      "itation": 8065,
      "icer": 8066,
      "icing": 8067,
      "omb": 8068,
      "oming": 8069,
      "ils": 8070,
      "illy": 8071,
      "ilize": 8072,
      "admir": 8073,
      "acters": 8074,
      "bee": 8075,
      "rog": 8076,
      "rot": 8077,
      "rov": 8078,
      "amid": 8079,
      "ola": 8080,
      "chor": 8081,
      "chances": 8082,
      "otton": 8083,
      "sume": 8084,
      "suits": 8085,
      "unlike": 8086,
      "uncovered": 8087,
      "ceived": 8088,
      "emony": 8089,
      "emarks": 8090,
      "ithner": 8091,
      "elig": 8092,
      "usal": 8093,
      "illing": 8094,
      "opio": 8095,
      "abuses": 8096,
      "consecut": 8097,
      "construction": 8098,
      "ouring": 8099,
      "liver": 8100,
      "prosp": 8101,
      "provisions": 8102,
      "loving": 8103,
      "deleg": 8104,
      "destruct": 8105,
      "weigh": 8106,
      "shad": 8107,
      "sham": 8108,
      "shift": 8109,
      "pear": 8110,
      "artisan": 8111,
      "ested": 8112,
      "umble": 8113,
      "earned": 8114,
      "asts": 8115,
      "oversight": 8116,
      "overseas": 8117,
      "sphere": 8118,
      "Influ": 8119,
      "blind": 8120,
      "blamed": 8121,
      "antly": 8122,
      "Steven": 8123,
      "neys": 8124,
      "evident": 8125,
      "cloud": 8126,
      "index": 8127,
      "grat": 8128,
      "grab": 8129,
      "elling": 8130,
      "Anal": 8131,
      "hadn": 8132,
      "mankind": 8133,
      "scared": 8134,
      "screw": 8135,
      "scape": 8136,
      "compens": 8137,
      "awards": 8138,
      "identify": 8139,
      "medium": 8140,
      "Conference": 8141,
      "cream": 8142,
      "goals": 8143,
      "disci": 8144,
      "display": 8145,
      "disorder": 8146,
      "1950": 8147,
      "1960": 8148,
      "hower": 8149,
      "undermine": 8150,
      "Ask": 8151,
      "Trust": 8152,
      "bride": 8153,
      "Reports": 8154,
      "warn": 8155,
      "warnings": 8156,
      "extent": 8157,
      "lessly": 8158,
      "longtime": 8159,
      "107": 8160,
      "ashes": 8161,
      "desire": 8162,
      "deserve": 8163,
      "phia": 8164,
      "memorial": 8165,
      "ifications": 8166,
      "Force": 8167,
      "Control": 8168,
      "ushing": 8169,
      "factory": 8170,
      "consensus": 8171,
      "clock": 8172,
      "carts": 8173,
      "ATED": 8174,
      "chester": 8175,
      "funded": 8176,
      "topic": 8177,
      "happiness": 8178,
      "———": 8179,
      "stitutes": 8180,
      "asket": 8181,
      "controversy": 8182,
      "azz": 8183,
      "personally": 8184,
      "personnel": 8185,
      "volume": 8186,
      "producer": 8187,
      "blocks": 8188,
      "pursue": 8189,
      "pursuing": 8190,
      "Exceed": 8191,
      "differences": 8192,
      "openly": 8193,
      "ART": 8194,
      "сть": 8195,
      "migration": 8196,
      "migrant": 8197,
      "pastor": 8198,
      "aturally": 8199,
      "йте": 8200,
      "approximately": 8201,
      "feelings": 8202,
      "Peace": 8203,
      "Peeps": 8204,
      "Action": 8205,
      "Activ": 8206,
      "Grace": 8207,
      "sale": 8208,
      "1998": 8209,
      "нист": 8210,
      "Edwards": 8211,
      "trademarks": 8212,
      "Shutter": 8213,
      "slide": 8214,
      "slides": 8215,
      "concert": 8216,
      "steady": 8217,
      "ASD": 8218,
      "Geithner": 8219,
      "fluoride": 8220,
      "classic": 8221,
      "targets": 8222,
      "voices": 8223,
      "bench": 8224,
      "interviewed": 8225,
      "Tuesdays": 8226,
      "Neil": 8227,
      "starts": 8228,
      "buildings": 8229,
      "Patriots": 8230,
      "releases": 8231,
      "relevant": 8232,
      "Scot": 8233,
      "Scholly": 8234,
      "educated": 8235,
      "drove": 8236,
      "bombing": 8237,
      "dictator": 8238,
      "zero": 8239,
      "funny": 8240,
      "capitalism": 8241,
      "Ellie": 8242,
      "practices": 8243,
      "Belg": 8244,
      "Official": 8245,
      "indicates": 8246,
      "celebrate": 8247,
      "IGH": 8248,
      "initially": 8249,
      "Mueller": 8250,
      "bassador": 8251,
      "establish": 8252,
      "establishment": 8253,
      "replied": 8254,
      "punishment": 8255,
      "Headline": 8256,
      "regulatory": 8257,
      "Philadel": 8258,
      "Liberal": 8259,
      "Speaking": 8260,
      "1968": 8261,
      "features": 8262,
      "digital": 8263,
      "Auto": 8264,
      "Capito": 8265,
      "Following": 8266,
      "NYT": 8267,
      "humans": 8268,
      "welfare": 8269,
      "guidelines": 8270,
      "connections": 8271,
      "baseball": 8272,
      "negotiate": 8273,
      "Stocks": 8274,
      "square": 8275,
      "recommended": 8276,
      "anticip": 8277,
      "IVE": 8278,
      "locked": 8279,
      "Such": 8280,
      "rarely": 8281,
      "attracted": 8282,
      "excuse": 8283,
      "teenagers": 8284,
      "obviously": 8285,
      "Maryland": 8286,
      "manufacturing": 8287,
      "explosive": 8288,
      "Fourth": 8289,
      "tape": 8290,
      "insisted": 8291,
      "flowers": 8292,
      "trouble": 8293,
      "opponent": 8294,
      "scenes": 8295,
      "scenario": 8296,
      "engineering": 8297,
      "FCC": 8298,
      "bags": 8299,
      "surrounded": 8300,
      "challenges": 8301,
      "Miller": 8302,
      "proceeds": 8303,
      "ticket": 8304,
      "альпи": 8305,
      "Gaza": 8306,
      "Atlantic": 8307,
      "Pelosi": 8308,
      "cabinet": 8309,
      "rumors": 8310,
      "convicted": 8311,
      "decrease": 8312,
      "neighborhood": 8313,
      "Juli": 8314,
      "inquir": 8315,
      "incentive": 8316,
      "principle": 8317,
      "rapidly": 8318,
      "ENDER": 8319,
      "transportation": 8320,
      "Sheriff": 8321,
      "neighbors": 8322,
      "Self": 8323,
      "Village": 8324,
      "Surveillance": 8325,
      "precise": 8326,
      "Bloomberg": 8327,
      "также": 8328,
      "Parenthood": 8329,
      "tragedy": 8330,
      "galaxies": 8331,
      "Pictures": 8332,
      "attached": 8333,
      "UPDATE": 8334,
      "Lavrov": 8335,
      "Taylor": 8336,
      "TheDCNF": 8337,
      "protein": 8338,
      "Copyright": 8339,
      "random": 8340,
      "Theresa": 8341,
      "Eisenhower": 8342,
      "afraid": 8343,
      "bipartisan": 8344,
      "stomach": 8345,
      "consecutive": 8346,
      "slideshow": 8347,
      "Philadelphia": 8348,
      "($": 8349,
      "(“": 8350,
      "92": 8351,
      "Bag": 8352,
      "Bere": 8353,
      "Brist": 8354,
      "Book": 8355,
      "Budget": 8356,
      "Brian": 8357,
      "BBA": 8358,
      "CC": 8359,
      "Cre": 8360,
      "Chave": 8361,
      "Crit": 8362,
      "Clar": 8363,
      "Chase": 8364,
      "DAD": 8365,
      "DUC": 8366,
      "EX": 8367,
      "Ele": 8368,
      "Ell": 8369,
      "Each": 8370,
      "Election": 8371,
      "FF": 8372,
      "Fre": 8373,
      "Fri": 8374,
      "GEN": 8375,
      "Giants": 8376,
      "Hat": 8377,
      "Hom": 8378,
      "Haw": 8379,
      "Iow": 8380,
      "IES": 8381,
      "Istan": 8382,
      "KGB": 8383,
      "Lag": 8384,
      "Lud": 8385,
      "Liver": 8386,
      "Mir": 8387,
      "Mour": 8388,
      "Metro": 8389,
      "Purch": 8390,
      "PWB": 8391,
      "Que": 8392,
      "RI": 8393,
      "Rome": 8394,
      "Rivers": 8395,
      "Roth": 8396,
      "Sem": 8397,
      "Sear": 8398,
      "Scar": 8399,
      "Tra": 8400,
      "Tower": 8401,
      "VR": 8402,
      "bone": 8403,
      "bother": 8404,
      "bump": 8405,
      "buck": 8406,
      "brown": 8407,
      "cens": 8408,
      "dit": 8409,
      "dancer": 8410,
      "eu": 8411,
      "fers": 8412,
      "fish": 8413,
      "fiction": 8414,
      "gom": 8415,
      "grants": 8416,
      "granted": 8417,
      "hil": 8418,
      "hall": 8419,
      "jok": 8420,
      "kel": 8421,
      "lit": 8422,
      "lers": 8423,
      "lux": 8424,
      "lucky": 8425,
      "mg": 8426,
      "mour": 8427,
      "ocean": 8428,
      "pin": 8429,
      "papers": 8430,
      "rous": 8431,
      "smu": 8432,
      "sends": 8433,
      "tat": 8434,
      "tone": 8435,
      "tap": 8436,
      "vous": 8437,
      "wan": 8438,
      "wis": 8439,
      "yo": 8440,
      "yle": 8441,
      "Чи": 8442,
      "бо": 8443,
      "ков": 8444,
      "он": 8445,
      "пу": 8446,
      "су": 8447,
      "це": 8448,
      "чи": 8449,
      "ار": 8450,
      "عل": 8451,
      "threw": 8452,
      "intr": 8453,
      "inct": 8454,
      "inated": 8455,
      "inho": 8456,
      "inburgh": 8457,
      "onents": 8458,
      "rever": 8459,
      "recall": 8460,
      "reput": 8461,
      "enza": 8462,
      "enzy": 8463,
      "enacted": 8464,
      "orious": 8465,
      "orph": 8466,
      "sto": 8467,
      "stating": 8468,
      "ala": 8469,
      "ales": 8470,
      "aluminum": 8471,
      "ouds": 8472,
      "ington": 8473,
      "isol": 8474,
      "isdict": 8475,
      "itzer": 8476,
      "height": 8477,
      "acre": 8478,
      "ache": 8479,
      "accord": 8480,
      "bell": 8481,
      "beating": 8482,
      "iden": 8483,
      "lyer": 8484,
      "forgotten": 8485,
      "oles": 8486,
      "olas": 8487,
      "chi": 8488,
      "chant": 8489,
      "utnik": 8490,
      "unts": 8491,
      "unusual": 8492,
      "irit": 8493,
      "agy": 8494,
      "emporary": 8495,
      "elabor": 8496,
      "opo": 8497,
      "comic": 8498,
      "convin": 8499,
      "constitution": 8500,
      "confron": 8501,
      "reson": 8502,
      "resign": 8503,
      "residency": 8504,
      "rescue": 8505,
      "haust": 8506,
      "trib": 8507,
      "lipped": 8508,
      "ateful": 8509,
      "prolong": 8510,
      "loose": 8511,
      "export": 8512,
      "excell": 8513,
      "tsman": 8514,
      "deur": 8515,
      "depression": 8516,
      "ounced": 8517,
      "noting": 8518,
      "shame": 8519,
      "sover": 8520,
      "earning": 8521,
      "riers": 8522,
      "asters": 8523,
      "enders": 8524,
      "overdose": 8525,
      "span": 8526,
      "Incre": 8527,
      "upset": 8528,
      "worship": 8529,
      "actors": 8530,
      "actress": 8531,
      "anywhere": 8532,
      "percept": 8533,
      "iana": 8534,
      "Think": 8535,
      "Third": 8536,
      "afa": 8537,
      "offshore": 8538,
      "mored": 8539,
      "ideological": 8540,
      "raises": 8541,
      "inted": 8542,
      "intention": 8543,
      "manif": 8544,
      "manner": 8545,
      "polar": 8546,
      "preserve": 8547,
      "somewhat": 8548,
      "asser": 8549,
      "scores": 8550,
      "tea": 8551,
      "compact": 8552,
      "servers": 8553,
      "boom": 8554,
      "pred": 8555,
      "prev": 8556,
      "presum": 8557,
      "Chile": 8558,
      "Consumer": 8559,
      "centers": 8560,
      "llor": 8561,
      "interven": 8562,
      "disp": 8563,
      "disclosure": 8564,
      "contained": 8565,
      "crash": 8566,
      "Unlike": 8567,
      "Until": 8568,
      "19th": 8569,
      "county": 8570,
      "partisan": 8571,
      "therefore": 8572,
      "overnight": 8573,
      "objects": 8574,
      "redist": 8575,
      "reduction": 8576,
      "hole": 8577,
      "Ass": 8578,
      "background": 8579,
      "Trilateral": 8580,
      "addiction": 8581,
      "legacy": 8582,
      "shell": 8583,
      "umph": 8584,
      "register": 8585,
      "expense": 8586,
      "flat": 8587,
      "aircraft": 8588,
      "lessons": 8589,
      "Reed": 8590,
      "Alan": 8591,
      "101": 8592,
      "coln": 8593,
      "ultane": 8594,
      "politan": 8595,
      "nervous": 8596,
      "wanting": 8597,
      "ahn": 8598,
      "respected": 8599,
      "courage": 8600,
      "INA": 8601,
      "clothing": 8602,
      "missiles": 8603,
      "defensive": 8604,
      "weekly": 8605,
      "restore": 8606,
      "headline": 8607,
      "gged": 8608,
      "entered": 8609,
      "Prosecut": 8610,
      "planes": 8611,
      "iversary": 8612,
      "draft": 8613,
      "Mojo": 8614,
      "possess": 8615,
      "handful": 8616,
      "Recession": 8617,
      "producers": 8618,
      "characters": 8619,
      "eption": 8620,
      "campaigns": 8621,
      "Extr": 8622,
      "Exchange": 8623,
      "organizing": 8624,
      "nationwide": 8625,
      "atherine": 8626,
      "refuses": 8627,
      "calm": 8628,
      "transl": 8629,
      "contracept": 8630,
      "Christopher": 8631,
      "ARA": 8632,
      "ств": 8633,
      "System": 8634,
      "depth": 8635,
      "caution": 8636,
      "lots": 8637,
      "employers": 8638,
      "Deputy": 8639,
      "Being": 8640,
      "Beij": 8641,
      "Beacon": 8642,
      "Barcel": 8643,
      "Edward": 8644,
      "Edinburgh": 8645,
      "Franken": 8646,
      "judgment": 8647,
      "writers": 8648,
      "Artists": 8649,
      "Works": 8650,
      "Moreover": 8651,
      "billions": 8652,
      "executed": 8653,
      "Resp": 8654,
      "rainbow": 8655,
      "painting": 8656,
      "suggesting": 8657,
      "Manning": 8658,
      "studying": 8659,
      "Brothers": 8660,
      "Brodeur": 8661,
      "interviews": 8662,
      "falls": 8663,
      "danger": 8664,
      "protestors": 8665,
      "cope": 8666,
      "competitive": 8667,
      "speeches": 8668,
      "commitment": 8669,
      "financed": 8670,
      "ное": 8671,
      "discussing": 8672,
      "Lincoln": 8673,
      "educators": 8674,
      "ITY": 8675,
      "bankrupt": 8676,
      "alongside": 8677,
      "stronger": 8678,
      "hosts": 8679,
      "али": 8680,
      "deadline": 8681,
      "believing": 8682,
      "Cheers": 8683,
      "Check": 8684,
      "осхо": 8685,
      "registration": 8686,
      "plicated": 8687,
      "titles": 8688,
      "quarters": 8689,
      "custody": 8690,
      "الم": 8691,
      "الأ": 8692,
      "Parker": 8693,
      "implemented": 8694,
      "strength": 8695,
      "conducting": 8696,
      "appearance": 8697,
      "representatives": 8698,
      "criticizing": 8699,
      "тайте": 8700,
      "preventing": 8701,
      "collected": 8702,
      "defined": 8703,
      "Relief": 8704,
      "punished": 8705,
      "Austin": 8706,
      "sweep": 8707,
      "located": 8708,
      "recognized": 8709,
      "priority": 8710,
      "reliable": 8711,
      "Mexican": 8712,
      "arrival": 8713,
      "persons": 8714,
      "consumption": 8715,
      "Christianity": 8716,
      "clubs": 8717,
      "Kingdom": 8718,
      "declare": 8719,
      "lady": 8720,
      "birthday": 8721,
      "Hellyer": 8722,
      "Investig": 8723,
      "premium": 8724,
      "outraged": 8725,
      "UCLA": 8726,
      "WHICH": 8727,
      "wishes": 8728,
      "analysts": 8729,
      "Robb": 8730,
      "blocked": 8731,
      "graduated": 8732,
      "SHARE": 8733,
      "veterans": 8734,
      "clinical": 8735,
      "destroying": 8736,
      "Drugs": 8737,
      "weakness": 8738,
      "borrowers": 8739,
      "copyrighted": 8740,
      "Tsipr": 8741,
      "estimates": 8742,
      "Millions": 8743,
      "taxpayer": 8744,
      "prohibition": 8745,
      "instructions": 8746,
      "Digital": 8747,
      "Representative": 8748,
      "Against": 8749,
      "Atlanta": 8750,
      "digestive": 8751,
      "Brunn": 8752,
      "concentration": 8753,
      "procedure": 8754,
      "devastating": 8755,
      "Lessig": 8756,
      "dumping": 8757,
      "Assembly": 8758,
      "desperate": 8759,
      "motivated": 8760,
      "Brady": 8761,
      "exploration": 8762,
      "слов": 8763,
      "Progressive": 8764,
      "diplomatic": 8765,
      "1970s": 8766,
      "Nigeria": 8767,
      "fruit": 8768,
      "evalu": 8769,
      "Sweden": 8770,
      "mortgage": 8771,
      "Premier": 8772,
      "binding": 8773,
      "absence": 8774,
      "comprehensive": 8775,
      "Susan": 8776,
      "hidden": 8777,
      "crucial": 8778,
      "Alberta": 8779,
      "phenomenon": 8780,
      "Husse": 8781,
      "globe": 8782,
      "ingredients": 8783,
      "rhetoric": 8784,
      "jurisdict": 8785,
      "explanation": 8786,
      "Clyburn": 8787,
      "Gersh": 8788,
      "Qaeda": 8789,
      "Revenue": 8790,
      "remote": 8791,
      "prosperity": 8792,
      "discipl": 8793,
      "Bristol": 8794,
      "Chavez": 8795,
      "DADT": 8796,
      "Iowa": 8797,
      "Istanbul": 8798,
      "Ludwig": 8799,
      "Mourinho": 8800,
      "Purchase": 8801,
      "Searches": 8802,
      "Читайте": 8803,
      "convinced": 8804,
      "Beijing": 8805,
      "Barcelona": 8806,
      "Tsipras": 8807,
      "(\"": 8808,
      "(''": 8809,
      "119": 8810,
      "1N1": 8811,
      "700": 8812,
      "AA": 8813,
      "Age": 8814,
      "Aaron": 8815,
      "Bow": 8816,
      "Bren": 8817,
      "Baker": 8818,
      "Cast": 8819,
      "Cup": 8820,
      "Cany": 8821,
      "Case": 8822,
      "Cry": 8823,
      "Cotton": 8824,
      "Dem": 8825,
      "Dutch": 8826,
      "Devils": 8827,
      "Eag": 8828,
      "Fit": 8829,
      "FIC": 8830,
      "Full": 8831,
      "FACT": 8832,
      "FDR": 8833,
      "Fidel": 8834,
      "Gill": 8835,
      "Games": 8836,
      "Hous": 8837,
      "Hell": 8838,
      "Hage": 8839,
      "Hope": 8840,
      "H1N1": 8841,
      "Ji": 8842,
      "Jord": 8843,
      "Jona": 8844,
      "Krist": 8845,
      "Khat": 8846,
      "MD": 8847,
      "MI": 8848,
      "Mone": 8849,
      "Mod": 8850,
      "Mult": 8851,
      "Mises": 8852,
      "ND": 8853,
      "Na": 8854,
      "Num": 8855,
      "Nev": 8856,
      "Py": 8857,
      "Pen": 8858,
      "Ping": 8859,
      "Pit": 8860,
      "Past": 8861,
      "Pass": 8862,
      "Pred": 8863,
      "Pho": 8864,
      "PRE": 8865,
      "Phar": 8866,
      "RY": 8867,
      "Ram": 8868,
      "Rather": 8869,
      "Sk": 8870,
      "Sl": 8871,
      "Sad": 8872,
      "Sab": 8873,
      "Sex": 8874,
      "Seven": 8875,
      "Sug": 8876,
      "Sale": 8877,
      "Similar": 8878,
      "SEC": 8879,
      "TB": 8880,
      "Ton": 8881,
      "Tell": 8882,
      "TAR": 8883,
      "Ur": 8884,
      "WS": 8885,
      "Would": 8886,
      "ais": 8887,
      "bru": 8888,
      "batt": 8889,
      "bang": 8890,
      "bio": 8891,
      "bond": 8892,
      "basket": 8893,
      "cou": 8894,
      "cies": 8895,
      "cia": 8896,
      "df": 8897,
      "drun": 8898,
      "diverse": 8899,
      "eh": 8900,
      "eign": 8901,
      "fut": 8902,
      "fus": 8903,
      "fires": 8904,
      "gam": 8905,
      "gross": 8906,
      "groom": 8907,
      "gifts": 8908,
      "hin": 8909,
      "hill": 8910,
      "hors": 8911,
      "hiding": 8912,
      "lab": 8913,
      "mum": 8914,
      "naturally": 8915,
      "oh": 8916,
      "pit": 8917,
      "pile": 8918,
      "pdf": 8919,
      "rust": 8920,
      "rak": 8921,
      "ride": 8922,
      "ramp": 8923,
      "sand": 8924,
      "snow": 8925,
      "south": 8926,
      "skept": 8927,
      "slavery": 8928,
      "tz": 8929,
      "tide": 8930,
      "tons": 8931,
      "trem": 8932,
      "uo": 8933,
      "uep": 8934,
      "uous": 8935,
      "uzz": 8936,
      "vit": 8937,
      "yout": 8938,
      "yards": 8939,
      "zen": 8940,
      "восхо": 8941,
      "сии": 8942,
      "ска": 8943,
      "что": 8944,
      "ще": 8945,
      "эк": 8946,
      "это": 8947,
      "”)": 8948,
      "inth": 8949,
      "inning": 8950,
      "insur": 8951,
      "insul": 8952,
      "inability": 8953,
      "instein": 8954,
      "infamous": 8955,
      "anx": 8956,
      "onel": 8957,
      "theme": 8958,
      "rein": 8959,
      "reck": 8960,
      "enix": 8961,
      "enorm": 8962,
      "stations": 8963,
      "stable": 8964,
      "stuck": 8965,
      "altogether": 8966,
      "tool": 8967,
      "iser": 8968,
      "arming": 8969,
      "escal": 8970,
      "leaked": 8971,
      "admit": 8972,
      "begins": 8973,
      "idal": 8974,
      "roles": 8975,
      "forgiven": 8976,
      "amus": 8977,
      "owski": 8978,
      "whistle": 8979,
      "imports": 8980,
      "implications": 8981,
      "otamus": 8982,
      "sued": 8983,
      "unes": 8984,
      "unclear": 8985,
      "terns": 8986,
      "opens": 8987,
      "abol": 8988,
      "abilities": 8989,
      "conce": 8990,
      "conced": 8991,
      "resort": 8992,
      "haw": 8993,
      "libr": 8994,
      "likes": 8995,
      "liked": 8996,
      "proli": 8997,
      "proportion": 8998,
      "ains": 8999,
      "franch": 9000,
      "fracking": 9001,
      "loop": 9002,
      "locust": 9003,
      "mode": 9004,
      "mock": 9005,
      "extr": 9006,
      "extrad": 9007,
      "ulty": 9008,
      "devoted": 9009,
      "weather": 9010,
      "ighth": 9011,
      "applications": 9012,
      "application": 9013,
      "ifting": 9014,
      "ifted": 9015,
      "pointer": 9016,
      "artific": 9017,
      "2020": 9018,
      "uma": 9019,
      "rivals": 9020,
      "spy": 9021,
      "sputnik": 9022,
      "youth": 9023,
      "udd": 9024,
      "perceived": 9025,
      "oose": 9026,
      "Staff": 9027,
      "geo": 9028,
      "ocaust": 9029,
      "prints": 9030,
      "indict": 9031,
      "ailing": 9032,
      "grass": 9033,
      "inequality": 9034,
      "ublish": 9035,
      "vibr": 9036,
      "Champ": 9037,
      "Conscious": 9038,
      "Consider": 9039,
      "crew": 9040,
      "crete": 9041,
      "coinc": 9042,
      "intern": 9043,
      "attitude": 9044,
      "olds": 9045,
      "Univers": 9046,
      "Obviously": 9047,
      "tyranny": 9048,
      "twenty": 9049,
      "osex": 9050,
      "redit": 9051,
      "---": 9052,
      "visible": 9053,
      "orton": 9054,
      "wars": 9055,
      "isms": 9056,
      "extension": 9057,
      "erald": 9058,
      "Leo": 9059,
      "knowing": 9060,
      "Reform": 9061,
      "Reuters": 9062,
      "archy": 9063,
      "surd": 9064,
      "colored": 9065,
      "Commerce": 9066,
      "string": 9067,
      "phagy": 9068,
      "insider": 9069,
      "ysis": 9070,
      "Forum": 9071,
      "Forward": 9072,
      "Tox": 9073,
      "presidents": 9074,
      "anniversary": 9075,
      "consent": 9076,
      "missile": 9077,
      "choices": 9078,
      "McCl": 9079,
      "marijuana": 9080,
      "priest": 9081,
      "entering": 9082,
      "Protest": 9083,
      "cheap": 9084,
      "planned": 9085,
      "careful": 9086,
      "founding": 9087,
      "popotamus": 9088,
      "promises": 9089,
      "provoc": 9090,
      "province": 9091,
      "dying": 9092,
      "Cole": 9093,
      "bookmarks": 9094,
      "script": 9095,
      "laid": 9096,
      "organiz": 9097,
      "distant": 9098,
      "Plant": 9099,
      "calcul": 9100,
      "contrad": 9101,
      "contracts": 9102,
      "resulted": 9103,
      "citement": 9104,
      "keeps": 9105,
      "investigative": 9106,
      "skating": 9107,
      "depending": 9108,
      "depends": 9109,
      "violation": 9110,
      "hoped": 9111,
      "hopefully": 9112,
      "employer": 9113,
      "holes": 9114,
      "1994": 9115,
      "1996": 9116,
      "accum": 9117,
      "Acad": 9118,
      "judged": 9119,
      "APPRO": 9120,
      "slave": 9121,
      "patterns": 9122,
      "hippopotamus": 9123,
      "incumb": 9124,
      "sentiment": 9125,
      "kinds": 9126,
      "idding": 9127,
      "ovic": 9128,
      "spoken": 9129,
      "painful": 9130,
      "senator": 9131,
      "civilization": 9132,
      "developmental": 9133,
      "households": 9134,
      "announcing": 9135,
      "processes": 9136,
      "websites": 9137,
      "moral": 9138,
      "involvement": 9139,
      "boxing": 9140,
      "repeat": 9141,
      "Need": 9142,
      "Neal": 9143,
      "Neuro": 9144,
      "properties": 9145,
      "generate": 9146,
      "generated": 9147,
      "EUR": 9148,
      "damn": 9149,
      "liberals": 9150,
      "grapher": 9151,
      "understands": 9152,
      "protections": 9153,
      "glu": 9154,
      "horror": 9155,
      "Harry": 9156,
      "oxide": 9157,
      "elements": 9158,
      "discussions": 9159,
      "neck": 9160,
      "Thursdays": 9161,
      "homosex": 9162,
      "demanded": 9163,
      "ось": 9164,
      "associations": 9165,
      "strip": 9166,
      "UNF": 9167,
      "Guard": 9168,
      "silence": 9169,
      "checked": 9170,
      "technical": 9171,
      "Images": 9172,
      "footage": 9173,
      "spokeswoman": 9174,
      "appearances": 9175,
      "referring": 9176,
      "representative": 9177,
      "criticized": 9178,
      "Crimin": 9179,
      "combined": 9180,
      "indicate": 9181,
      "COM": 9182,
      "Sea": 9183,
      "Seattle": 9184,
      "fears": 9185,
      "celebration": 9186,
      "contributions": 9187,
      "loaded": 9188,
      "creditors": 9189,
      "emerging": 9190,
      "Wells": 9191,
      "rolling": 9192,
      "Sales": 9193,
      "Romance": 9194,
      "bonuses": 9195,
      "location": 9196,
      "Speaker": 9197,
      "slowly": 9198,
      "anonymous": 9199,
      "requested": 9200,
      "recognition": 9201,
      "Starfield": 9202,
      "IMF": 9203,
      "immense": 9204,
      "immune": 9205,
      "dominate": 9206,
      "Reddit": 9207,
      "trees": 9208,
      "moderate": 9209,
      "electronic": 9210,
      "profitable": 9211,
      "diseases": 9212,
      "documented": 9213,
      "Hamburg": 9214,
      "Hampton": 9215,
      "clips": 9216,
      "trends": 9217,
      "!!!": 9218,
      "CONT": 9219,
      "Stock": 9220,
      "behaviour": 9221,
      "Bernard": 9222,
      "hacked": 9223,
      "emotions": 9224,
      "purchases": 9225,
      "honored": 9226,
      "pleased": 9227,
      "wireless": 9228,
      "complained": 9229,
      "Corporate": 9230,
      "perfectly": 9231,
      "incidents": 9232,
      "Glass": 9233,
      "corrupt": 9234,
      "Medicaid": 9235,
      "melin": 9236,
      "mountains": 9237,
      "fatal": 9238,
      "PRODUC": 9239,
      "frequencies": 9240,
      "opposing": 9241,
      "wealthy": 9242,
      "labeled": 9243,
      "labels": 9244,
      "briefly": 9245,
      "temper": 9246,
      "было": 9247,
      "infrared": 9248,
      "integrity": 9249,
      "impression": 9250,
      "conversations": 9251,
      "Farrak": 9252,
      "syndrome": 9253,
      "demonstrated": 9254,
      "brutality": 9255,
      "certific": 9256,
      "trials": 9257,
      "blessing": 9258,
      "performing": 9259,
      "Missouri": 9260,
      "surrounding": 9261,
      "challenged": 9262,
      "Vote": 9263,
      "ratings": 9264,
      "iveness": 9265,
      "transferred": 9266,
      "Steinberg": 9267,
      "Events": 9268,
      "Federation": 9269,
      "Huntsman": 9270,
      "reducing": 9271,
      "capture": 9272,
      "Denver": 9273,
      "trigger": 9274,
      "deficits": 9275,
      "Digest": 9276,
      "Target": 9277,
      "gangs": 9278,
      "utrinos": 9279,
      "quietly": 9280,
      "Fredy": 9281,
      "errors": 9282,
      "shelter": 9283,
      "Employ": 9284,
      "России": 9285,
      "Ultim": 9286,
      "bottle": 9287,
      "fifth": 9288,
      "Bruce": 9289,
      "Happy": 9290,
      "Pacific": 9291,
      "czar": 9292,
      "tweeted": 9293,
      "vigil": 9294,
      "formula": 9295,
      "AFP": 9296,
      "Wayne": 9297,
      "Yeah": 9298,
      "краи": 9299,
      "liquid": 9300,
      "Confederate": 9301,
      "dramatically": 9302,
      "disabled": 9303,
      "incredible": 9304,
      "Techn": 9305,
      "achieved": 9306,
      "Argentina": 9307,
      "Product": 9308,
      "Collins": 9309,
      "Selective": 9310,
      "pregnancy": 9311,
      "Citizens": 9312,
      "Venezuela": 9313,
      "Jeers": 9314,
      "arthritis": 9315,
      "ignorance": 9316,
      "screaming": 9317,
      "transparen": 9318,
      "WASHINGTON": 9319,
      "Iceland": 9320,
      "pleaded": 9321,
      "zovsky": 9322,
      "opioid": 9323,
      "destructive": 9324,
      "Analysis": 9325,
      "Capitol": 9326,
      "Berezovsky": 9327,
      "smugg": 9328,
      "wisdom": 9329,
      "prolonged": 9330,
      "excellent": 9331,
      "Hussein": 9332,
      "Jonathan": 9333,
      "Khatami": 9334,
      "Monegan": 9335,
      "Phoenix": 9336,
      "uepr": 9337,
      "восхожд": 9338,
      "sputniknews": 9339,
      "Farrakhan": 9340,
      "',": 9341,
      ")(": 9342,
      ");": 9343,
      "210": 9344,
      "5th": 9345,
      "82": 9346,
      "91": 9347,
      "98": 9348,
      "Aut": 9349,
      "Bes": 9350,
      "Bent": 9351,
      "Bli": 9352,
      "Best": 9353,
      "Banks": 9354,
      "BASS": 9355,
      "CR": 9356,
      "Cin": 9357,
      "Cand": 9358,
      "Cut": 9359,
      "Cust": 9360,
      "Cher": 9361,
      "Credit": 9362,
      "Dy": 9363,
      "Dream": 9364,
      "DNC": 9365,
      "Djok": 9366,
      "EO": 9367,
      "Ess": 9368,
      "EPA": 9369,
      "FRO": 9370,
      "Gir": 9371,
      "Gab": 9372,
      "Gary": 9373,
      "GRO": 9374,
      "Giving": 9375,
      "HS": 9376,
      "Hind": 9377,
      "IB": 9378,
      "Iz": 9379,
      "Imag": 9380,
      "Jun": 9381,
      "Jobs": 9382,
      "KK": 9383,
      "Kim": 9384,
      "Kind": 9385,
      "Lis": 9386,
      "Luc": 9387,
      "Lake": 9388,
      "LAP": 9389,
      "Lemon": 9390,
      "Mom": 9391,
      "Mol": 9392,
      "Mul": 9393,
      "Mater": 9394,
      "Mann": 9395,
      "Maz": 9396,
      "Nat": 9397,
      "Nic": 9398,
      "Nut": 9399,
      "NFL": 9400,
      "Nutr": 9401,
      "Nixon": 9402,
      "Oscar": 9403,
      "PE": 9404,
      "PO": 9405,
      "Pil": 9406,
      "Pill": 9407,
      "Pist": 9408,
      "Pover": 9409,
      "Pong": 9410,
      "Pinterest": 9411,
      "PLE": 9412,
      "Priz": 9413,
      "Rac": 9414,
      "Ray": 9415,
      "Son": 9416,
      "Sud": 9417,
      "Sens": 9418,
      "Sports": 9419,
      "SEN": 9420,
      "Spain": 9421,
      "Tan": 9422,
      "Vis": 9423,
      "Wr": 9424,
      "Writ": 9425,
      "bout": 9426,
      "bud": 9427,
      "biz": 9428,
      "bub": 9429,
      "bunch": 9430,
      "bands": 9431,
      "cts": 9432,
      "duty": 9433,
      "ez": 9434,
      "eing": 9435,
      "ease": 9436,
      "flying": 9437,
      "gag": 9438,
      "gul": 9439,
      "gear": 9440,
      "gement": 9441,
      "hes": 9442,
      "hung": 9443,
      "iology": 9444,
      "kitch": 9445,
      "kansas": 9446,
      "moun": 9447,
      "museum": 9448,
      "native": 9449,
      "naked": 9450,
      "oa": 9451,
      "osh": 9452,
      "oks": 9453,
      "pa": 9454,
      "pes": 9455,
      "phe": 9456,
      "pir": 9457,
      "piz": 9458,
      "pip": 9459,
      "pitch": 9460,
      "rd": 9461,
      "rack": 9462,
      "rage": 9463,
      "rays": 9464,
      "slo": 9465,
      "sadd": 9466,
[...]
