{
  "version": "1.0",
  "truncation": null,
  "padding": null,
  "added_tokens": [
    {
      "id": 0,
      "content": "[PAD]",
      "single_word": false,
      "lstrip": false,
      "rstrip": false,
      "normalized": false,
      "special": true
    },
    {
      "id": 1,
      "content": "[UNK]",
      "single_word": false,
      "lstrip": false,
      "rstrip": false,
      "normalized": false,
      "special": true
    },
    {
      "id": 2,
      "content": "[CLS]",
      "single_word": false,
      "lstrip": false,
      "rstrip": false,
      "normalized": false,
      "special": true
    },
    {
      "id": 3,
      "content": "[SEP]",
      "single_word": false,
      "lstrip": false,
      "rstrip": false,
      "normalized": false,
      "special": true
    },
    {
      "id": 4,
      "content": "[MASK]",
      "single_word": false,
      "lstrip": false,
      "rstrip": false,
      "normalized": false,
      "special": true
    }
  ],
  "normalizer": {
    "type": "NFD"
  },
  "pre_tokenizer": {
    "type": "Whitespace"
  },
  "post_processor": null,
  "decoder": null,
  "model": {
    "type": "BPE",
    "dropout": null,
    "unk_token": null,
    "continuing_subword_prefix": null,
    "end_of_word_suffix": null,
    "fuse_unk": false,
    "byte_fallback": false,
    "ignore_merges": false,
    "vocab": {
      "[PAD]": 0,
      "[UNK]": 1,
      "[CLS]": 2,
      "[SEP]": 3,
      "[MASK]": 4,
      "!": 5,
      "\"": 6,
      "#": 7,
      "$": 8,
      "%": 9,
      "&": 10,
      "'": 11,
      "(": 12,
      ")": 13,
      "*": 14,
      "+": 15,
      ",": 16,
      "-": 17,
      ".": 18,
      "/": 19,
      "0": 20,
      "1": 21,
      "2": 22,
      "3": 23,
      "4": 24,
      "5": 25,
      "6": 26,
      "7": 27,
      "8": 28,
      "9": 29,
      ":": 30,
      ";": 31,
      "=": 32,
      "?": 33,
      "@": 34,
      "A": 35,
      "B": 36,
      "C": 37,
      "D": 38,
      "E": 39,
      "F": 40,
      "G": 41,
      "H": 42,
      "I": 43,
      "J": 44,
      "K": 45,
      "L": 46,
      "M": 47,
      "N": 48,
      "O": 49,
      "P": 50,
      "Q": 51,
      "R": 52,
      "S": 53,
      "T": 54,
      "U": 55,
      "V": 56,
      "W": 57,
      "X": 58,
      "Y": 59,
      "Z": 60,
      "[": 61,
      "]": 62,
      "^": 63,
      "_": 64,
      "a": 65,
      "b": 66,
      "c": 67,
      "d": 68,
      "e": 69,
      "f": 70,
      "g": 71,
      "h": 72,
      "i": 73,
      "j": 74,
      "k": 75,
      "l": 76,
      "m": 77,
      "n": 78,
      "o": 79,
      "p": 80,
      "q": 81,
      "r": 82,
      "s": 83,
      "t": 84,
      "u": 85,
      "v": 86,
      "w": 87,
      "x": 88,
      "y": 89,
      "z": 90,
      "{": 91,
      "|": 92,
      "}": 93,
      "£": 94,
      "§": 95,
      "©": 96,
      "«": 97,
      "­": 98,
      "°": 99,
      "»": 100,
      "̀": 101,
      "́": 102,
      "̂": 103,
      "̆": 104,
      "̈": 105,
      "А": 106,
      "Б": 107,
      "В": 108,
      "Г": 109,
      "Д": 110,
      "Е": 111,
      "З": 112,
      "И": 113,
      "К": 114,
      "Л": 115,
      "М": 116,
      "Н": 117,
      "О": 118,
      "П": 119,
      "Р": 120,
      "С": 121,
      "Т": 122,
      "У": 123,
      "Ф": 124,
      "Х": 125,
      "Ц": 126,
      "Ч": 127,
      "Ш": 128,
      "Э": 129,
      "Я": 130,
      "а": 131,
      "б": 132,
      "в": 133,
      "г": 134,
      "д": 135,
      "е": 136,
      "ж": 137,
      "з": 138,
      "и": 139,
      "к": 140,
      "л": 141,
      "м": 142,
      "н": 143,
      "о": 144,
      "п": 145,
      "р": 146,
      "с": 147,
      "т": 148,
      "у": 149,
      "ф": 150,
      "х": 151,
      "ц": 152,
      "ч": 153,
      "ш": 154,
      "щ": 155,
      "ъ": 156,
      "ы": 157,
      "ь": 158,
      "э": 159,
      "ю": 160,
      "я": 161,
      "​": 162,
      "–": 163,
      "—": 164,
      "‘": 165,
      "’": 166,
      "“": 167,
      "”": 168,
      "…": 169,
      "″": 170,
      "€": 171,
      "→": 172,
      "⭐": 173,
      "ﷺ": 174,
      "️": 175,
      "🌹": 176,
      "th": 177,
      "in": 178,
      "er": 179,
      "an": 180,
      "on": 181,
      "the": 182,
      "re": 183,
      "at": 184,
      "en": 185,
      "or": 186,
      "st": 187,
      "al": 188,
      "ed": 189,
      "ou": 190,
      "ing": 191,
      "to": 192,
      "is": 193,
      "es": 194,
      "of": 195,
      "ar": 196,
      "it": 197,
      "and": 198,
      "as": 199,
      "ic": 200,
      "ion": 201,
      "om": 202,
      "le": 203,
      "ent": 204,
      "he": 205,
      "ac": 206,
      "il": 207,
      "se": 208,
      "ad": 209,
      "ve": 210,
      "id": 211,
      "be": 212,
      "ly": 213,
      "ro": 214,
      "am": 215,
      "for": 216,
      "im": 217,
      "wh": 218,
      "ol": 219,
      "that": 220,
      "ay": 221,
      "ver": 222,
      "ow": 223,
      "ch": 224,
      "ur": 225,
      "us": 226,
      "ig": 227,
      "ut": 228,
      "ot": 229,
      "et": 230,
      "ation": 231,
      "ith": 232,
      "un": 233,
      "em": 234,
      "ce": 235,
      "con": 236,
      "ter": 237,
      "are": 238,
      "ir": 239,
      "The": 240,
      "ct": 241,
      "with": 242,
      "ag": 243,
      "op": 244,
      "res": 245,
      "ab": 246,
      "de": 247,
      "ere": 248,
      "ist": 249,
      "ne": 250,
      "ers": 251,
      "com": 252,
      "ha": 253,
      "tr": 254,
      "pe": 255,
      "ld": 256,
      "li": 257,
      "ate": 258,
      "fr": 259,
      "ul": 260,
      "lo": 261,
      "all": 262,
      "mo": 263,
      "we": 264,
      "ill": 265,
      "su": 266,
      "out": 267,
      "ain": 268,
      "oun": 269,
      "was": 270,
      "pro": 271,
      "by": 272,
      "ex": 273,
      "ke": 274,
      "ment": 275,
      "our": 276,
      "not": 277,
      "po": 278,
      "ht": 279,
      "20": 280,
      "from": 281,
      "ri": 282,
      "ap": 283,
      "his": 284,
      "pl": 285,
      "ther": 286,
      "act": 287,
      "have": 288,
      "ity": 289,
      "sh": 290,
      "this": 291,
      "ies": 292,
      "one": 293,
      "ess": 294,
      "if": 295,
      "ant": 296,
      "over": 297,
      "um": 298,
      "so": 299,
      "has": 300,
      "est": 301,
      "ould": 302,
      "el": 303,
      "In": 304,
      "art": 305,
      "qu": 306,
      "you": 307,
      "ast": 308,
      "ans": 309,
      "ive": 310,
      "ew": 311,
      "ear": 312,
      "per": 313,
      "der": 314,
      "ial": 315,
      "wor": 316,
      "00": 317,
      "ak": 318,
      "sa": 319,
      "ia": 320,
      "ust": 321,
      "ack": 322,
      "ort": 323,
      "up": 324,
      "do": 325,
      "bl": 326,
      "end": 327,
      "ore": 328,
      "201": 329,
      "oug": 330,
      "cl": 331,
      "od": 332,
      "man": 333,
      "who": 334,
      "ome": 335,
      "ight": 336,
      "ev": 337,
      "ber": 338,
      "ous": 339,
      "Th": 340,
      "oc": 341,
      "ge": 342,
      "ra": 343,
      "ud": 344,
      "Ch": 345,
      "me": 346,
      "ind": 347,
      "ll": 348,
      "now": 349,
      "ical": 350,
      "ong": 351,
      "but": 352,
      "ian": 353,
      "they": 354,
      "int": 355,
      "**": 356,
      "gr": 357,
      "ok": 358,
      "ace": 359,
      "St": 360,
      "ue": 361,
      "ich": 362,
      "fe": 363,
      "iv": 364,
      "new": 365,
      "ail": 366,
      "ary": 367,
      "port": 368,
      "19": 369,
      "ated": 370,
      "ound": 371,
      "pr": 372,
      "can": 373,
      "ign": 374,
      "off": 375,
      "ard": 376,
      "had": 377,
      "ine": 378,
      "pres": 379,
      "ough": 380,
      "said": 381,
      "ree": 382,
      "day": 383,
      "te": 384,
      "read": 385,
      "Wh": 386,
      "cont": 387,
      "ide": 388,
      "been": 389,
      "bo": 390,
      "ite": 391,
      "ions": 392,
      "au": 393,
      "more": 394,
      "go": 395,
      "will": 396,
      "their": 397,
      "would": 398,
      "An": 399,
      "mer": 400,
      "ice": 401,
      "other": 402,
      "red": 403,
      "which": 404,
      "sc": 405,
      "ime": 406,
      "sp": 407,
      "ish": 408,
      "ident": 409,
      "af": 410,
      "It": 411,
      "ence": 412,
      ".”": 413,
      "ass": 414,
      "were": 415,
      "New": 416,
      "rec": 417,
      "any": 418,
      "ally": 419,
      "no": 420,
      "ep": 421,
      "iz": 422,
      "way": 423,
      "pos": 424,
      "ame": 425,
      "what": 426,
      "ran": 427,
      "its": 428,
      "ates": 429,
      "about": 430,
      "thing": 431,
      "some": 432,
      "year": 433,
      "ations": 434,
      "own": 435,
      "pol": 436,
      "av": 437,
      "dis": 438,
      "her": 439,
      "don": 440,
      "them": 441,
      "get": 442,
      "ef": 443,
      "ks": 444,
      "ory": 445,
      "ult": 446,
      "ach": 447,
      "ru": 448,
      "ire": 449,
      "ubl": 450,
      "ase": 451,
      "able": 452,
      "ure": 453,
      "ople": 454,
      "ip": 455,
      "king": 456,
      "med": 457,
      "cur": 458,
      "ens": 459,
      "Con": 460,
      "ama": 461,
      "He": 462,
      "uss": 463,
      "Ob": 464,
      "coun": 465,
      "very": 466,
      "comp": 467,
      "--": 468,
      "cent": 469,
      "ord": 470,
      "age": 471,
      "ake": 472,
      "like": 473,
      "la": 474,
      "ren": 475,
      "att": 476,
      "people": 477,
      "vi": 478,
      "ib": 479,
      "ines": 480,
      "overn": 481,
      "into": 482,
      "part": 483,
      "comm": 484,
      "ublic": 485,
      "Un": 486,
      "ser": 487,
      "there": 488,
      "pt": 489,
      "inter": 490,
      "Tr": 491,
      "most": 492,
      "Obama": 493,
      "just": 494,
      "my": 495,
      "Amer": 496,
      "cre": 497,
      "ang": 498,
      "Americ": 499,
      "old": 500,
      "min": 501,
      "uc": 502,
      "co": 503,
      "ry": 504,
      "на": 505,
      "sy": 506,
      "ст": 507,
      "ark": 508,
      "ction": 509,
      "overnment": 510,
      "__": 511,
      "she": 512,
      "ade": 513,
      "ump": 514,
      "than": 515,
      "ance": 516,
      "after": 517,
      "Russ": 518,
      "ie": 519,
      "ile": 520,
      "low": 521,
      "pre": 522,
      "fir": 523,
      "fore": 524,
      "know": 525,
      "ts": 526,
      "spe": 527,
      "tw": 528,
      "time": 529,
      "IN": 530,
      "og": 531,
      "enc": 532,
      "ational": 533,
      "TH": 534,
      "We": 535,
      "say": 536,
      "й": 537,
      "sel": 538,
      "when": 539,
      "him": 540,
      "cer": 541,
      "ob": 542,
      "government": 543,
      "ose": 544,
      "****": 545,
      "ph": 546,
      "000": 547,
      "call": 548,
      "ited": 549,
      "Re": 550,
      "reat": 551,
      "under": 552,
      "try": 553,
      "но": 554,
      "ath": 555,
      "os": 556,
      "rit": 557,
      "ors": 558,
      "inst": 559,
      "This": 560,
      "Is": 561,
      "ON": 562,
      "rough": 563,
      "ty": 564,
      "то": 565,
      "again": 566,
      "),": 567,
      "ning": 568,
      "ict": 569,
      "pp": 570,
      "Trump": 571,
      "IS": 572,
      "No": 573,
      "cau": 574,
      "des": 575,
      "even": 576,
      "ub": 577,
      "ual": 578,
      "vel": 579,
      "ен": 580,
      "ition": 581,
      "ick": 582,
      "years": 583,
      "As": 584,
      "br": 585,
      "mon": 586,
      "ys": 587,
      "two": 588,
      "fl": 589,
      "fer": 590,
      "ement": 591,
      "work": 592,
      "back": 593,
      "ious": 594,
      "du": 595,
      "ful": 596,
      "ра": 597,
      "ро": 598,
      "ings": 599,
      "through": 600,
      "also": 601,
      "But": 602,
      "here": 603,
      "tain": 604,
      "form": 605,
      "cause": 606,
      "AT": 607,
      "your": 608,
      "reg": 609,
      "ater": 610,
      ",”": 611,
      "how": 612,
      "ress": 613,
      "lim": 614,
      "ink": 615,
      "amp": 616,
      "where": 617,
      "first": 618,
      "use": 619,
      "row": 620,
      "main": 621,
      "ww": 622,
      "ities": 623,
      "ell": 624,
      "bet": 625,
      "ists": 626,
      "ER": 627,
      "could": 628,
      "Se": 629,
      "ven": 630,
      "ating": 631,
      "cess": 632,
      "cial": 633,
      "uch": 634,
      "ет": 635,
      "stem": 636,
      "lear": 637,
      "news": 638,
      "Al": 639,
      "ied": 640,
      "only": 641,
      "And": 642,
      "az": 643,
      "..": 644,
      "AN": 645,
      "cr": 646,
      "col": 647,
      "ush": 648,
      "loc": 649,
      "For": 650,
      "Iran": 651,
      "oup": 652,
      "trans": 653,
      "sub": 654,
      "ash": 655,
      "urn": 656,
      "ters": 657,
      "world": 658,
      "book": 659,
      "25": 660,
      "ner": 661,
      "ins": 662,
      "str": 663,
      "iss": 664,
      "many": 665,
      "You": 666,
      "ved": 667,
      "war": 668,
      "News": 669,
      "system": 670,
      "then": 671,
      "vers": 672,
      "igh": 673,
      "ments": 674,
      "play": 675,
      "ci": 676,
      "го": 677,
      "ank": 678,
      "hel": 679,
      "need": 680,
      "10": 681,
      "ho": 682,
      "pers": 683,
      "ves": 684,
      "ents": 685,
      "cted": 686,
      "THE": 687,
      "self": 688,
      "//": 689,
      "Ar": 690,
      "US": 691,
      "fact": 692,
      "mem": 693,
      "right": 694,
      "inue": 695,
      "ondon": 696,
      "als": 697,
      "uring": 698,
      "well": 699,
      "point": 700,
      "those": 701,
      "add": 702,
      "://": 703,
      "ble": 704,
      "ving": 705,
      "ons": 706,
      "ild": 707,
      "imes": 708,
      "Cl": 709,
      "ces": 710,
      "tp": 711,
      "these": 712,
      "come": 713,
      "http": 714,
      "De": 715,
      "did": 716,
      "land": 717,
      "ting": 718,
      "vis": 719,
      "want": 720,
      "let": 721,
      "resident": 722,
      "made": 723,
      "''": 724,
      "If": 725,
      "much": 726,
      "und": 727,
      "They": 728,
      "United": 729,
      "inste": 730,
      "gen": 731,
      "public": 732,
      "set": 733,
      "Eu": 734,
      "ten": 735,
      "по": 736,
      "incl": 737,
      "look": 738,
      "reading": 739,
      "long": 740,
      "12": 741,
      "Le": 742,
      "OR": 743,
      "down": 744,
      "pri": 745,
      "ss": 746,
      "onal": 747,
      "because": 748,
      "Russia": 749,
      "ли": 750,
      "ри": 751,
      "report": 752,
      "ily": 753,
      "quest": 754,
      "Sy": 755,
      "ele": 756,
      "sur": 757,
      "tal": 758,
      "200": 759,
      "offic": 760,
      "Cont": 761,
      "Euro": 762,
      "fin": 763,
      "last": 764,
      "ics": 765,
      "being": 766,
      "olog": 767,
      "aking": 768,
      "je": 769,
      "lam": 770,
      "ms": 771,
      "wom": 772,
      "ork": 773,
      "arg": 774,
      "ago": 775,
      "States": 776,
      "commun": 777,
      "Ad": 778,
      "det": 779,
      "ever": 780,
      "ни": 781,
      "dec": 782,
      "Mus": 783,
      "President": 784,
      "ton": 785,
      "rel": 786,
      "used": 787,
      "law": 788,
      ".\"": 789,
      "Sh": 790,
      "cut": 791,
      "every": 792,
      "rat": 793,
      "ко": 794,
      "lease": 795,
      "cap": 796,
      "ise": 797,
      "ism": 798,
      "leg": 799,
      "curren": 800,
      "gan": 801,
      "ma": 802,
      "ка": 803,
      "before": 804,
      "bu": 805,
      "io": 806,
      "less": 807,
      "arch": 808,
      "lead": 809,
      "such": 810,
      "contro": 811,
      ").": 812,
      "London": 813,
      "RE": 814,
      "found": 815,
      "turn": 816,
      "state": 817,
      "story": 818,
      "alth": 819,
      "black": 820,
      "Mr": 821,
      "York": 822,
      "ative": 823,
      "stand": 824,
      "record": 825,
      "ible": 826,
      "take": 827,
      "ре": 828,
      "itt": 829,
      "resp": 830,
      "does": 831,
      "2013": 832,
      "Chines": 833,
      "inton": 834,
      "Continue": 835,
      "ject": 836,
      "Chinese": 837,
      "30": 838,
      "may": 839,
      "ased": 840,
      "acc": 841,
      "ought": 842,
      "group": 843,
      "AR": 844,
      "Jo": 845,
      "OF": 846,
      "line": 847,
      "plo": 848,
      "son": 849,
      "think": 850,
      "order": 851,
      "president": 852,
      "American": 853,
      "AS": 854,
      "Rep": 855,
      "Rub": 856,
      "during": 857,
      "led": 858,
      "see": 859,
      "emoc": 860,
      "prov": 861,
      "ails": 862,
      "Be": 863,
      "Pl": 864,
      "make": 865,
      "ually": 866,
      "во": 867,
      "ollow": 868,
      "Muslim": 869,
      "She": 870,
      "fa": 871,
      "fam": 872,
      "mus": 873,
      "mark": 874,
      "ness": 875,
      "national": 876,
      "ror": 877,
      "ward": 878,
      "eral": 879,
      "while": 880,
      "cons": 881,
      "happ": 882,
      "should": 883,
      "against": 884,
      ",\"": 885,
      "Oc": 886,
      "ки": 887,
      "ouse": 888,
      "plan": 889,
      "instein": 890,
      "Rubinstein": 891,
      "En": 892,
      "Mo": 893,
      "mar": 894,
      "ince": 895,
      "conom": 896,
      "sup": 897,
      "polic": 898,
      "duct": 899,
      "includ": 900,
      "Gre": 901,
      "late": 902,
      "rest": 903,
      "tober": 904,
      "ower": 905,
      "chn": 906,
      "cond": 907,
      "Gree": 908,
      "IC": 909,
      "ures": 910,
      "не": 911,
      "ional": 912,
      "imp": 913,
      "ific": 914,
      "That": 915,
      "poss": 916,
      "serv": 917,
      "October": 918,
      "les": 919,
      "test": 920,
      "eng": 921,
      "still": 922,
      "ars": 923,
      "around": 924,
      "ility": 925,
      "ically": 926,
      "198": 927,
      "____": 928,
      "Syri": 929,
      "IT": 930,
      "ced": 931,
      "ood": 932,
      "put": 933,
      "inv": 934,
      "ali": 935,
      "head": 936,
      "imate": 937,
      "There": 938,
      "Chr": 939,
      "White": 940,
      "called": 941,
      "Republic": 942,
      "11": 943,
      "15": 944,
      "ED": 945,
      "men": 946,
      "start": 947,
      "too": 948,
      "ets": 949,
      "sure": 950,
      "ext": 951,
      "show": 952,
      "2014": 953,
      "going": 954,
      "********": 955,
      "emocrat": 956,
      "EN": 957,
      "Ger": 958,
      "clo": 959,
      "ft": 960,
      "ked": 961,
      "miss": 962,
      "ned": 963,
      "real": 964,
      "concer": 965,
      "ween": 966,
      "appe": 967,
      "fect": 968,
      "country": 969,
      "view": 970,
      "Or": 971,
      "find": 972,
      "num": 973,
      "par": 974,
      "ми": 975,
      "vest": 976,
      "beli": 977,
      "place": 978,
      "percent": 979,
      "official": 980,
      "So": 981,
      "ek": 982,
      "mil": 983,
      "ern": 984,
      "ury": 985,
      "press": 986,
      "sci": 987,
      "irect": 988,
      "cret": 989,
      "ency": 990,
      "By": 991,
      "за": 992,
      "cept": 993,
      "pect": 994,
      "uman": 995,
      "between": 996,
      "Democrat": 997,
      "Put": 998,
      "ban": 999,
      "dif": 1000,
      "gre": 1001,
      "ost": 1002,
      "ны": 1003,
      "key": 1004,
      "both": 1005,
      "control": 1006,
      "To": 1007,
      "aw": 1008,
      "bus": 1009,
      "gu": 1010,
      "sign": 1011,
      "ла": 1012,
      "си": 1013,
      "та": 1014,
      "oper": 1015,
      "akes": 1016,
      "good": 1017,
      "minist": 1018,
      "Europe": 1019,
      "LE": 1020,
      "On": 1021,
      "car": 1022,
      "che": 1023,
      "follow": 1024,
      "stud": 1025,
      "near": 1026,
      "present": 1027,
      "Islam": 1028,
      "aim": 1029,
      "far": 1030,
      "ik": 1031,
      "ians": 1032,
      "pm": 1033,
      "ль": 1034,
      "ру": 1035,
      "iness": 1036,
      "lect": 1037,
      "chan": 1038,
      "police": 1039,
      "onald": 1040,
      "Putin": 1041,
      "Donald": 1042,
      "den": 1043,
      "econom": 1044,
      "high": 1045,
      "ason": 1046,
      "ices": 1047,
      "cho": 1048,
      "What": 1049,
      "women": 1050,
      "bod": 1051,
      "jor": 1052,
      "same": 1053,
      "ider": 1054,
      "ross": 1055,
      "without": 1056,
      "istan": 1057,
      "www": 1058,
      "Dr": 1059,
      "House": 1060,
      "UN": 1061,
      "gh": 1062,
      "rad": 1063,
      "ration": 1064,
      "atter": 1065,
      "top": 1066,
      "ital": 1067,
      "ants": 1068,
      "soci": 1069,
      "ways": 1070,
      "----": 1071,
      "Christ": 1072,
      "Af": 1073,
      "Pro": 1074,
      "ck": 1075,
      "cour": 1076,
      "gl": 1077,
      "pay": 1078,
      "power": 1079,
      "another": 1080,
      "ond": 1081,
      "requ": 1082,
      "Ind": 1083,
      "2017": 1084,
      "things": 1085,
      "AL": 1086,
      "Fr": 1087,
      "Hill": 1088,
      "ave": 1089,
      "bol": 1090,
      "cor": 1091,
      "camp": 1092,
      "free": 1093,
      "gy": 1094,
      "sk": 1095,
      "val": 1096,
      "writ": 1097,
      "ames": 1098,
      "ems": 1099,
      "aren": 1100,
      "life": 1101,
      "peri": 1102,
      "gram": 1103,
      "ives": 1104,
      "America": 1105,
      "Russian": 1106,
      "month": 1107,
      "Ex": 1108,
      "FO": 1109,
      "bers": 1110,
      "hold": 1111,
      "must": 1112,
      "ular": 1113,
      "illion": 1114,
      "proble": 1115,
      "meet": 1116,
      "polit": 1117,
      "Clinton": 1118,
      "EC": 1119,
      "Please": 1120,
      "Sm": 1121,
      "bre": 1122,
      "bal": 1123,
      "cy": 1124,
      "sm": 1125,
      "since": 1126,
      "ва": 1127,
      "де": 1128,
      "про": 1129,
      "ref": 1130,
      "ense": 1131,
      "issu": 1132,
      "app": 1133,
      "ize": 1134,
      "support": 1135,
      "milit": 1136,
      "225": 1137,
      "bro": 1138,
      "dr": 1139,
      "fic": 1140,
      "por": 1141,
      "да": 1142,
      "до": 1143,
      "те": 1144,
      "ть": 1145,
      "three": 1146,
      "outh": 1147,
      "ared": 1148,
      "ording": 1149,
      "major": 1150,
      "happen": 1151,
      "BC": 1152,
      "Li": 1153,
      "came": 1154,
      "case": 1155,
      "clear": 1156,
      "each": 1157,
      "few": 1158,
      "hand": 1159,
      "rain": 1160,
      "wit": 1161,
      "arge": 1162,
      "trad": 1163,
      "allow": 1164,
      "known": 1165,
      "current": 1166,
      "Smith": 1167,
      "All": 1168,
      "CN": 1169,
      "Wor": 1170,
      "direct": 1171,
      "later": 1172,
      "pur": 1173,
      "rac": 1174,
      "ta": 1175,
      "tell": 1176,
      "ug": 1177,
      "со": 1178,
      "though": 1179,
      "atur": 1180,
      "ale": 1181,
      "fort": 1182,
      "word": 1183,
      "ready": 1184,
      "ized": 1185,
      "attack": 1186,
      "music": 1187,
      "AC": 1188,
      "More": 1189,
      "aud": 1190,
      "cover": 1191,
      "great": 1192,
      "sol": 1193,
      "threat": 1194,
      "ont": 1195,
      "atch": 1196,
      "stru": 1197,
      "ington": 1198,
      "says": 1199,
      ".:": 1200,
      "dem": 1201,
      "oth": 1202,
      "sit": 1203,
      "ues": 1204,
      "ony": 1205,
      "told": 1206,
      "enter": 1207,
      "unch": 1208,
      "empt": 1209,
      "ages": 1210,
      "never": 1211,
      "rib": 1212,
      "ground": 1213,
      "techn": 1214,
      "velop": 1215,
      "ploy": 1216,
      "Coun": 1217,
      "Gr": 1218,
      "National": 1219,
      "Pol": 1220,
      "Sp": 1221,
      "fac": 1222,
      "job": 1223,
      "nor": 1224,
      "race": 1225,
      "rece": 1226,
      "sever": 1227,
      "room": 1228,
      "unt": 1229,
      "post": 1230,
      "claim": 1231,
      "199": 1232,
      "space": 1233,
      "help": 1234,
      "business": 1235,
      "50": 1236,
      "Com": 1237,
      "aid": 1238,
      "aut": 1239,
      "cas": 1240,
      "hist": 1241,
      "ix": 1242,
      "ivers": 1243,
      "ls": 1244,
      "might": 1245,
      "net": 1246,
      "sing": 1247,
      "ле": 1248,
      "inform": 1249,
      "stat": 1250,
      "arget": 1251,
      "icle": 1252,
      "sex": 1253,
      "week": 1254,
      "appro": 1255,
      "days": 1256,
      "BE": 1257,
      "ES": 1258,
      "ION": 1259,
      "Time": 1260,
      "Times": 1261,
      "eve": 1262,
      "gg": 1263,
      "got": 1264,
      "hn": 1265,
      "home": 1266,
      "name": 1267,
      "ox": 1268,
      "ris": 1269,
      "run": 1270,
      "ду": 1271,
      "ло": 1272,
      "ме": 1273,
      "ти": 1274,
      "really": 1275,
      "ese": 1276,
      "iday": 1277,
      "avail": 1278,
      "curity": 1279,
      "viol": 1280,
      "...": 1281,
      "including": 1282,
      "Hillary": 1283,
      "21": 1284,
      "Up": 1285,
      "ait": 1286,
      "aign": 1287,
      "bor": 1288,
      "big": 1289,
      "dist": 1290,
      "gin": 1291,
      "human": 1292,
      "pop": 1293,
      "pass": 1294,
      "side": 1295,
      "util": 1296,
      "une": 1297,
      "ably": 1298,
      "nex": 1299,
      "certain": 1300,
      "policy": 1301,
      "body": 1302,
      "available": 1303,
      "His": 1304,
      "Not": 1305,
      "cult": 1306,
      "sl": 1307,
      "ina": 1308,
      "invest": 1309,
      "death": 1310,
      "plic": 1311,
      "ship": 1312,
      "recent": 1313,
      "John": 1314,
      "military": 1315,
      "ah": 1316,
      "cu": 1317,
      "ecut": 1318,
      "ier": 1319,
      "mber": 1320,
      "vot": 1321,
      "vir": 1322,
      "vember": 1323,
      "igin": 1324,
      "def": 1325,
      "coming": 1326,
      "fri": 1327,
      "lobal": 1328,
      "ending": 1329,
      "ished": 1330,
      "uck": 1331,
      "November": 1332,
      "Afr": 1333,
      "UFO": 1334,
      "air": 1335,
      "bs": 1336,
      "grow": 1337,
      "non": 1338,
      "ви": 1339,
      "ся": 1340,
      "among": 1341,
      "ute": 1342,
      "ety": 1343,
      "ember": 1344,
      "email": 1345,
      "result": 1346,
      "tract": 1347,
      "ulation": 1348,
      "prote": 1349,
      "working": 1350,
      "class": 1351,
      "ING": 1352,
      "local": 1353,
      "differ": 1354,
      "campaign": 1355,
      "next": 1356,
      "13": 1357,
      "Ag": 1358,
      "Sign": 1359,
      "dro": 1360,
      "hop": 1361,
      "list": 1362,
      "thor": 1363,
      "stop": 1364,
      "arm": 1365,
      "itor": 1366,
      "search": 1367,
      "best": 1368,
      "ird": 1369,
      "tries": 1370,
      "program": 1371,
      "State": 1372,
      "prom": 1373,
      "contact": 1374,
      "ени": 1375,
      "transl": 1376,
      "person": 1377,
      "ittle": 1378,
      "number": 1379,
      "change": 1380,
      "World": 1381,
      "friend": 1382,
      "Afric": 1383,
      "Ear": 1384,
      "East": 1385,
      "Ira": 1386,
      "MJ": 1387,
      "Uk": 1388,
      "Ven": 1389,
      "four": 1390,
      "kill": 1391,
      "won": 1392,
      "ци": 1393,
      "что": 1394,
      "ones": 1395,
      "import": 1396,
      "using": 1397,
      "terror": 1398,
      "ops": 1399,
      "deal": 1400,
      "suc": 1401,
      "ife": 1402,
      "anti": 1403,
      "feel": 1404,
      "When": 1405,
      "century": 1406,
      "himself": 1407,
      "Iraq": 1408,
      "Ukrain": 1409,
      "16": 1410,
      "500": 1411,
      "Car": 1412,
      "Ro": 1413,
      "cil": 1414,
      "face": 1415,
      "large": 1416,
      "ric": 1417,
      "sour": 1418,
      "win": 1419,
      "organ": 1420,
      "least": 1421,
      "ention": 1422,
      "ential": 1423,
      "second": 1424,
      "adv": 1425,
      "vert": 1426,
      "ution": 1427,
      "dep": 1428,
      "develop": 1429,
      "something": 1430,
      "interest": 1431,
      "ield": 1432,
      "ology": 1433,
      "market": 1434,
      "Syria": 1435,
      "believe": 1436,
      "14": 1437,
      "Here": 1438,
      "Me": 1439,
      "Mar": 1440,
      "Nor": 1441,
      "Po": 1442,
      "ST": 1443,
      "With": 1444,
      "ired": 1445,
      "kind": 1446,
      "little": 1447,
      "met": 1448,
      "nal": 1449,
      "ral": 1450,
      "uge": 1451,
      "ying": 1452,
      "ски": 1453,
      "——": 1454,
      "reed": 1455,
      "enough": 1456,
      "ories": 1457,
      "origin": 1458,
      "often": 1459,
      "lex": 1460,
      "idence": 1461,
      "why": 1462,
      "chang": 1463,
      "child": 1464,
      "means": 1465,
      "vious": 1466,
      "Americans": 1467,
      "desc": 1468,
      "letter": 1469,
      "consider": 1470,
      "until": 1471,
      "18": 1472,
      "AG": 1473,
      "Do": 1474,
      "How": 1475,
      "West": 1476,
      "Wash": 1477,
      "away": 1478,
      "bas": 1479,
      "cit": 1480,
      "hy": 1481,
      "jo": 1482,
      "lot": 1483,
      "ron": 1484,
      "whe": 1485,
      "ер": 1486,
      "thought": 1487,
      "incre": 1488,
      "ret": 1489,
      "reme": 1490,
      "idd": 1491,
      "open": 1492,
      "plain": 1493,
      "actually": 1494,
      "2016": 1495,
      "climate": 1496,
      "occur": 1497,
      "ideo": 1498,
      "ences": 1499,
      "selves": 1500,
      "Iranian": 1501,
      "undred": 1502,
      "German": 1503,
      "bola": 1504,
      "several": 1505,
      "Washington": 1506,
      "$$": 1507,
      "17": 1508,
      "Am": 1509,
      "Col": 1510,
      "Ebola": 1511,
      "Now": 1512,
      "Ser": 1513,
      "Tur": 1514,
      "city": 1515,
      "hol": 1516,
      "mutil": 1517,
      "wr": 1518,
      "мо": 1519,
      "ster": 1520,
      "already": 1521,
      "ising": 1522,
      "ided": 1523,
      "tra": 1524,
      "plac": 1525,
      "oney": 1526,
      "medi": 1527,
      "countries": 1528,
      "likely": 1529,
      "members": 1530,
      "details": 1531,
      "family": 1532,
      "Greece": 1533,
      "scient": 1534,
      "Islamic": 1535,
      "information": 1536,
      "CON": 1537,
      "Sen": 1538,
      "cal": 1539,
      "care": 1540,
      "dom": 1541,
      "ky": 1542,
      "ин": 1543,
      "remain": 1544,
      "today": 1545,
      "employ": 1546,
      "conf": 1547,
      "opt": 1548,
      "live": 1549,
      "ried": 1550,
      "share": 1551,
      "rug": 1552,
      "medic": 1553,
      "media": 1554,
      "count": 1555,
      "foreign": 1556,
      "possible": 1557,
      "Venue": 1558,
      "whether": 1559,
      ".,": 1560,
      "Bo": 1561,
      "ID": 1562,
      "Med": 1563,
      "Res": 1564,
      "Sun": 1565,
      "bad": 1566,
      "bur": 1567,
      "ca": 1568,
      "giv": 1569,
      "nation": 1570,
      "pian": 1571,
      "vict": 1572,
      "stit": 1573,
      "took": 1574,
      "ari": 1575,
      "ands": 1576,
      "level": 1577,
      "secret": 1578,
      "force": 1579,
      "urch": 1580,
      "ney": 1581,
      "having": 1582,
      "ately": 1583,
      "log": 1584,
      "activ": 1585,
      "ified": 1586,
      "aken": 1587,
      "2015": 1588,
      "event": 1589,
      "197": 1590,
      "contin": 1591,
      "comput": 1592,
      "uclear": 1593,
      "capital": 1594,
      "Moore": 1595,
      "Afgh": 1596,
      "Ac": 1597,
      "Fran": 1598,
      "Part": 1599,
      "Target": 1600,
      "cle": 1601,
      "fo": 1602,
      "hor": 1603,
      "light": 1604,
      "lines": 1605,
      "making": 1606,
      "ude": 1607,
      "ма": 1608,
      "сси": 1609,
      "ination": 1610,
      "reet": 1611,
      "ators": 1612,
      "states": 1613,
      "ales": 1614,
      "across": 1615,
      "area": 1616,
      "dest": 1617,
      "lier": 1618,
      "lies": 1619,
      "keep": 1620,
      "action": 1621,
      "ively": 1622,
      "perfor": 1623,
      "gether": 1624,
      "prof": 1625,
      "author": 1626,
      "ization": 1627,
      "themselves": 1628,
      "effect": 1629,
      "spec": 1630,
      "special": 1631,
      "understand": 1632,
      "better": 1633,
      "subsc": 1634,
      "priv": 1635,
      "according": 1636,
      "iversity": 1637,
      "26": 1638,
      "Free": 1639,
      "May": 1640,
      "Mark": 1641,
      "Pa": 1642,
      "Some": 1643,
      "South": 1644,
      "Vi": 1645,
      "bi": 1646,
      "done": 1647,
      "ff": 1648,
      "hal": 1649,
      "money": 1650,
      "night": 1651,
      "sim": 1652,
      "ann": 1653,
      "together": 1654,
      "become": 1655,
      "urther": 1656,
      "utes": 1657,
      "ither": 1658,
      "agree": 1659,
      "comes": 1660,
      "tru": 1661,
      "move": 1662,
      "propos": 1663,
      "exp": 1664,
      "ify": 1665,
      "social": 1666,
      "ended": 1667,
      "ock": 1668,
      "disc": 1669,
      "attempt": 1670,
      "trying": 1671,
      "azz": 1672,
      "AND": 1673,
      "playing": 1674,
      "build": 1675,
      "ART": 1676,
      "mission": 1677,
      "Fl": 1678,
      "PS": 1679,
      "ben": 1680,
      "bank": 1681,
      "ior": 1682,
      "mp": 1683,
      "mit": 1684,
      "million": 1685,
      "uk": 1686,
      "uation": 1687,
      "yet": 1688,
      "inc": 1689,
      "ature": 1690,
      "always": 1691,
      "left": 1692,
      "health": 1693,
      "term": 1694,
      "aged": 1695,
      "execut": 1696,
      "idea": 1697,
      "design": 1698,
      "needs": 1699,
      "member": 1700,
      "legal": 1701,
      "ICLE": 1702,
      "period": 1703,
      "problem": 1704,
      "Ukraine": 1705,
      "29": 1706,
      "AP": 1707,
      "At": 1708,
      "Bl": 1709,
      "June": 1710,
      "ball": 1711,
      "cand": 1712,
      "dou": 1713,
      "died": 1714,
      "gun": 1715,
      "hard": 1716,
      "hip": 1717,
      "ler": 1718,
      "erg": 1719,
      "asked": 1720,
      "seem": 1721,
      "lying": 1722,
      "sum": 1723,
      "poet": 1724,
      "thern": 1725,
      "early": 1726,
      "docu": 1727,
      "scand": 1728,
      "position": 1729,
      "bring": 1730,
      "flu": 1731,
      "visit": 1732,
      "election": 1733,
      "Greek": 1734,
      "invol": 1735,
      "close": 1736,
      "chool": 1737,
      "radio": 1738,
      "success": 1739,
      "Afghan": 1740,
      "\",": 1741,
      "24": 1742,
      "Go": 1743,
      "ME": 1744,
      "Ms": 1745,
      "My": 1746,
      "One": 1747,
      "Pe": 1748,
      "UL": 1749,
      "duc": 1750,
      "drug": 1751,
      "fed": 1752,
      "fun": 1753,
      "five": 1754,
      "fund": 1755,
      "ger": 1756,
      "gir": 1757,
      "gress": 1758,
      "hundred": 1759,
      "jud": 1760,
      "mag": 1761,
      "ns": 1762,
      "nes": 1763,
      "ove": 1764,
      "ped": 1765,
      "pie": 1766,
      "third": 1767,
      "erous": 1768,
      "ane": 1769,
      "reason": 1770,
      "ised": 1771,
      "seen": 1772,
      "protest": 1773,
      "exist": 1774,
      "aster": 1775,
      "works": 1776,
      "Isra": 1777,
      "ISIS": 1778,
      "strate": 1779,
      "reported": 1780,
      "communic": 1781,
      "turned": 1782,
      "________": 1783,
      "ministration": 1784,
      "following": 1785,
      "months": 1786,
      "political": 1787,
      "CNN": 1788,
      "words": 1789,
      "Africa": 1790,
      "private": 1791,
      "Bar": 1792,
      "Can": 1793,
      "God": 1794,
      "IA": 1795,
      "Ju": 1796,
      "Man": 1797,
      "TO": 1798,
      "ather": 1799,
      "eb": 1800,
      "ges": 1801,
      "ham": 1802,
      "ling": 1803,
      "lad": 1804,
      "ping": 1805,
      "rul": 1806,
      "taken": 1807,
      "ured": 1808,
      "video": 1809,
      "yn": 1810,
      "ined": 1811,
      "ream": 1812,
      "request": 1813,
      "org": 1814,
      "orm": 1815,
      "almost": 1816,
      "ander": 1817,
      "icop": 1818,
      "ley": 1819,
      "lete": 1820,
      "leased": 1821,
      "acy": 1822,
      "ada": 1823,
      "former": 1824,
      "imin": 1825,
      "char": 1826,
      "charg": 1827,
      "within": 1828,
      "abor": 1829,
      "supp": 1830,
      "sugg": 1831,
      "pose": 1832,
      "short": 1833,
      "article": 1834,
      "2012": 1835,
      "ivil": 1836,
      "ivid": 1837,
      "readers": 1838,
      "Who": 1839,
      "While": 1840,
      "Health": 1841,
      "launch": 1842,
      "University": 1843,
      "cost": 1844,
      "ference": 1845,
      "colle": 1846,
      "helicop": 1847,
      "personal": 1848,
      "points": 1849,
      "questions": 1850,
      "community": 1851,
      "services": 1852,
      "Republican": 1853,
      "audi": 1854,
      "Council": 1855,
      "investig": 1856,
      "different": 1857,
      "iddle": 1858,
      "suggest": 1859,
      "40": 1860,
      "Bush": 1861,
      "EL": 1862,
      "Even": 1863,
      "Fox": 1864,
      "Satur": 1865,
      "crit": 1866,
      "dri": 1867,
      "eas": 1868,
      "har": 1869,
      "lay": 1870,
      "nner": 1871,
      "ps": 1872,
      "pan": 1873,
      "school": 1874,
      "ats": 1875,
      "ener": 1876,
      "stay": 1877,
      "ison": 1878,
      "iter": 1879,
      "ico": 1880,
      "ids": 1881,
      "ability": 1882,
      "deb": 1883,
      "ister": 1884,
      "lied": 1885,
      "product": 1886,
      "quite": 1887,
      "ustry": 1888,
      "upd": 1889,
      "rather": 1890,
      "mean": 1891,
      "ived": 1892,
      "aily": 1893,
      "offer": 1894,
      "content": 1895,
      "ensive": 1896,
      "serious": 1897,
      "minutes": 1898,
      "ста": 1899,
      "talk": 1900,
      "woman": 1901,
      "itted": 1902,
      "****************": 1903,
      "Bynner": 1904,
      "Democrats": 1905,
      "Christian": 1906,
      "course": 1907,
      "meeting": 1908,
      "others": 1909,
      "children": 1910,
      "(@": 1911,
      "60": 1912,
      "Ben": 1913,
      "Bank": 1914,
      "Day": 1915,
      "EBE": 1916,
      "Jan": 1917,
      "NY": 1918,
      "Par": 1919,
      "Pak": 1920,
      "Te": 1921,
      "Tor": 1922,
      "Wil": 1923,
      "di": 1924,
      "equ": 1925,
      "global": 1926,
      "link": 1927,
      "mind": 1928,
      "past": 1929,
      "rap": 1930,
      "yle": 1931,
      "мы": 1932,
      "че": 1933,
      "once": 1934,
      "rep": 1935,
      "atic": 1936,
      "security": 1937,
      "rob": 1938,
      "amed": 1939,
      "church": 1940,
      "ott": 1941,
      "decl": 1942,
      "lood": 1943,
      "doing": 1944,
      "ored": 1945,
      "effort": 1946,
      "compan": 1947,
      "minor": 1948,
      "full": 1949,
      "https": 1950,
      "Engl": 1951,
      "Greys": 1952,
      "economic": 1953,
      "protect": 1954,
      "Israel": 1955,
      "Saturday": 1956,
      "Pakistan": 1957,
      "English": 1958,
      "27": 1959,
      "28": 1960,
      "CE": 1961,
      "Cr": 1962,
      "Cor": 1963,
      "Gen": 1964,
      "HO": 1965,
      "Min": 1966,
      "Mex": 1967,
      "Pr": 1968,
      "SA": 1969,
      "Str": 1970,
      "bar": 1971,
      "either": 1972,
      "ief": 1973,
      "jour": 1974,
      "ken": 1975,
      "mot": 1976,
      "mass": 1977,
      "sent": 1978,
      "times": 1979,
      "thous": 1980,
      "error": 1981,
      "research": 1982,
      "ste": 1983,
      "itions": 1984,
      "ask": 1985,
      "heav": 1986,
      "ides": 1987,
      "white": 1988,
      "urs": 1989,
      "uses": 1990,
      "ague": 1991,
      "opin": 1992,
      "dead": 1993,
      "moder": 1994,
      "west": 1995,
      "earlier": 1996,
      "These": 1997,
      "raft": 1998,
      "spir": 1999,
      "partic": 2000,
      "angu": 2001,
      "speak": 2002,
      "phys": 2003,
      "itional": 2004,
      "Associ": 2005,
      "fully": 2006,
      "respond": 2007,
      "groups": 2008,
      "fair": 2009,
      "--------": 2010,
      "small": 2011,
      "approach": 2012,
      "important": 2013,
      "Afghanistan": 2014,
      ".)": 2015,
      "100": 2016,
      "31": 2017,
      "Dav": 2018,
      "ET": 2019,
      "Im": 2020,
      "Mon": 2021,
      "Nam": 2022,
      "Pers": 2023,
      "Rom": 2024,
      "San": 2025,
      "civil": 2026,
      "fire": 2027,
      "field": 2028,
      "further": 2029,
      "hind": 2030,
      "mig": 2031,
      "rate": 2032,
      "vent": 2033,
      "vol": 2034,
      "watch": 2035,
      "ze": 2036,
      "об": 2037,
      "ско": 2038,
      "inking": 2039,
      "anal": 2040,
      "onse": 2041,
      "ator": 2042,
      "alk": 2043,
      "ality": 2044,
      "isement": 2045,
      "access": 2046,
      "verse": 2047,
      "uture": 2048,
      "comb": 2049,
      "front": 2050,
      "moved": 2051,
      "ained": 2052,
      "oung": 2053,
      "active": 2054,
      "Inter": 2055,
      "upon": 2056,
      "doct": 2057,
      "evidence": 2058,
      "pract": 2059,
      "ards": 2060,
      "anything": 2061,
      "posed": 2062,
      "сти": 2063,
      "Report": 2064,
      "gener": 2065,
      "question": 2066,
      "doesn": 2067,
      "presidential": 2068,
      "Plus": 2069,
      "Republicans": 2070,
      "From": 2071,
      "currently": 2072,
      "history": 2073,
      "Earth": 2074,
      "vertisement": 2075,
      "occurred": 2076,
      "performan": 2077,
      "ividual": 2078,
      "Ab": 2079,
      "Bro": 2080,
      "Face": 2081,
      "Kush": 2082,
      "Mc": 2083,
      "Pat": 2084,
      "Sup": 2085,
      "bish": 2086,
      "give": 2087,
      "makes": 2088,
      "nuclear": 2089,
      "spo": 2090,
      "sound": 2091,
      "taking": 2092,
      "wait": 2093,
      "вы": 2094,
      "ля": 2095,
      "чи": 2096,
      "reach": 2097,
      "represent": 2098,
      "aring": 2099,
      "lement": 2100,
      "begin": 2101,
      "behind": 2102,
      "ford": 2103,
      "imal": 2104,
      "confir": 2105,
      "dev": 2106,
      "depart": 2107,
      "liance": 2108,
      "mother": 2109,
      "prob": 2110,
      "proper": 2111,
      "explain": 2112,
      "que": 2113,
      "ends": 2114,
      "occas": 2115,
      "ailed": 2116,
      "cannot": 2117,
      "offers": 2118,
      "ept": 2119,
      "company": 2120,
      "international": 2121,
      "pret": 2122,
      "strong": 2123,
      "cient": 2124,
      "address": 2125,
      "looking": 2126,
      "reports": 2127,
      "ological": 2128,
      "Add": 2129,
      "respons": 2130,
      "Syrian": 2131,
      "officials": 2132,
      "India": 2133,
      "issues": 2134,
      "mutilations": 2135,
      "half": 2136,
      "Namib": 2137,
      "35": 2138,
      "Air": 2139,
      "Br": 2140,
      "Cent": 2141,
      "City": 2142,
      "Ed": 2143,
      "Hor": 2144,
      "LO": 2145,
      "Park": 2146,
      "War": 2147,
      "cup": 2148,
      "fil": 2149,
      "fig": 2150,
      "fight": 2151,
      "ged": 2152,
      "hour": 2153,
      "jazz": 2154,
      "mor": 2155,
      "mom": 2156,
      "prec": 2157,
      "site": 2158,
      "от": 2159,
      "ata": 2160,
      "held": 2161,
      "seems": 2162,
      "oll": 2163,
      "abl": 2164,
      "abduct": 2165,
      "above": 2166,
      "peace": 2167,
      "pected": 2168,
      "loss": 2169,
      "process": 2170,
      "exact": 2171,
      "expect": 2172,
      "ribe": 2173,
      "shop": 2174,
      "soon": 2175,
      "Inc": 2176,
      "answ": 2177,
      "enda": 2178,
      "events": 2179,
      "industry": 2180,
      "individual": 2181,
      "Street": 2182,
      "team": 2183,
      "getting": 2184,
      "complete": 2185,
      "common": 2186,
      "saying": 2187,
      "cris": 2188,
      "Arab": 2189,
      "didn": 2190,
      "relig": 2191,
      "currency": 2192,
      "ENT": 2193,
      "European": 2194,
      "study": 2195,
      "Friday": 2196,
      "situation": 2197,
      "jobs": 2198,
      "wrong": 2199,
      "Acc": 2200,
      "truth": 2201,
      "discuss": 2202,
      "candid": 2203,
      "poetry": 2204,
      "Facebook": 2205,
      "\".": 2206,
      ".''": 2207,
      "Alex": 2208,
      "Co": 2209,
      "Cos": 2210,
      "DI": 2211,
      "EM": 2212,
      "Just": 2213,
      "Ph": 2214,
      "Pal": 2215,
      "Post": 2216,
      "RO": 2217,
      "Wind": 2218,
      "based": 2219,
      "ey": 2220,
      "fall": 2221,
      "game": 2222,
      "ires": 2223,
      "liter": 2224,
      "var": 2225,
      "wide": 2226,
      "young": 2227,
      "Ро": 2228,
      "ве": 2229,
      "се": 2230,
      "react": 2231,
      "atives": 2232,
      "along": 2233,
      "tow": 2234,
      "total": 2235,
      "heart": 2236,
      "heard": 2237,
      "accept": 2238,
      "road": 2239,
      "rote": 2240,
      "forn": 2241,
      "forward": 2242,
      "immedi": 2243,
      "chief": 2244,
      "emp": 2245,
      "ceed": 2246,
      "agre": 2247,
      "istic": 2248,
      "istance": 2249,
      "tri": 2250,
      "lost": 2251,
      "aining": 2252,
      "prove": 2253,
      "quar": 2254,
      "Thurs": 2255,
      "continue": 2256,
      "енно": 2257,
      "ample": 2258,
      "lock": 2259,
      "rights": 2260,
      "instead": 2261,
      "Advertisement": 2262,
      "everything": 2263,
      "capac": 2264,
      "leaders": 2265,
      "Play": 2266,
      "science": 2267,
      "ception": 2268,
      "nearly": 2269,
      "problems": 2270,
      "issue": 2271,
      "reedom": 2272,
      "Turkey": 2273,
      "given": 2274,
      "July": 2275,
      "helicopters": 2276,
      "Mexico": 2277,
      "AF": 2278,
      "AM": 2279,
      "Aug": 2280,
      "Bef": 2281,
      "Cal": 2282,
      "Cong": 2283,
      "CIA": 2284,
      "Ge": 2285,
      "Hol": 2286,
      "Jam": 2287,
      "Soc": 2288,
      "Sept": 2289,
      "TA": 2290,
      "Twit": 2291,
      "UR": 2292,
      "Wat": 2293,
      "cop": 2294,
      "cred": 2295,
      "dang": 2296,
      "fel": 2297,
      "future": 2298,
      "hom": 2299,
      "hig": 2300,
      "ito": 2301,
      "langu": 2302,
      "mur": 2303,
      "matter": 2304,
      "named": 2305,
      "pen": 2306,
      "pain": 2307,
      "sil": 2308,
      "sus": 2309,
      "sales": 2310,
      "tit": 2311,
      "uary": 2312,
      "went": 2313,
      "wind": 2314,
      "wrote": 2315,
      "ву": 2316,
      "га": 2317,
      "ди": 2318,
      "пре": 2319,
      "ры": 2320,
      "ero": 2321,
      "ert": 2322,
      "isn": 2323,
      "itive": 2324,
      "itual": 2325,
      "administration": 2326,
      "irst": 2327,
      "trade": 2328,
      "liam": 2329,
      "love": 2330,
      "exper": 2331,
      "establ": 2332,
      "Stud": 2333,
      "spread": 2334,
      "izing": 2335,
      "medical": 2336,
      "aterial": 2337,
      "subject": 2338,
      "host": 2339,
      "added": 2340,
      "Dec": 2341,
      "surv": 2342,
      "argu": 2343,
      "Shar": 2344,
      "response": 2345,
      "latest": 2346,
      "economy": 2347,
      "happened": 2348,
      "tax": 2349,
      "receive": 2350,
      "risk": 2351,
      "defense": 2352,
      "source": 2353,
      "depend": 2354,
      "describ": 2355,
      "scandal": 2356,
      "charac": 2357,
      "General": 2358,
      "modern": 2359,
      "Thursday": 2360,
      "capacity": 2361,
      "Before": 2362,
      "45": 2363,
      "Apr": 2364,
      "CO": 2365,
      "Cali": 2366,
      "DC": 2367,
      "Life": 2368,
      "Of": 2369,
      "Per": 2370,
      "SE": 2371,
      "Vir": 2372,
      "bed": 2373,
      "bill": 2374,
      "cast": 2375,
      "food": 2376,
      "games": 2377,
      "hot": 2378,
      "london": 2379,
      "ted": 2380,
      "wing": 2381,
      "па": 2382,
      "при": 2383,
      "init": 2384,
      "ances": 2385,
      "online": 2386,
      "arrest": 2387,
      "itz": 2388,
      "assa": 2389,
      "entire": 2390,
      "season": 2391,
      "emerg": 2392,
      "constru": 2393,
      "areas": 2394,
      "deep": 2395,
      "true": 2396,
      "liber": 2397,
      "los": 2398,
      "wel": 2399,
      "webs": 2400,
      "super": 2401,
      "explo": 2402,
      "Then": 2403,
      "intro": 2404,
      "grap": 2405,
      "goes": 2406,
      "aff": 2407,
      "counter": 2408,
      "ibility": 2409,
      "party": 2410,
      "type": 2411,
      "iction": 2412,
      "worked": 2413,
      "duction": 2414,
      "ATE": 2415,
      "ATION": 2416,
      "regard": 2417,
      "however": 2418,
      "hosp": 2419,
      "priest": 2420,
      "surve": 2421,
      "policies": 2422,
      "break": 2423,
      "refuge": 2424,
      "racial": 2425,
      "attacks": 2426,
      "single": 2427,
      "statement": 2428,
      "culture": 2429,
      "viron": 2430,
      "original": 2431,
      "changes": 2432,
      "citiz": 2433,
      "medicine": 2434,
      "Sunday": 2435,
      "activity": 2436,
      "continu": 2437,
      "computer": 2438,
      "updates": 2439,
      "January": 2440,
      "companies": 2441,
      "journal": 2442,
      "Supreme": 2443,
      "Росси": 2444,
      "August": 2445,
      "April": 2446,
      "Californ": 2447,
      "Daily": 2448,
      "First": 2449,
      "GO": 2450,
      "HP": 2451,
      "Hinton": 2452,
      "IG": 2453,
      "IL": 2454,
      "IR": 2455,
      "Ku": 2456,
      "Qu": 2457,
      "bit": 2458,
      "border": 2459,
      "due": 2460,
      "eg": 2461,
      "foc": 2462,
      "ient": 2463,
      "ming": 2464,
      "pat": 2465,
      "push": 2466,
      "sn": 2467,
      "song": 2468,
      "бы": 2469,
      "же": 2470,
      "хо": 2471,
      "ча": 2472,
      "anks": 2473,
      "aly": 2474,
      "itation": 2475,
      "ioned": 2476,
      "leave": 2477,
      "ilities": 2478,
      "sell": 2479,
      "amoun": 2480,
      "forces": 2481,
      "forced": 2482,
      "imir": 2483,
      "ural": 2484,
      "ung": 2485,
      "conne": 2486,
      "necess": 2487,
      "produc": 2488,
      "express": 2489,
      "experi": 2490,
      "poem": 2491,
      "aper": 2492,
      "else": 2493,
      "ustom": 2494,
      "bert": 2495,
      "China": 2496,
      "meas": 2497,
      "Station": 2498,
      "fected": 2499,
      "tele": 2500,
      "nothing": 2501,
      "poses": 2502,
      "attle": 2503,
      "interview": 2504,
      "Secret": 2505,
      "venue": 2506,
      "wants": 2507,
      "elect": 2508,
      "Joe": 2509,
      "provide": 2510,
      "aliens": 2511,
      "Germany": 2512,
      "Democratic": 2513,
      "minister": 2514,
      "руб": 2515,
      "written": 2516,
      "ficult": 2517,
      "CNBC": 2518,
      "growth": 2519,
      "viously": 2520,
      "holiday": 2521,
      "Senate": 2522,
      "victory": 2523,
      "View": 2524,
      "benef": 2525,
      "ladimir": 2526,
      "rules": 2527,
      "energy": 2528,
      "probably": 2529,
      "crisis": 2530,
      "various": 2531,
      "dangerous": 2532,
      "December": 2533,
      "22": 2534,
      "23": 2535,
      "?”": 2536,
      "Ali": 2537,
      "DE": 2538,
      "Dis": 2539,
      "FOR": 2540,
      "Her": 2541,
      "Kar": 2542,
      "Mac": 2543,
      "Press": 2544,
      "Pho": 2545,
      "Sam": 2546,
      "SEC": 2547,
      "Tails": 2548,
      "Vladimir": 2549,
      "bloc": 2550,
      "craft": 2551,
      "gay": 2552,
      "larg": 2553,
      "labor": 2554,
      "material": 2555,
      "nom": 2556,
      "pul": 2557,
      "sen": 2558,
      "sed": 2559,
      "sch": 2560,
      "treat": 2561,
      "water": 2562,
      "са": 2563,
      "reve": 2564,
      "return": 2565,
      "stories": 2566,
      "ision": 2567,
      "icago": 2568,
      "ilar": 2569,
      "ades": 2570,
      "iding": 2571,
      "began": 2572,
      "unity": 2573,
      "aging": 2574,
      "nel": 2575,
      "negot": 2576,
      "mode": 2577,
      "expected": 2578,
      "example": 2579,
      "shir": 2580,
      "ession": 2581,
      "rape": 2582,
      "Chicago": 2583,
      "grand": 2584,
      "194": 2585,
      "augh": 2586,
      "сто": 2587,
      "Read": 2588,
      "brought": 2589,
      "tained": 2590,
      "played": 2591,
      "году": 2592,
      "кото": 2593,
      "recordings": 2594,
      "30pm": 2595,
      "Muslims": 2596,
      "famil": 2597,
      "appear": 2598,
      "believ": 2599,
      "difficult": 2600,
      "ных": 2601,
      "require": 2602,
      "onym": 2603,
      "running": 2604,
      "ginia": 2605,
      "recently": 2606,
      "remains": 2607,
      "executive": 2608,
      "ICLEI": 2609,
      "document": 2610,
      "piece": 2611,
      "Canada": 2612,
      "thousands": 2613,
      "David": 2614,
      "bishops": 2615,
      "moment": 2616,
      "answer": 2617,
      "According": 2618,
      "Alexander": 2619,
      "agreement": 2620,
      "Virginia": 2621,
      "California": 2622,
      "negoti": 2623,
      "BY": 2624,
      "Bac": 2625,
      "CL": 2626,
      "Dep": 2627,
      "Fed": 2628,
      "II": 2629,
      "Jap": 2630,
      "Ma": 2631,
      "Many": 2632,
      "Wed": 2633,
      "Wik": 2634,
      "cott": 2635,
      "custom": 2636,
      "dra": 2637,
      "data": 2638,
      "flying": 2639,
      "freedom": 2640,
      "hum": 2641,
      "kes": 2642,
      "lin": 2643,
      "mult": 2644,
      "pot": 2645,
      "publ": 2646,
      "sort": 2647,
      "sold": 2648,
      "simp": 2649,
      "tro": 2650,
      "tem": 2651,
      "takes": 2652,
      "бо": 2653,
      "лли": 2654,
      "это": 2655,
      "influ": 2656,
      "anonym": 2657,
      "environ": 2658,
      "editor": 2659,
      "oud": 2660,
      "toward": 2661,
      "ises": 2662,
      "arri": 2663,
      "omen": 2664,
      "ental": 2665,
      "hear": 2666,
      "account": 2667,
      "ader": 2668,
      "advis": 2669,
      "became": 2670,
      "rock": 2671,
      "confl": 2672,
      "haps": 2673,
      "living": 2674,
      "weak": 2675,
      "ountain": 2676,
      "project": 2677,
      "actions": 2678,
      "essential": 2679,
      "2019": 2680,
      "clic": 2681,
      "odd": 2682,
      "Thank": 2683,
      "udd": 2684,
      "office": 2685,
      "box": 2686,
      "Any": 2687,
      "scen": 2688,
      "parts": 2689,
      "created": 2690,
      "INT": 2691,
      "calls": 2692,
      "ickets": 2693,
      "workers": 2694,
      "рас": 2695,
      "ERS": 2696,
      "Security": 2697,
      "azine": 2698,
      "sett": 2699,
      "рика": 2700,
      "finan": 2701,
      "buy": 2702,
      "recording": 2703,
      "fault": 2704,
      "ificant": 2705,
      "appears": 2706,
      "skin": 2707,
      "ACT": 2708,
      "demon": 2709,
      "dropp": 2710,
      "development": 2711,
      "North": 2712,
      "option": 2713,
      "foot": 2714,
      "similar": 2715,
      "doub": 2716,
      "products": 2717,
      "meaning": 2718,
      "performance": 2719,
      "Calif": 2720,
      "Congress": 2721,
      "September": 2722,
      "Twitter": 2723,
      "Watson": 2724,
      "character": 2725,
      "Photo": 2726,
      "Japan": 2727,
      "03": 2728,
      "07": 2729,
      "AY": 2730,
      "Bra": 2731,
      "CT": 2732,
      "Dear": 2733,
      "Feb": 2734,
      "Government": 2735,
      "Jew": 2736,
      "Middle": 2737,
      "NO": 2738,
      "Pri": 2739,
      "PART": 2740,
      "Rich": 2741,
      "Sto": 2742,
      "TR": 2743,
      "Tang": 2744,
      "Well": 2745,
      "blood": 2746,
      "cash": 2747,
      "ees": 2748,
      "fear": 2749,
      "mal": 2750,
      "mess": 2751,
      "ny": 2752,
      "oto": 2753,
      "py": 2754,
      "pite": 2755,
      "please": 2756,
      "sou": 2757,
      "sha": 2758,
      "vo": 2759,
      "vice": 2760,
      "ку": 2761,
      "фи": 2762,
      "inde": 2763,
      "inary": 2764,
      "inated": 2765,
      "independ": 2766,
      "reform": 2767,
      "atory": 2768,
      "atures": 2769,
      "orge": 2770,
      "style": 2771,
      "staff": 2772,
      "educ": 2773,
      "tom": 2774,
      "itself": 2775,
      "asing": 2776,
      "ille": 2777,
      "sec": 2778,
      "sem": 2779,
      "sey": 2780,
      "urning": 2781,
      "ote": 2782,
      "ots": 2783,
      "cell": 2784,
      "contract": 2785,
      "liqu": 2786,
      "lives": 2787,
      "suf": 2788,
      "ource": 2789,
      "poems": 2790,
      "plant": 2791,
      "dered": 2792,
      "saw": 2793,
      "safe": 2794,
      "evol": 2795,
      "Chopin": 2796,
      "iang": 2797,
      "grat": 2798,
      "prim": 2799,
      "anyone": 2800,
      "range": 2801,
      "poll": 2802,
      "gets": 2803,
      "ruary": 2804,
      "compet": 2805,
      "attention": 2806,
      "commit": 2807,
      "mostly": 2808,
      "ogn": 2809,
      "encour": 2810,
      "pharm": 2811,
      "region": 2812,
      "Alky": 2813,
      "books": 2814,
      "facts": 2815,
      "pointed": 2816,
      "lands": 2817,
      "general": 2818,
      "include": 2819,
      "talking": 2820,
      "laws": 2821,
      "famous": 2822,
      "extreme": 2823,
      "banks": 2824,
      "significant": 2825,
      "After": 2826,
      "court": 2827,
      "required": 2828,
      "arent": 2829,
      "drome": 2830,
      "тель": 2831,
      "covered": 2832,
      "demand": 2833,
      "ribing": 2834,
      "Comm": 2835,
      "мерика": 2836,
      "distr": 2837,
      "popular": 2838,
      "Agency": 2839,
      "hope": 2840,
      "ские": 2841,
      "Market": 2842,
      "Paul": 2843,
      "involved": 2844,
      "drugs": 2845,
      "federal": 2846,
      "communications": 2847,
      "particular": 2848,
      "analys": 2849,
      "beginning": 2850,
      "occasional": 2851,
      "pretty": 2852,
      "assault": 2853,
      "citizens": 2854,
      "experience": 2855,
      "Secretary": 2856,
      "February": 2857,
      "04": 2858,
      "99": 2859,
      "Brit": 2860,
      "Cour": 2861,
      "Em": 2862,
      "Gu": 2863,
      "Great": 2864,
      "Global": 2865,
      "Mor": 2866,
      "Nav": 2867,
      "Naz": 2868,
      "Ore": 2869,
      "Ra": 2870,
      "Su": 2871,
      "Wal": 2872,
      "ai": 2873,
      "band": 2874,
      "bom": 2875,
      "cir": 2876,
      "cross": 2877,
      "dam": 2878,
      "eth": 2879,
      "fail": 2880,
      "fav": 2881,
      "gave": 2882,
      "hur": 2883,
      "hate": 2884,
      "knew": 2885,
      "lap": 2886,
      "mas": 2887,
      "pet": 2888,
      "pred": 2889,
      "rich": 2890,
      "sens": 2891,
      "slow": 2892,
      "sense": 2893,
      "ufact": 2894,
      "wal": 2895,
      "wast": 2896,
      "дет": 2897,
      "ей": 2898,
      "жет": 2899,
      "ска": 2900,
      "inn": 2901,
      "anim": 2902,
      "rew": 2903,
      "released": 2904,
      "stant": 2905,
      "stick": 2906,
      "aries": 2907,
      "asc": 2908,
      "asons": 2909,
      "section": 2910,
      "select": 2911,
      "chall": 2912,
      "congrat": 2913,
      "agement": 2914,
      "respect": 2915,
      "dé": 2916,
      "comments": 2917,
      "pecial": 2918,
      "ulated": 2919,
      "load": 2920,
      "weap": 2921,
      "illions": 2922,
      "ounced": 2923,
      "mental": 2924,
      "notes": 2925,
      "rian": 2926,
      "ples": 2927,
      "aker": 2928,
      "whole": 2929,
      "udget": 2930,
      "ival": 2931,
      "iving": 2932,
      "prison": 2933,
      "presence": 2934,
      "teach": 2935,
      "Why": 2936,
      "recover": 2937,
      "recogn": 2938,
      "orders": 2939,
      "ibly": 2940,
      "encies": 2941,
      "obser": 2942,
      "нов": 2943,
      "раз": 2944,
      "ется": 2945,
      "crimes": 2946,
      "Force": 2947,
      "vision": 2948,
      "letters": 2949,
      "surpr": 2950,
      "lamines": 2951,
      "everyone": 2952,
      "records": 2953,
      "provided": 2954,
      "married": 2955,
      "started": 2956,
      "aware": 2957,
      "operating": 2958,
      "payments": 2959,
      "Indian": 2960,
      "holding": 2961,
      "majority": 2962,
      "BCE": 2963,
      "Liber": 2964,
      "purposes": 2965,
      "Grand": 2966,
      "claims": 2967,
      "лей": 2968,
      "sexual": 2969,
      "UFOs": 2970,
      "ения": 2971,
      "sources": 2972,
      "scientific": 2973,
      "levels": 2974,
      "subscribe": 2975,
      "subscribing": 2976,
      "girl": 2977,
      "critic": 2978,
      "western": 2979,
      "Association": 2980,
      "confirmed": 2981,
      "Namibia": 2982,
      "candidate": 2983,
      "Phil": 2984,
      "tribut": 2985,
      "PlayStation": 2986,
      "initial": 2987,
      "website": 2988,
      "Alkylamines": 2989,
      "BS": 2990,
      "Ber": 2991,
      "Bill": 2992,
      "Det": 2993,
      "Jef": 2994,
      "Mic": 2995,
      "March": 2996,
      "Public": 2997,
      "Right": 2998,
      "Ros": 2999,
      "Source": 3000,
      "UT": 3001,
      "bass": 3002,
      "bath": 3003,
      "cement": 3004,
      "crow": 3005,
      "een": 3006,
      "ech": 3007,
      "flow": 3008,
      "govern": 3009,
      "iation": 3010,
      "ium": 3011,
      "mis": 3012,
      "mid": 3013,
      "names": 3014,
      "ov": 3015,
      "path": 3016,
      "sor": 3017,
      "ux": 3018,
      "wise": 3019,
      "yond": 3020,
      "америка": 3021,
      "ем": 3022,
      "из": 3023,
      "он": 3024,
      "рд": 3025,
      "сле": 3026,
      "ют": 3027,
      "thinking": 3028,
      "repe": 3029,
      "refer": 3030,
      "revenue": 3031,
      "store": 3032,
      "stra": 3033,
      "alone": 3034,
      "arily": 3035,
      "iting": 3036,
      "omet": 3037,
      "below": 3038,
      "verify": 3039,
      "ows": 3040,
      "ctions": 3041,
      "opport": 3042,
      "comment": 3043,
      "haz": 3044,
      "atest": 3045,
      "ulate": 3046,
      "modrome": 3047,
      "ribut": 3048,
      "plor": 3049,
      "shall": 3050,
      "earth": 3051,
      "earch": 3052,
      "worst": 3053,
      "acks": 3054,
      "endment": 3055,
      "Thanks": 3056,
      "rav": 3057,
      "indic": 3058,
      "lled": 3059,
      "spent": 3060,
      "aving": 3061,
      "rule": 3062,
      "iple": 3063,
      "ension": 3064,
      "rend": 3065,
      "committed": 3066,
      "spect": 3067,
      "photo": 3068,
      "typ": 3069,
      "icted": 3070,
      "wanted": 3071,
      "prior": 3072,
      "leader": 3073,
      "although": 3074,
      "ASS": 3075,
      "ledge": 3076,
      "ITY": 3077,
      "shows": 3078,
      "operation": 3079,
      "corre": 3080,
      "happening": 3081,
      "director": 3082,
      "Police": 3083,
      "cases": 3084,
      "violent": 3085,
      "vote": 3086,
      "killed": 3087,
      "Road": 3088,
      "organiz": 3089,
      "STATE": 3090,
      "However": 3091,
      "scientists": 3092,
      "pianist": 3093,
      "profess": 3094,
      "building": 3095,
      "hundreds": 3096,
      "nesday": 3097,
      "college": 3098,
      "physical": 3099,
      "quarter": 3100,
      "George": 3101,
      "emergency": 3102,
      "России": 3103,
      "рублей": 3104,
      "reveal": 3105,
      "Wednesday": 3106,
      "clicking": 3107,
      "doubt": 3108,
      "Jewish": 3109,
      "Court": 3110,
      "Oreo": 3111,
      "favor": 3112,
      "06": 3113,
      "75": 3114,
      "AD": 3115,
      "Are": 3116,
      "Bur": 3117,
      "Beng": 3118,
      "Des": 3119,
      "Every": 3120,
      "Ho": 3121,
      "Net": 3122,
      "Nev": 3123,
      "NAS": 3124,
      "Pear": 3125,
      "RHP": 3126,
      "Sch": 3127,
      "Scott": 3128,
      "Tues": 3129,
      "WI": 3130,
      "billion": 3131,
      "budget": 3132,
      "cities": 3133,
      "coup": 3134,
      "eu": 3135,
      "eks": 3136,
      "ease": 3137,
      "fle": 3138,
      "ging": 3139,
      "gar": 3140,
      "hit": 3141,
      "iety": 3142,
      "mach": 3143,
      "na": 3144,
      "nations": 3145,
      "pict": 3146,
      "rates": 3147,
      "squ": 3148,
      "tic": 3149,
      "ги": 3150,
      "зи": 3151,
      "лрд": 3152,
      "млрд": 3153,
      "ор": 3154,
      "пра": 3155,
      "три": 3156,
      "ыва": 3157,
      "infor": 3158,
      "erve": 3159,
      "ancy": 3160,
      "rem": 3161,
      "repor": 3162,
      "replac": 3163,
      "ened": 3164,
      "enorm": 3165,
      "stri": 3166,
      "stood": 3167,
      "itch": 3168,
      "ases": 3169,
      "associ": 3170,
      "leak": 3171,
      "sequ": 3172,
      "ched": 3173,
      "chance": 3174,
      "igence": 3175,
      "utical": 3176,
      "conduct": 3177,
      "oph": 3178,
      "defin": 3179,
      "default": 3180,
      "istics": 3181,
      "exam": 3182,
      "apt": 3183,
      "sho": 3184,
      "Inval": 3185,
      "whose": 3186,
      "intell": 3187,
      "aceutical": 3188,
      "Animal": 3189,
      "novel": 3190,
      "someone": 3191,
      "aves": 3192,
      "series": 3193,
      "symp": 3194,
      "THIS": 3195,
      "phone": 3196,
      "calling": 3197,
      "throughout": 3198,
      "newsletter": 3199,
      "newsletters": 3200,
      "Alliance": 3201,
      "Newsletter": 3202,
      "systems": 3203,
      "Art": 3204,
      "Army": 3205,
      "additional": 3206,
      "League": 3207,
      "2008": 3208,
      "deter": 3209,
      "detailed": 3210,
      "decided": 3211,
      "leading": 3212,
      "RES": 3213,
      "accident": 3214,
      "father": 3215,
      "includes": 3216,
      "Green": 3217,
      "impact": 3218,
      "implement": 3219,
      "servative": 3220,
      "1983": 3221,
      "alien": 3222,
      "missed": 3223,
      "concert": 3224,
      "views": 3225,
      "Organ": 3226,
      "banking": 3227,
      "signed": 3228,
      "highly": 3229,
      "ALL": 3230,
      "writing": 3231,
      "ться": 3232,
      "clearly": 3233,
      "tradition": 3234,
      "directly": 3235,
      "telling": 3236,
      "atural": 3237,
      "received": 3238,
      "boro": 3239,
      "certainly": 3240,
      "dealing": 3241,
      "————": 3242,
      "increase": 3243,
      "Party": 3244,
      "PS4": 3245,
      "People": 3246,
      "girls": 3247,
      "charged": 3248,
      "robot": 3249,
      "International": 3250,
      "department": 3251,
      "Parker": 3252,
      "shopping": 3253,
      "Cosmodrome": 3254,
      "eyes": 3255,
      "Society": 3256,
      "amount": 3257,
      "necessary": 3258,
      "Bactr": 3259,
      "customers": 3260,
      "Richard": 3261,
      "Tuesday": 3262,
      "enormous": 3263,
      "Invalid": 3264,
      ".*": 3265,
      "80": 3266,
      "Ary": 3267,
      "BL": 3268,
      "Bu": 3269,
      "Budd": 3270,
      "CH": 3271,
      "Ca": 3272,
      "DER": 3273,
      "Er": 3274,
      "Econom": 3275,
      "FB": 3276,
      "Gold": 3277,
      "Har": 3278,
      "Hist": 3279,
      "Human": 3280,
      "IM": 3281,
      "Lou": 3282,
      "Mos": 3283,
      "NAT": 3284,
      "PO": 3285,
      "Sou": 3286,
      "VER": 3287,
      "Yes": 3288,
      "apo": 3289,
      "bing": 3290,
      "base": 3291,
      "cru": 3292,
      "da": 3293,
      "dig": 3294,
      "date": 3295,
      "doll": 3296,
      "east": 3297,
      "fol": 3298,
      "gest": 3299,
      "hon": 3300,
      "huge": 3301,
      "ique": 3302,
      "mist": 3303,
      "mail": 3304,
      "ners": 3305,
      "rup": 3306,
      "sad": 3307,
      "send": 3308,
      "six": 3309,
      "tour": 3310,
      "wife": 3311,
      "xit": 3312,
      "yed": 3313,
      "СШ": 3314,
      "бу": 3315,
      "ery": 3316,
      "remember": 3317,
      "ening": 3318,
      "stream": 3319,
      "alle": 3320,
      "edia": 3321,
      "especial": 3322,
      "oft": 3323,
      "arran": 3324,
      "arms": 3325,
      "ites": 3326,
      "asion": 3327,
      "hest": 3328,
      "illegal": 3329,
      "sets": 3330,
      "seven": 3331,
      "adm": 3332,
      "beat": 3333,
      "beaut": 3334,
      "owsk": 3335,
      "usion": 3336,
      "uters": 3337,
      "etc": 3338,
      "emot": 3339,
      "territ": 3340,
      "agan": 3341,
      "liver": 3342,
      "rial": 3343,
      "plans": 3344,
      "iful": 3345,
      "ume": 3346,
      "akers": 3347,
      "sauc": 3348,
      "dog": 3349,
      "Thom": 3350,
      "occup": 3351,
      "Char": 3352,
      "grad": 3353,
      "fees": 3354,
      "fection": 3355,
      "ports": 3356,
      "scious": 3357,
      "ishing": 3358,
      "assistance": 3359,
      "central": 3360,
      "viet": 3361,
      "стра": 3362,
      "speed": 3363,
      "speech": 3364,
      "INF": 3365,
      "Reuters": 3366,
      "flat": 3367,
      "background": 3368,
      "ducted": 3369,
      "ATM": 3370,
      "rown": 3371,
      "azir": 3372,
      "crimin": 3373,
      "booking": 3374,
      "inside": 3375,
      "needed": 3376,
      "setting": 3377,
      "longer": 3378,
      "Leader": 3379,
      "officers": 3380,
      "communities": 3381,
      "decide": 3382,
      "service": 3383,
      "Order": 3384,
      "Soviet": 3385,
      "green": 3386,
      "guy": 3387,
      "carried": 3388,
      "racist": 3389,
      "solute": 3390,
      "technical": 3391,
      "technology": 3392,
      "population": 3393,
      "Agenda": 3394,
      "wonder": 3395,
      "Service": 3396,
      "travel": 3397,
      "Book": 3398,
      "Research": 3399,
      "piano": 3400,
      "Franc": 3401,
      "horri": 3402,
      "ARTICLE": 3403,
      "gressive": 3404,
      "strategy": 3405,
      "debate": 3406,
      "Benazir": 3407,
      "William": 3408,
      "Crime": 3409,
      "doctr": 3410,
      "McC": 3411,
      "morning": 3412,
      "abductions": 3413,
      "reactor": 3414,
      "town": 3415,
      "immediately": 3416,
      "TAK": 3417,
      "copy": 3418,
      "language": 3419,
      "susp": 3420,
      "graph": 3421,
      "draw": 3422,
      "published": 3423,
      "football": 3424,
      "animals": 3425,
      "американ": 3426,
      "hazi": 3427,
      "Benghazi": 3428,
      "Pearl": 3429,
      "couple": 3430,
      "США": 3431,
      "especially": 3432,
      "!!": 3433,
      ",''": 3434,
      "01": 3435,
      "Act": 3436,
      "DB": 3437,
      "Fact": 3438,
      "Follow": 3439,
      "King": 3440,
      "Lo": 3441,
      "Let": 3442,
      "Lew": 3443,
      "Mag": 3444,
      "Ne": 3445,
      "NSA": 3446,
      "Over": 3447,
      "Our": 3448,
      "Out": 3449,
      "PRO": 3450,
      "Rev": 3451,
      "Sw": 3452,
      "SAN": 3453,
      "Tom": 3454,
      "Tickets": 3455,
      "UM": 3456,
      "VD": 3457,
      "VE": 3458,
      "Vo": 3459,
      "Vost": 3460,
      "WC": 3461,
      "Zor": 3462,
      "burn": 3463,
      "blog": 3464,
      "cing": 3465,
      "cum": 3466,
      "fell": 3467,
      "ght": 3468,
      "hms": 3469,
      "house": 3470,
      "ients": 3471,
      "mix": 3472,
      "ochn": 3473,
      "paren": 3474,
      "round": 3475,
      "rants": 3476,
      "ses": 3477,
      "sion": 3478,
      "swe": 3479,
      "spr": 3480,
      "tor": 3481,
      "uel": 3482,
      "uff": 3483,
      "ya": 3484,
      "ба": 3485,
      "гла": 3486,
      "лу": 3487,
      "ну": 3488,
      "thro": 3489,
      "iny": 3490,
      "ering": 3491,
      "ani": 3492,
      "ancient": 3493,
      "onto": 3494,
      "reated": 3495,
      "release": 3496,
      "atically": 3497,
      "star": 3498,
      "stren": 3499,
      "stock": 3500,
      "toms": 3501,
      "icide": 3502,
      "icles": 3503,
      "lege": 3504,
      "accur": 3505,
      "ilt": 3506,
      "sect": 3507,
      "secut": 3508,
      "veh": 3509,
      "idel": 3510,
      "lyn": 3511,
      "role": 3512,
      "forts": 3513,
      "imag": 3514,
      "ays": 3515,
      "usually": 3516,
      "ota": 3517,
      "contr": 3518,
      "conference": 3519,
      "agency": 3520,
      "agreed": 3521,
      "absolute": 3522,
      "neigh": 3523,
      "hain": 3524,
      "track": 3525,
      "truck": 3526,
      "ull": 3527,
      "weeks": 3528,
      "illing": 3529,
      "sue": 3530,
      "ains": 3531,
      "prop": 3532,
      "poor": 3533,
      "applic": 3534,
      "shut": 3535,
      "shoc": 3536,
      "antic": 3537,
      "elimin": 3538,
      "artment": 3539,
      "ques": 3540,
      "saf": 3541,
      "manufact": 3542,
      "ously": 3543,
      "offensive": 3544,
      "ruz": 3545,
      "ensboro": 3546,
      "Concer": 3547,
      "Obam": 3548,
      "county": 3549,
      "center": 3550,
      "rent": 3551,
      "attit": 3552,
      "Under": 3553,
      "internet": 3554,
      "cook": 3555,
      "sych": 3556,
      "knows": 3557,
      "THAT": 3558,
      "object": 3559,
      "Rec": 3560,
      "ONE": 3561,
      "том": 3562,
      "learned": 3563,
      "ushTarget": 3564,
      "terson": 3565,
      "warning": 3566,
      "version": 3567,
      "ORY": 3568,
      "decades": 3569,
      "relative": 3570,
      "standards": 3571,
      "marri": 3572,
      "marks": 3573,
      "included": 3574,
      "imately": 3575,
      "reality": 3576,
      "appeared": 3577,
      "greatest": 3578,
      "ные": 3579,
      "ный": 3580,
      "Project": 3581,
      "meetup": 3582,
      "apparent": 3583,
      "witness": 3584,
      "tape": 3585,
      "northern": 3586,
      "network": 3587,
      "classified": 3588,
      "killing": 3589,
      "Carl": 3590,
      "changed": 3591,
      "Western": 3592,
      "citing": 3593,
      "increasing": 3594,
      "Turk": 3595,
      "employment": 3596,
      "shares": 3597,
      "giving": 3598,
      "stitution": 3599,
      "1970": 3600,
      "destro": 3601,
      "specific": 3602,
      "biological": 3603,
      "FlushTarget": 3604,
      "incident": 3605,
      "documents": 3606,
      "function": 3607,
      "magazine": 3608,
      "Paris": 3609,
      "Romney": 3610,
      "migration": 3611,
      "practice": 3612,
      "Patterson": 3613,
      "responsible": 3614,
      "Central": 3615,
      "exactly": 3616,
      "completely": 3617,
      "religious": 3618,
      "credit": 3619,
      "title": 3620,
      "construction": 3621,
      "hospital": 3622,
      "refugees": 3623,
      "continued": 3624,
      "simply": 3625,
      "conflict": 3626,
      "dropped": 3627,
      "Brahms": 3628,
      "message": 3629,
      "liquid": 3630,
      "suffer": 3631,
      "Jeff": 3632,
      "bathroom": 3633,
      "crowd": 3634,
      "NASA": 3635,
      "WITH": 3636,
      "symptoms": 3637,
      "Vostochn": 3638,
      "streng": 3639,
      "Vostochny": 3640,
      "):": 3641,
      "02": 3642,
      "49": 3643,
      "Ap": 3644,
      "Bre": 3645,
      "Bel": 3646,
      "Both": 3647,
      "Che": 3648,
      "Care": 3649,
      "Don": 3650,
      "Dame": 3651,
      "During": 3652,
      "Ener": 3653,
      "Found": 3654,
      "HL": 3655,
      "Ke": 3656,
      "Ko": 3657,
      "Long": 3658,
      "Mountain": 3659,
      "NA": 3660,
      "Off": 3661,
      "PD": 3662,
      "PH": 3663,
      "Pet": 3664,
      "Power": 3665,
      "QU": 3666,
      "Red": 3667,
      "SO": 3668,
      "Sa": 3669,
      "Saudi": 3670,
      "TE": 3671,
      "TV": 3672,
      "Tra": 3673,
      "Von": 3674,
      "Yu": 3675,
      "Yet": 3676,
      "ax": 3677,
      "bury": 3678,
      "battle": 3679,
      "cks": 3680,
      "dyn": 3681,
      "eper": 3682,
      "fast": 3683,
      "gon": 3684,
      "gent": 3685,
      "gone": 3686,
      "iar": 3687,
      "mand": 3688,
      "mine": 3689,
      "mbol": 3690,
      "middle": 3691,
      "ple": 3692,
      "patter": 3693,
      "ring": 3694,
      "rout": 3695,
      "size": 3696,
      "text": 3697,
      "target": 3698,
      "trend": 3699,
      "ube": 3700,
      "vention": 3701,
      "yan": 3702,
      "zy": 3703,
      "Си": 3704,
      "бе": 3705,
      "ден": 3706,
      "джет": 3707,
      "она": 3708,
      "пе": 3709,
      "пу": 3710,
      "су": 3711,
      "юджет": 3712,
      "”,": 3713,
      "thus": 3714,
      "rebe": 3715,
      "restr": 3716,
      "revol": 3717,
      "stre": 3718,
      "stoc": 3719,
      "stated": 3720,
      "step": 3721,
      "alt": 3722,
      "alleg": 3723,
      "itals": 3724,
      "assu": 3725,
      "ently": 3726,
      "acare": 3727,
      "accoun": 3728,
      "sea": 3729,
      "ador": 3730,
      "adem": 3731,
      "ida": 3732,
      "beyond": 3733,
      "owitz": 3734,
      "ige": 3735,
      "Their": 3736,
      "ager": 3737,
      "agencies": 3738,
      "del": 3739,
      "trust": 3740,
      "wasn": 3741,
      "explor": 3742,
      "mentioned": 3743,
      "pool": 3744,
      "2000": 3745,
      "pled": 3746,
      "hasn": 3747,
      "qui": 3748,
      "quot": 3749,
      "perfect": 3750,
      "worse": 3751,
      "Three": 3752,
      "udes": 3753,
      "Chry": 3754,
      "meant": 3755,
      "195": 3756,
      "1960": 3757,
      "pron": 3758,
      "pressure": 3759,
      "Where": 3760,
      "board": 3761,
      "spending": 3762,
      "efforts": 3763,
      "achie": 3764,
      "ippy": 3765,
      "compared": 3766,
      "cents": 3767,
      "centers": 3768,
      "parties": 3769,
      "crew": 3770,
      "monitor": 3771,
      "tainment": 3772,
      "yourself": 3773,
      "ети": 3774,
      "crash": 3775,
      "collect": 3776,
      "hood": 3777,
      "memo": 3778,
      "Click": 3779,
      "Dead": 3780,
      "Leban": 3781,
      "officer": 3782,
      "final": 3783,
      "decade": 3784,
      "related": 3785,
      "RECT": 3786,
      "Because": 3787,
      "Greensboro": 3788,
      "invasion": 3789,
      "concerned": 3790,
      "numbers": 3791,
      "grew": 3792,
      "carry": 3793,
      "followed": 3794,
      "studies": 3795,
      "students": 3796,
      "льно": 3797,
      "society": 3798,
      "requires": 3799,
      "corpor": 3800,
      "value": 3801,
      "Execut": 3802,
      "holds": 3803,
      "breaking": 3804,
      "smart": 3805,
      "broke": 3806,
      "allowed": 3807,
      "allowing": 3808,
      "purpose": 3809,
      "tells": 3810,
      "ACK": 3811,
      "County": 3812,
      "Group": 3813,
      "facility": 3814,
      "businesses": 3815,
      "born": 3816,
      "Notre": 3817,
      "sler": 3818,
      "plicit": 3819,
      "virus": 3820,
      "protection": 3821,
      "terrorist": 3822,
      "advant": 3823,
      "Meet": 3824,
      "retail": 3825,
      "stitute": 3826,
      "France": 3827,
      "authority": 3828,
      "authorities": 3829,
      "designed": 3830,
      "Black": 3831,
      "successful": 3832,
      "ULD": 3833,
      "charges": 3834,
      "launched": 3835,
      "easy": 3836,
      "panic": 3837,
      "stead": 3838,
      "heavy": 3839,
      "migrants": 3840,
      "ской": 3841,
      "Brook": 3842,
      "Kushner": 3843,
      "DIRECT": 3844,
      "Holder": 3845,
      "higher": 3846,
      "пред": 3847,
      "experts": 3848,
      "established": 3849,
      "survey": 3850,
      "Kuwait": 3851,
      "focus": 3852,
      "produced": 3853,
      "largest": 3854,
      "treatment": 3855,
      "shirts": 3856,
      "которы": 3857,
      "believes": 3858,
      "Department": 3859,
      "secure": 3860,
      "pharmaceutical": 3861,
      "district": 3862,
      "Navy": 3863,
      "challeng": 3864,
      "weapons": 3865,
      "Organization": 3866,
      "FBI": 3867,
      "Francis": 3868,
      "safety": 3869,
      "Obamacare": 3870,
      "Chrysler": 3871,
      "achieve": 3872,
      "Executive": 3873,
      ".'": 3874,
      "08": 3875,
      "Back": 3876,
      "Buck": 3877,
      "CDC": 3878,
      "Fin": 3879,
      "Far": 3880,
      "Fren": 3881,
      "Gard": 3882,
      "Has": 3883,
      "IO": 3884,
      "Ir": 3885,
      "IES": 3886,
      "James": 3887,
      "Jiang": 3888,
      "LA": 3889,
      "Land": 3890,
      "NC": 3891,
      "Na": 3892,
      "Never": 3893,
      "Nuclear": 3894,
      "Oh": 3895,
      "PE": 3896,
      "Prav": 3897,
      "Ru": 3898,
      "Ret": 3899,
      "Rel": 3900,
      "Sur": 3901,
      "Sem": 3902,
      "Ti": 3903,
      "Tro": 3904,
      "Tex": 3905,
      "UK": 3906,
      "cold": 3907,
      "dream": 3908,
      "ee": 3909,
      "fine": 3910,
      "gment": 3911,
      "gives": 3912,
      "hill": 3913,
      "ias": 3914,
      "iot": 3915,
      "ike": 3916,
      "iated": 3917,
      "kins": 3918,
      "mad": 3919,
      "mere": 3920,
      "mical": 3921,
      "mph": 3922,
      "millions": 3923,
      "none": 3924,
      "ores": 3925,
      "page": 3926,
      "paper": 3927,
      "san": 3928,
      "snow": 3929,
      "south": 3930,
      "ti": 3931,
      "wild": 3932,
      "za": 3933,
      "ак": 3934,
      "бюджет": 3935,
      "ды": 3936,
      "дно": 3937,
      "жа": 3938,
      "сь": 3939,
      "ту": 3940,
      "ши": 3941,
      "thur": 3942,
      "inet": 3943,
      "inks": 3944,
      "infected": 3945,
      "ange": 3946,
      "ona": 3947,
      "rele": 3948,
      "reasons": 3949,
      "enomen": 3950,
      "stone": 3951,
      "storm": 3952,
      "alter": 3953,
      "ingly": 3954,
      "tot": 3955,
      "tocol": 3956,
      "itter": 3957,
      "ented": 3958,
      "accom": 3959,
      "iled": 3960,
      "ilos": 3961,
      "bel": 3962,
      "roll": 3963,
      "amines": 3964,
      "ims": 3965,
      "owers": 3966,
      "ching": 3967,
      "usband": 3968,
      "utions": 3969,
      "cele": 3970,
      "concl": 3971,
      "concent": 3972,
      "conscious": 3973,
      "terms": 3974,
      "cture": 3975,
      "agenda": 3976,
      "resol": 3977,
      "resist": 3978,
      "defe": 3979,
      "deploy": 3980,
      "nell": 3981,
      "ateg": 3982,
      "suit": 3983,
      "outside": 3984,
      "note": 3985,
      "riot": 3986,
      "ript": 3987,
      "appointed": 3988,
      "plom": 3989,
      "actual": 3990,
      "estic": 3991,
      "estim": 3992,
      "quir": 3993,
      "quick": 3994,
      "quality": 3995,
      "asty": 3996,
      "bling": 3997,
      "bles": 3998,
      "oret": 3999,
      "2010": 4000,
      "2018": 4001,
      "eval": 4002,
      "Though": 4003,
      "raised": 4004,
      "feed": 4005,
      "196": 4006,
      "price": 4007,
      "prices": 4008,
      "presents": 4009,
      "readwell": 4010,
      "boy": 4011,
      "goal": 4012,
      "Ang": 4013,
      "Another": 4014,
      "redu": 4015,
      "ishes": 4016,
      "avo": 4017,
      "eful": 4018,
      "Constitution": 4019,
      "attend": 4020,
      "partner": 4021,
      "Union": 4022,
      "create": 4023,
      "symbol": 4024,
      "prep": 4025,
      "knowledge": 4026,
      "ogle": 4027,
      "ogue": 4028,
      "phenomen": 4029,
      "philos": 4030,
      "Reg": 4031,
      "Reid": 4032,
      "Released": 4033,
      "Nothing": 4034,
      "icked": 4035,
      "monaut": 4036,
      "рова": 4037,
      "ATT": 4038,
      "regions": 4039,
      "regime": 4040,
      "limited": 4041,
      "ampion": 4042,
      "maintain": 4043,
      "Second": 4044,
      "colon": 4045,
      "submission": 4046,
      "ighters": 4047,
      "plays": 4048,
      "года": 4049,
      "Arthur": 4050,
      "memory": 4051,
      "looked": 4052,
      "2003": 4053,
      "finally": 4054,
      "decision": 4055,
      "seek": 4056,
      "Plan": 4057,
      "вой": 4058,
      "faith": 4059,
      "marked": 4060,
      "happy": 4061,
      "Enter": 4062,
      "Grexit": 4063,
      "1980": 4064,
      "showing": 4065,
      "closed": 4066,
      "concerto": 4067,
      "controls": 4068,
      "Only": 4069,
      "radical": 4070,
      "supporting": 4071,
      "broken": 4072,
      "hands": 4073,
      "Polit": 4074,
      "Spain": 4075,
      "faced": 4076,
      "normal": 4077,
      "Comp": 4078,
      "histor": 4079,
      "violence": 4080,
      "distribut": 4081,
      "cultural": 4082,
      "difference": 4083,
      "translation": 4084,
      "translations": 4085,
      "friends": 4086,
      "African": 4087,
      "feeling": 4088,
      "Robert": 4089,
      "basis": 4090,
      "mutilation": 4091,
      "инф": 4092,
      "continues": 4093,
      "Paige": 4094,
      "announ": 4095,
      "proposal": 4096,
      "expand": 4097,
      "hardly": 4098,
      "radioactive": 4099,
      "judges": 4100,
      "existence": 4101,
      "strateg": 4102,
      "investigation": 4103,
      "suggests": 4104,
      "declared": 4105,
      "Corpor": 4106,
      "----------------": 4107,
      "combined": 4108,
      "property": 4109,
      "Horowitz": 4110,
      "hours": 4111,
      "discussion": 4112,
      "felt": 4113,
      "highest": 4114,
      "Study": 4115,
      "Sharpe": 4116,
      "regarding": 4117,
      "expressed": 4118,
      "blocked": 4119,
      "senior": 4120,
      "schol": 4121,
      "familiar": 4122,
      "potential": 4123,
      "troops": 4124,
      "essentially": 4125,
      "indeed": 4126,
      "Nazi": 4127,
      "waste": 4128,
      "correct": 4129,
      "organizational": 4130,
      "informed": 4131,
      "Mosul": 4132,
      "NATO": 4133,
      "rupt": 4134,
      "doctrine": 4135,
      "Voice": 4136,
      "Turkish": 4137,
      "Energy": 4138,
      "Vonage": 4139,
      "pleas": 4140,
      "French": 4141,
      "36": 4142,
      "300": 4143,
      "43": 4144,
      "77": 4145,
      "78": 4146,
      "Bet": 4147,
      "Bern": 4148,
      "Bapt": 4149,
      "Cit": 4150,
      "Cub": 4151,
      "Def": 4152,
      "Direct": 4153,
      "DVD": 4154,
      "Emp": 4155,
      "Fe": 4156,
      "Fla": 4157,
      "GB": 4158,
      "Get": 4159,
      "Hu": 4160,
      "IF": 4161,
      "Ill": 4162,
      "Kel": 4163,
      "Las": 4164,
      "Lear": 4165,
      "Lyn": 4166,
      "NE": 4167,
      "NBC": 4168,
      "OS": 4169,
      "SH": 4170,
      "Sor": 4171,
      "Sing": 4172,
      "Sha": 4173,
      "Spe": 4174,
      "Sci": 4175,
      "TY": 4176,
      "URES": 4177,
      "VID": 4178,
      "Vatic": 4179,
      "Wood": 4180,
      "Year": 4181,
      "bon": 4182,
      "borders": 4183,
      "cul": 4184,
      "dim": 4185,
      "div": 4186,
      "ez": 4187,
      "eight": 4188,
      "eign": 4189,
      "fat": 4190,
      "fis": 4191,
      "fres": 4192,
      "flo": 4193,
      "hi": 4194,
      "han": 4195,
      "hang": 4196,
      "husband": 4197,
      "ipe": 4198,
      "mir": 4199,
      "nut": 4200,
      "nature": 4201,
      "natural": 4202,
      "oven": 4203,
      "pun": 4204,
      "paid": 4205,
      "psych": 4206,
      "rom": 4207,
      "smo": 4208,
      "sover": 4209,
      "sla": 4210,
      "treated": 4211,
      "ü": 4212,
      "vin": 4213,
      "vac": 4214,
      "yl": 4215,
      "yest": 4216,
      "По": 4217,
      "вл": 4218,
      "вре": 4219,
      "все": 4220,
      "дни": 4221,
      "зна": 4222,
      "мен": 4223,
      "ря": 4224,
      "”.": 4225,
      "era": 4226,
      "erday": 4227,
      "erry": 4228,
      "anced": 4229,
      "theast": 4230,
      "removed": 4231,
      "aters": 4232,
      "attract": 4233,
      "orters": 4234,
      "orida": 4235,
      "station": 4236,
      "street": 4237,
      "edon": 4238,
      "ouble": 4239,
      "toler": 4240,
      "ofthe": 4241,
      "armed": 4242,
      "army": 4243,
      "iced": 4244,
      "enty": 4245,
      "aced": 4246,
      "iling": 4247,
      "separ": 4248,
      "iden": 4249,
      "iders": 4250,
      "idency": 4251,
      "ami": 4252,
      "iment": 4253,
      "olf": 4254,
      "older": 4255,
      "verpool": 4256,
      "cha": 4257,
      "ationship": 4258,
      "unk": 4259,
      "univers": 4260,
      "conducted": 4261,
      "ares": 4262,
      "ope": 4263,
      "opp": 4264,
      "oppos": 4265,
      "deeper": 4266,
      "haven": 4267,
      "traf": 4268,
      "trater": 4269,
      "lif": 4270,
      "fraud": 4271,
      "modest": 4272,
      "wear": 4273,
      "weather": 4274,
      "ills": 4275,
      "suicide": 4276,
      "proceed": 4277,
      "production": 4278,
      "extra": 4279,
      "ries": 4280,
      "shot": 4281,
      "shif": 4282,
      "shown": 4283,
      "umb": 4284,
      "hase": 4285,
      "Institute": 4286,
      "Instead": 4287,
      "astic": 4288,
      "acknow": 4289,
      "blame": 4290,
      "2011": 4291,
      "manip": 4292,
      "raise": 4293,
      "newsp": 4294,
      "portion": 4295,
      "1950": 4296,
      "tee": 4297,
      "teen": 4298,
      "autom": 4299,
      "scale": 4300,
      "spot": 4301,
      "sphere": 4302,
      "identified": 4303,
      "affected": 4304,
      "anyway": 4305,
      "discover": 4306,
      "disease": 4307,
      "hero": 4308,
      "ulture": 4309,
      "rub": 4310,
      "vior": 4311,
      "justice": 4312,
      "anger": 4313,
      "syn": 4314,
      "сть": 4315,
      "previous": 4316,
      "instit": 4317,
      "Issue": 4318,
      "ISS": 4319,
      "despite": 4320,
      "brings": 4321,
      "ров": 4322,
      "росси": 4323,
      "regul": 4324,
      "rowser": 4325,
      "mainstream": 4326,
      "USB": 4327,
      "Develop": 4328,
      "residents": 4329,
      "gender": 4330,
      "genoc": 4331,
      "поли": 4332,
      "looks": 4333,
      "рии": 4334,
      "elected": 4335,
      "2004": 4336,
      "2007": 4337,
      "2009": 4338,
      "relationship": 4339,
      "Shi": 4340,
      "каки": 4341,
      "turns": 4342,
      "Beeth": 4343,
      "muslim": 4344,
      "consult": 4345,
      "planned": 4346,
      "restrial": 4347,
      "possibly": 4348,
      "engine": 4349,
      "1987": 4350,
      "concern": 4351,
      "numerous": 4352,
      "paralle": 4353,
      "percentage": 4354,
      "pressed": 4355,
      "pression": 4356,
      "awa": 4357,
      "guess": 4358,
      "student": 4359,
      "choose": 4360,
      "topic": 4361,
      "politics": 4362,
      "ECT": 4363,
      "supports": 4364,
      "brother": 4365,
      "дов": 4366,
      "Liverpool": 4367,
      "Allah": 4368,
      "purch": 4369,
      "sites": 4370,
      "statistics": 4371,
      "appropri": 4372,
      "rising": 4373,
      "логи": 4374,
      "biggest": 4375,
      "cultures": 4376,
      "growing": 4377,
      "results": 4378,
      "Signed": 4379,
      "drove": 4380,
      "hopes": 4381,
      "stopped": 4382,
      "Early": 4383,
      "Eastern": 4384,
      "ricane": 4385,
      "ских": 4386,
      "College": 4387,
      "write": 4388,
      "places": 4389,
      "medieval": 4390,
      "career": 4391,
      "Medic": 4392,
      "Florida": 4393,
      "scandals": 4394,
      "radioactivity": 4395,
      "Google": 4396,
      "fundam": 4397,
      "nesota": 4398,
      "pieces": 4399,
      "audience": 4400,
      "********************************": 4401,
      "Minnesota": 4402,
      "Persian": 4403,
      "watching": 4404,
      "About": 4405,
      "departments": 4406,
      "figure": 4407,
      "losses": 4408,
      "individuals": 4409,
      "immediate": 4410,
      "murdered": 4411,
      "describes": 4412,
      "Perhaps": 4413,
      "journalists": 4414,
      "connect": 4415,
      "benefit": 4416,
      "Karp": 4417,
      "Samhain": 4418,
      "1947": 4419,
      "Federal": 4420,
      "humans": 4421,
      "лливу": 4422,
      "influence": 4423,
      "anonymising": 4424,
      "weakness": 4425,
      "financial": 4426,
      "Commun": 4427,
      "analysis": 4428,
      "Rahim": 4429,
      "failure": 4430,
      "Details": 4431,
      "repeated": 4432,
      "straight": 4433,
      "ometimes": 4434,
      "opportunity": 4435,
      "shoot": 4436,
      "intelligence": 4437,
      "Article": 4438,
      "Aryans": 4439,
      "eastern": 4440,
      "folks": 4441,
      "arranged": 4442,
      "livered": 4443,
      "Crimea": 4444,
      "Zoro": 4445,
      "parents": 4446,
      "neighbor": 4447,
      "Concerto": 4448,
      "attitudes": 4449,
      "marriage": 4450,
      "gonna": 4451,
      "accounts": 4452,
      "Pravda": 4453,
      "Texas": 4454,
      "Empire": 4455,
      "Kelly": 4456,
      "sovereign": 4457,
      "yesterday": 4458,
      "traffic": 4459,
      "Beethoven": 4460,
      "/£": 4461,
      "32": 4462,
      "33": 4463,
      "51": 4464,
      "7pm": 4465,
      "90": 4466,
      "95": 4467,
      "Bus": 4468,
      "Bob": 4469,
      "Bost": 4470,
      "CA": 4471,
      "Cir": 4472,
      "Call": 4473,
      "Cruz": 4474,
      "Die": 4475,
      "EX": 4476,
      "Fire": 4477,
      "Grec": 4478,
      "High": 4479,
      "IED": 4480,
      "Jes": 4481,
      "Jim": 4482,
      "Jade": 4483,
      "Kore": 4484,
      "Knight": 4485,
      "LY": 4486,
      "La": 4487,
      "Lake": 4488,
      "Mer": 4489,
      "Mal": 4490,
      "Mil": 4491,
      "Met": 4492,
      "Mass": 4493,
      "MAY": 4494,
      "Ok": 4495,
      "Os": 4496,
      "Open": 4497,
      "Rad": 4498,
      "Ram": 4499,
      "Ritual": 4500,
      "Rippy": 4501,
      "Snow": 4502,
      "Sass": 4503,
      "Such": 4504,
      "SHO": 4505,
      "TI": 4506,
      "Ta": 4507,
      "Tw": 4508,
      "Talk": 4509,
      "Var": 4510,
      "Video": 4511,
      "Wall": 4512,
      "Watch": 4513,
      "Yan": 4514,
      "Zh": 4515,
      "aver": 4516,
      "ahead": 4517,
      "bes": 4518,
      "bab": 4519,
      "bart": 4520,
      "bran": 4521,
      "card": 4522,
      "dire": 4523,
      "dark": 4524,
      "die": 4525,
      "daily": 4526,
      "daugh": 4527,
      "fal": 4528,
      "fif": 4529,
      "fought": 4530,
      "fasc": 4531,
      "fighters": 4532,
      "groom": 4533,
      "hran": 4534,
      "hib": 4535,
      "iest": 4536,
      "ihad": 4537,
      "iques": 4538,
      "jail": 4539,
      "las": 4540,
      "lack": 4541,
      "mat": 4542,
      "mans": 4543,
      "march": 4544,
      "mouth": 4545,
      "master": 4546,
      "nik": 4547,
      "oil": 4548,
      "pa": 4549,
      "pack": 4550,
      "rig": 4551,
      "sight": 4552,
      "tun": 4553,
      "tone": 4554,
      "tend": 4555,
      "uke": 4556,
      "via": 4557,
      "vari": 4558,
      "ville": 4559,
      "walk": 4560,
      "yes": 4561,
      "zen": 4562,
      "Го": 4563,
      "ар": 4564,
      "вер": 4565,
      "вля": 4566,
      "ес": 4567,
      "жи": 4568,
      "зыва": 4569,
      "щи": 4570,
      "’.": 4571,
      "throw": 4572,
      "infection": 4573,
      "erc": 4574,
      "ana": 4575,
      "theid": 4576,
      "reli": 4577,
      "reject": 4578,
      "returned": 4579,
      "represents": 4580,
      "atmo": 4581,
      "ender": 4582,
      "enjo": 4583,
      "sts": 4584,
      "stances": 4585,
      "outr": 4586,
      "isk": 4587,
      "isol": 4588,
      "icial": 4589,
      "lected": 4590,
      "aces": 4591,
      "seat": 4592,
      "beha": 4593,
      "belong": 4594,
      "improve": 4595,
      "chos": 4596,
      "champion": 4597,
      "urers": 4598,
      "utral": 4599,
      "etic": 4600,
      "unf": 4601,
      "convers": 4602,
      "irs": 4603,
      "opposed": 4604,
      "resour": 4605,
      "comfort": 4606,
      "trib": 4607,
      "lie": 4608,
      "atever": 4609,
      "alls": 4610,
      "mob": 4611,
      "illa": 4612,
      "sud": 4613,
      "explan": 4614,
      "kept": 4615,
      "noted": 4616,
      "rief": 4617,
      "apol": 4618,
      "plus": 4619,
      "shi": 4620,
      "essions": 4621,
      "ifically": 4622,
      "anted": 4623,
      "antly": 4624,
      "ellect": 4625,
      "Invest": 4626,
      "arts": 4627,
      "perce": 4628,
      "perhaps": 4629,
      "door": 4630,
      "enders": 4631,
      "clar": 4632,
      "managed": 4633,
      "ightly": 4634,
      "Those": 4635,
      "intellect": 4636,
      "Ste": 4637,
      "Star": 4638,
      "Still": 4639,
      "fee": 4640,
      "prime": 4641,
      "proud": 4642,
      "presidency": 4643,
      "boys": 4644,
      "gov": 4645,
      "willing": 4646,
      "Ann": 4647,
      "otherwise": 4648,
      "affect": 4649,
      "Italy": 4650,
      "noon": 4651,
      "disaster": 4652,
      "dismissed": 4653,
      "ipment": 4654,
      "Conservative": 4655,
      "Head": 4656,
      "complex": 4657,
      "lah": 4658,
      "Trans": 4659,
      "myself": 4660,
      "myster": 4661,
      "ств": 4662,
      "prevent": 4663,
      "previously": 4664,
      "obvious": 4665,
      "obtained": 4666,
      "athers": 4667,
      "instance": 4668,
      "IST": 4669,
      "Nov": 4670,
      "bril": 4671,
      "duce": 4672,
      "regional": 4673,
      "useum": 4674,
      "ERE": 4675,
      "See": 4676,
      "Section": 4677,
      "learn": 4678,
      "crime": 4679,
      "color": 4680,
      "collap": 4681,
      "transport": 4682,
      "transmission": 4683,
      "ission": 4684,
      "Arch": 4685,
      "addition": 4686,
      "Club": 4687,
      "leted": 4688,
      "после": 4689,
      "Symph": 4690,
      "Administration": 4691,
      "cutting": 4692,
      "capt": 4693,
      "built": 4694,
      "leads": 4695,
      "blacks": 4696,
      "seeing": 4697,
      "providing": 4698,
      "planning": 4699,
      "possibility": 4700,
      "Chris": 4701,
      "appeal": 4702,
      "заци": 4703,
      "signs": 4704,
      "сист": 4705,
      "так": 4706,
      "Once": 4707,
      "choice": 4708,
      "UNCL": 4709,
      "paying": 4710,
      "writes": 4711,
      "ECB": 4712,
      "apped": 4713,
      "Liby": 4714,
      "Like": 4715,
      "handle": 4716,
      "fortun": 4717,
      "strugg": 4718,
      "Space": 4719,
      "facing": 4720,
      "severe": 4721,
      "claimed": 4722,
      "helped": 4723,
      "тив": 4724,
      "passed": 4725,
      "voters": 4726,
      "virt": 4727,
      "drop": 4728,
      "promot": 4729,
      "ение": 4730,
      "terrorists": 4731,
      "terrorism": 4732,
      "Ukrainian": 4733,
      "advoc": 4734,
      "advance": 4735,
      "developed": 4736,
      "interests": 4737,
      "interesting": 4738,
      "Marx": 4739,
      "Norway": 4740,
      "basic": 4741,
      "Among": 4742,
      "Amendment": 4743,
      "placed": 4744,
      "CONTR": 4745,
      "kyl": 4746,
      "employees": 4747,
      "medicines": 4748,
      "burning": 4749,
      "caused": 4750,
      "eventually": 4751,
      "clean": 4752,
      "profits": 4753,
      "effectively": 4754,
      "understanding": 4755,
      "proposals": 4756,
      "attempted": 4757,
      "guns": 4758,
      "summer": 4759,
      "bringing": 4760,
      "Peace": 4761,
      "protests": 4762,
      "Barack": 4763,
      "Management": 4764,
      "supplies": 4765,
      "costs": 4766,
      "audiences": 4767,
      "critical": 4768,
      "driving": 4769,
      "Tehran": 4770,
      "rapid": 4771,
      "ETAN": 4772,
      "Imper": 4773,
      "spoken": 4774,
      "reached": 4775,
      "Horse": 4776,
      "figures": 4777,
      "fighting": 4778,
      "Cosmonaut": 4779,
      "literally": 4780,
      "leadership": 4781,
      "AFSA": 4782,
      "URITY": 4783,
      "Student": 4784,
      "argument": 4785,
      "described": 4786,
      "introduc": 4787,
      "priests": 4788,
      "GOP": 4789,
      "measure": 4790,
      "television": 4791,
      "SECURITY": 4792,
      "materials": 4793,
      "families": 4794,
      "Wiki": 4795,
      "anonymous": 4796,
      "southern": 4797,
      "independent": 4798,
      "educated": 4799,
      "British": 4800,
      "Super": 4801,
      "innoc": 4802,
      "recognize": 4803,
      "Liberia": 4804,
      "tributed": 4805,
      "flowers": 4806,
      "picture": 4807,
      "associated": 4808,
      "Bactria": 4809,
      "Histor": 4810,
      "apore": 4811,
      "будет": 4812,
      "beautiful": 4813,
      "criminal": 4814,
      "Williams": 4815,
      "Swed": 4816,
      "mixed": 4817,
      "spring": 4818,
      "sector": 4819,
      "vehicle": 4820,
      "absolutely": 4821,
      "application": 4822,
      "Recs": 4823,
      "relatively": 4824,
      "apparently": 4825,
      "dynasty": 4826,
      "streets": 4827,
      "stocks": 4828,
      "DIRECTORY": 4829,
      "Francisco": 4830,
      "Tibet": 4831,
      "totally": 4832,
      "celebr": 4833,
      "quickly": 4834,
      "Singapore": 4835,
      "Vatican": 4836,
      "fresh": 4837,
      "opposite": 4838,
      "Development": 4839,
      "полити": 4840,
      "parallel": 4841,
      "fundamental": 4842,
      "Boston": 4843,
      "Greco": 4844,
      "resources": 4845,
      "Cosmonautics": 4846,
      "34": 4847,
      "400": 4848,
      "56": 4849,
      "?\"": 4850,
      "AK": 4851,
      "AID": 4852,
      "Ba": 4853,
      "Cha": 4854,
      "Cap": 4855,
      "Camp": 4856,
      "Center": 4857,
      "Cze": 4858,
      "DO": 4859,
      "Ev": 4860,
      "FL": 4861,
      "Fort": 4862,
      "Further": 4863,
      "Fidel": 4864,
      "Han": 4865,
      "Had": 4866,
      "Hundred": 4867,
      "Jazz": 4868,
      "Jeb": 4869,
      "Kim": 4870,
      "Kind": 4871,
      "LP": 4872,
      "Last": 4873,
      "Loc": 4874,
      "Lef": 4875,
      "Loret": 4876,
      "MM": 4877,
      "Miss": 4878,
      "Meng": 4879,
      "MED": 4880,
      "Next": 4881,
      "NHL": 4882,
      "PU": 4883,
      "Pen": 4884,
      "Pas": 4885,
      "Port": 4886,
      "Rob": 4887,
      "Sil": 4888,
      "Sum": 4889,
      "Song": 4890,
      "Shad": 4891,
      "Site": 4892,
      "SON": 4893,
      "TS": 4894,
      "Ted": 4895,
      "Tim": 4896,
      "Tru": 4897,
      "Vit": 4898,
      "Veg": 4899,
      "WHO": 4900,
      "Women": 4901,
      "Zacks": 4902,
      "bra": 4903,
      "cry": 4904,
      "cars": 4905,
      "caut": 4906,
      "dy": 4907,
      "ded": 4908,
      "dies": 4909,
      "dress": 4910,
      "egr": 4911,
      "fly": 4912,
      "fem": 4913,
      "fans": 4914,
      "gal": 4915,
      "gins": 4916,
      "gland": 4917,
      "hat": 4918,
      "hab": 4919,
      "hack": 4920,
      "iev": 4921,
      "jump": 4922,
      "ko": 4923,
      "lic": 4924,
      "leng": 4925,
      "laugh": 4926,
      "ml": 4927,
      "mel": 4928,
      "mitted": 4929,
      "ni": 4930,
      "nav": 4931,
      "oing": 4932,
      "obl": 4933,
      "phase": 4934,
      "rid": 4935,
      "rare": 4936,
      "ramp": 4937,
      "sw": 4938,
      "sle": 4939,
      "swit": 4940,
      "swing": 4941,
      "soft": 4942,
      "tim": 4943,
      "turning": 4944,
      "vation": 4945,
      "vul": 4946,
      "vill": 4947,
      "vant": 4948,
      "vacc": 4949,
      "yer": 4950,
      "zone": 4951,
      "ее": 4952,
      "зо": 4953,
      "ита": 4954,
      "лы": 4955,
      "лю": 4956,
      "пер": 4957,
      "сво": 4958,
      "счи": 4959,
      "ты": 4960,
      "цен": 4961,
      "thers": 4962,
      "thood": 4963,
      "inf": 4964,
      "inations": 4965,
      "infl": 4966,
      "ersey": 4967,
      "anian": 4968,
      "onies": 4969,
      "thew": 4970,
      "reput": 4971,
      "remot": 4972,
      "ena": 4973,
      "enem": 4974,
      "orche": 4975,
      "stores": 4976,
      "alkyl": 4977,
      "tox": 4978,
      "isions": 4979,
      "ara": 4980,
      "itar": 4981,
      "itors": 4982,
      "items": 4983,
      "assum": 4984,
      "icy": 4985,
      "leaves": 4986,
      "acies": 4987,
      "acqu": 4988,
      "adic": 4989,
      "advert": 4990,
      "rose": 4991,
      "images": 4992,
      "impossible": 4993,
      "immigration": 4994,
      "whom": 4995,
      "whites": 4996,
      "whatever": 4997,
      "verito": 4998,
      "charge": 4999,
      "urk": 5000,
      "iger": 5001,
      "igation": 5002,
      "uns": 5003,
      "unlikely": 5004,
      "constant": 5005,
      "agents": 5006,
      "opposition": 5007,
      "resistance": 5008,
      "abuse": 5009,
      "ables": 5010,
      "istent": 5011,
      "hael": 5012,
      "tried": 5013,
      "training": 5014,
      "lip": 5015,
      "lived": 5016,
      "ulf": 5017,
      "lose": 5018,
      "loved": 5019,
      "losing": 5020,
      "illed": 5021,
      "sust": 5022,
      "wash": 5023,
      "proof": 5024,
      "proved": 5025,
      "progress": 5026,
      "extrater": 5027,
      "html": 5028,
      "shar": 5029,
      "shock": 5030,
      "anta": 5031,
      "overt": 5032,
      "elph": 5033,
      "asts": 5034,
      "peror": 5035,
      "worship": 5036,
      "aked": 5037,
      "akis": 5038,
      "club": 5039,
      "click": 5040,
      "Through": 5041,
      "Cho": 5042,
      "Church": 5043,
      "Chü": 5044,
      "iana": 5045,
      "intent": 5046,
      "integr": 5047,
      "Stan": 5048,
      "ailing": 5049,
      "igned": 5050,
      "presc": 5051,
      "reads": 5052,
      "reader": 5053,
      "contam": 5054,
      "contain": 5055,
      "Anti": 5056,
      "afford": 5057,
      "asses": 5058,
      "eping": 5059,
      "posit": 5060,
      "somewhat": 5061,
      "herself": 5062,
      "achma": 5063,
      "ruid": 5064,
      "Connell": 5065,
      "compar": 5066,
      "command": 5067,
      "coal": 5068,
      "lower": 5069,
      "prem": 5070,
      "prepar": 5071,
      "speaking": 5072,
      "obviously": 5073,
      "underground": 5074,
      "atham": 5075,
      "install": 5076,
      "desk": 5077,
      "evening": 5078,
      "iously": 5079,
      "regular": 5080,
      "register": 5081,
      "limit": 5082,
      "ERIC": 5083,
      "Also": 5084,
      "Andrew": 5085,
      "worldwide": 5086,
      "год": 5087,
      "hoek": 5088,
      "persons": 5089,
      "Leak": 5090,
      "ORDER": 5091,
      "download": 5092,
      "surround": 5093,
      "2005": 5094,
      "ologies": 5095,
      "Admir": 5096,
      "как": 5097,
      "ках": 5098,
      "controlled": 5099,
      "standing": 5100,
      "accus": 5101,
      "accused": 5102,
      "ASURES": 5103,
      "emocrac": 5104,
      "musical": 5105,
      "happens": 5106,
      "End": 5107,
      "supposed": 5108,
      "condition": 5109,
      "conditions": 5110,
      "неф": 5111,
      "possession": 5112,
      "_____": 5113,
      "puts": 5114,
      "concerts": 5115,
      "concerns": 5116,
      "finds": 5117,
      "greet": 5118,
      "guys": 5119,
      "operational": 5120,
      "follows": 5121,
      "ika": 5122,
      "deny": 5123,
      "denly": 5124,
      "radiation": 5125,
      "Christians": 5126,
      "Christmas": 5127,
      "payment": 5128,
      "powerful": 5129,
      "correspond": 5130,
      "дей": 5131,
      "дела": 5132,
      "против": 5133,
      "apply": 5134,
      "broad": 5135,
      "ficient": 5136,
      "porary": 5137,
      "trading": 5138,
      "allows": 5139,
      "musicians": 5140,
      "north": 5141,
      "receiving": 5142,
      "weekend": 5143,
      "approx": 5144,
      "21st": 5145,
      "deaths": 5146,
      "prompt": 5147,
      "contacts": 5148,
      "translated": 5149,
      "fourth": 5150,
      "feelings": 5151,
      "Iraqi": 5152,
      "ields": 5153,
      "Mez": 5154,
      "originally": 5155,
      "considering": 5156,
      "AGE": 5157,
      "Series": 5158,
      "domestic": 5159,
      "Resp": 5160,
      "burg": 5161,
      "nationally": 5162,
      "Frank": 5163,
      "Viverito": 5164,
      "annual": 5165,
      "truly": 5166,
      "attempts": 5167,
      "double": 5168,
      "MEASURES": 5169,
      "funds": 5170,
      "_____________": 5171,
      "requested": 5172,
      "supporters": 5173,
      "collection": 5174,
      "easily": 5175,
      "harder": 5176,
      "NYPD": 5177,
      "Team": 5178,
      "minority": 5179,
      "Minister": 5180,
      "Strange": 5181,
      "motiv": 5182,
      "thousand": 5183,
      "spiritual": 5184,
      "speaks": 5185,
      "Monday": 5186,
      "ского": 5187,
      "combination": 5188,
      "generation": 5189,
      "performances": 5190,
      "McConnell": 5191,
      "occasion": 5192,
      "preced": 5193,
      "Arabia": 5194,
      "EMI": 5195,
      "Justice": 5196,
      "Windhoek": 5197,
      "literature": 5198,
      "emple": 5199,
      "quarters": 5200,
      "AMERIC": 5201,
      "Social": 5202,
      "itol": 5203,
      "murder": 5204,
      "liament": 5205,
      "survival": 5206,
      "refugee": 5207,
      "statements": 5208,
      "GOK": 5209,
      "IGH": 5210,
      "patients": 5211,
      "pushed": 5212,
      "ходов": 5213,
      "larger": 5214,
      "shirt": 5215,
      "documented": 5216,
      "negotiations": 5217,
      "multiple": 5218,
      "temper": 5219,
      "environmental": 5220,
      "ACTING": 5221,
      "demonstr": 5222,
      "PARTY": 5223,
      "PARTIES": 5224,
      "evolution": 5225,
      "primary": 5226,
      "particularly": 5227,
      "circum": 5228,
      "décret": 5229,
      "recovered": 5230,
      "observed": 5231,
      "surprise": 5232,
      "criticism": 5233,
      "Rights": 5234,
      "bassador": 5235,
      "typical": 5236,
      "professional": 5237,
      "revealed": 5238,
      "Despite": 5239,
      "machine": 5240,
      "squad": 5241,
      "reporter": 5242,
      "examples": 5243,
      "Southern": 5244,
      "owski": 5245,
      "territory": 5246,
      "saucer": 5247,
      "TAKEN": 5248,
      "WC1": 5249,
      "cookies": 5250,
      "strength": 5251,
      "Foundation": 5252,
      "Office": 5253,
      "Сирии": 5254,
      "quiet": 5255,
      "Lebanon": 5256,
      "Brooklyn": 5257,
      "merely": 5258,
      "reduce": 5259,
      "Entertainment": 5260,
      "scholar": 5261,
      "Baptist": 5262,
      "Cuba": 5263,
      "fiscal": 5264,
      "universities": 5265,
      "россий": 5266,
      "Zoroast": 5267,
      "neighborhood": 5268,
      "Business": 5269,
      "Circle": 5270,
      "false": 5271,
      "Голливу": 5272,
      "atmosphere": 5273,
      "behavior": 5274,
      "comfortable": 5275,
      "mystery": 5276,
      "CONTRACTING": 5277,
      "Left": 5278,
      "Loretta": 5279,
      "PUBL": 5280,
      "Vita": 5281,
      "Vegas": 5282,
      "length": 5283,
      "remote": 5284,
      "Admiral": 5285,
      "emocracy": 5286,
      "!\"": 5287,
      ",'": 5288,
      "05": 5289,
      "39": 5290,
      "46": 5291,
      "47": 5292,
      "52": 5293,
      "55": 5294,
      "6pm": 5295,
      "AB": 5296,
      "Aust": 5297,
      "Bish": 5298,
      "Blood": 5299,
      "BASS": 5300,
      "Brent": 5301,
      "Cy": 5302,
      "Cam": 5303,
      "Come": 5304,
      "Chel": 5305,
      "Cross": 5306,
      "CBS": 5307,
      "Culture": 5308,
      "Di": 5309,
      "Den": 5310,
      "Dal": 5311,
      "Dall": 5312,
      "El": 5313,
      "Elect": 5314,
      "Fast": 5315,
      "Fore": 5316,
      "FER": 5317,
      "GD": 5318,
      "GER": 5319,
      "Groom": 5320,
      "GET": 5321,
      "Gulf": 5322,
      "Hind": 5323,
      "IB": 5324,
      "Isa": 5325,
      "IAL": 5326,
      "IVE": 5327,
      "Jon": 5328,
      "Jack": 5329,
      "Jose": 5330,
      "Jason": 5331,
      "Ken": 5332,
      "Kor": 5333,
      "Kay": 5334,
      "Kur": 5335,
      "Killing": 5336,
      "Lat": 5337,
      "List": 5338,
      "Lama": 5339,
      "Law": 5340,
      "Labor": 5341,
      "MA": 5342,
      "MS": 5343,
      "Mart": 5344,
      "Mike": 5345,
      "Museum": 5346,
      "Nations": 5347,
      "NATION": 5348,
      "Old": 5349,
      "Other": 5350,
      "PL": 5351,
      "Que": 5352,
      "Rand": 5353,
      "Rome": 5354,
      "SU": 5355,
      "Stop": 5356,
      "Scient": 5357,
      "Tod": 5358,
      "TER": 5359,
      "Val": 5360,
      "Vice": 5361,
      "WH": 5362,
      "WN": 5363,
      "WO": 5364,
      "WS": 5365,
      "Will": 5366,
      "WAS": 5367,
      "Your": 5368,
      "bot": 5369,
      "bound": 5370,
      "bones": 5371,
      "brief": 5372,
      "cat": 5373,
      "cou": 5374,
      "cies": 5375,
      "core": 5376,
      "cra": 5377,
      "catch": 5378,
      "categ": 5379,
      "dated": 5380,
      "democracy": 5381,
      "é": 5382,
      "eing": 5383,
      "eli": 5384,
      "fu": 5385,
      "fre": 5386,
      "fing": 5387,
      "foun": 5388,
      "fash": 5389,
      "fox": 5390,
      "fakis": 5391,
      "gather": 5392,
      "hun": 5393,
      "ien": 5394,
      "iers": 5395,
      "iary": 5396,
      "ker": 5397,
      "kid": 5398,
      "latter": 5399,
      "mic": 5400,
      "mountain": 5401,
      "makers": 5402,
      "nar": 5403,
      "phe": 5404,
      "pump": 5405,
      "powers": 5406,
      "rise": 5407,
      "sat": 5408,
      "tz": 5409,
      "tact": 5410,
      "ties": 5411,
      "tear": 5412,
      "tough": 5413,
      "tats": 5414,
      "tiny": 5415,
      "uit": 5416,
      "uate": 5417,
      "vide": 5418,
      "wood": 5419,
      "wave": 5420,
      "ysh": 5421,
      "zz": 5422,
      "zens": 5423,
      "́s": 5424,
      "ВВ": 5425,
      "Пра": 5426,
      "вя": 5427,
      "вет": 5428,
      "для": 5429,
      "жно": 5430,
      "или": 5431,
      "кса": 5432,
      "ог": 5433,
      "они": 5434,
      "сно": 5435,
      "сни": 5436,
      "це": 5437,
      "ша": 5438,
      "ще": 5439,
      "thal": 5440,
      "thod": 5441,
      "thinks": 5442,
      "ini": 5443,
      "ino": 5444,
      "inian": 5445,
      "eration": 5446,
      "angr": 5447,
      "theory": 5448,
      "theater": 5449,
      "review": 5450,
      "atom": 5451,
      "enfor": 5452,
      "enge": 5453,
      "oring": 5454,
      "orial": 5455,
      "sty": 5456,
      "stor": 5457,
      "stere": 5458,
      "stage": 5459,
      "stuff": 5460,
      "allies": 5461,
      "alliance": 5462,
      "eds": 5463,
      "edge": 5464,
      "ouch": 5465,
      "oured": 5466,
      "oufakis": 5467,
      "esca": 5468,
      "itary": 5469,
      "itable": 5470,
      "itbart": 5471,
      "andon": 5472,
      "asking": 5473,
      "assets": 5474,
      "ication": 5475,
      "omin": 5476,
      "acher": 5477,
      "ilty": 5478,
      "ado": 5479,
      "admit": 5480,
      "beating": 5481,
      "bears": 5482,
      "amb": 5483,
      "aming": 5484,
      "amendment": 5485,
      "forth": 5486,
      "imper": 5487,
      "chose": 5488,
      "ura": 5489,
      "urt": 5490,
      "usual": 5491,
      "utional": 5492,
      "uni": 5493,
      "union": 5494,
      "unless": 5495,
      "unfair": 5496,
      "unique": 5497,
      "unemployment": 5498,
      "empl": 5499,
      "embr": 5500,
      "conven": 5501,
      "constit": 5502,
      "consum": 5503,
      "consequ": 5504,
      "terri": 5505,
      "aggress": 5506,
      "opol": 5507,
      "opus": 5508,
      "opath": 5509,
      "abbi": 5510,
      "abilities": 5511,
      "absor": 5512,
      "abinet": 5513,
      "deed": 5514,
      "destru": 5515,
      "nels": 5516,
      "compe": 5517,
      "comprom": 5518,
      "trap": 5519,
      "trial": 5520,
      "trouble": 5521,
      "liest": 5522,
      "ula": 5523,
      "lob": 5524,
      "mos": 5525,
      "moving": 5526,
      "illness": 5527,
      "aine": 5528,
      "aint": 5529,
      "proven": 5530,
      "protocol": 5531,
      "exter": 5532,
      "excess": 5533,
      "except": 5534,
      "exchange": 5535,
      "exposed": 5536,
      "exception": 5537,
      "approv": 5538,
      "acts": 5539,
      "acting": 5540,
      "umn": 5541,
      "Indeed": 5542,
      "astro": 5543,
      "astron": 5544,
      "ansion": 5545,
      "perts": 5546,
      "perception": 5547,
      "upcoming": 5548,
      "rail": 5549,
      "raising": 5550,
      "Child": 5551,
      "inda": 5552,
      "lling": 5553,
      "ongoing": 5554,
      "intended": 5555,
      "Story": 5556,
      "fever": 5557,
      "19th": 5558,
      "print": 5559,
      "prise": 5560,
      "canon": 5561,
      "offs": 5562,
      "contained": 5563,
      "ideas": 5564,
      "itely": 5565,
      "aux": 5566,
      "Anton": 5567,
      "mercial": 5568,
      "sche": 5569,
      "ishment": 5570,
      "assist": 5571,
      "positions": 5572,
      "ranks": 5573,
      "somehow": 5574,
      "owned": 5575,
      "disks": 5576,
      "ached": 5577,
      "ordinary": 5578,
      "render": 5579,
      "atton": 5580,
      "partners": 5581,
      "commander": 5582,
      "serve": 5583,
      "therefore": 5584,
      "ption": 5585,
      "intercept": 5586,
      "interior": 5587,
      "intervention": 5588,
      "Trade": 5589,
      "creatures": 5590,
      "coach": 5591,
      "ству": 5592,
      "shel": 5593,
      "Russians": 5594,
      "prel": 5595,
      "prefer": 5596,
      "firm": 5597,
      "Web": 5598,
      "йте": 5599,
      "ritual": 5600,
      "instru": 5601,
      "ISH": 5602,
      "caught": 5603,
      "Assad": 5604,
      "monu": 5605,
      "ysis": 5606,
      "flag": 5607,
      "flight": 5608,
      "ран": 5609,
      "forms": 5610,
      "mainly": 5611,
      "Sever": 5612,
      "ANY": 5613,
      "substant": 5614,
      "250": 5615,
      "insist": 5616,
      "thens": 5617,
      "player": 5618,
      "гово": 5619,
      "helle": 5620,
      "tender": 5621,
      "пол": 5622,
      "2001": 5623,
      "2006": 5624,
      "communist": 5625,
      "Adam": 5626,
      "нии": 5627,
      "Share": 5628,
      "ком": 5629,
      "legally": 5630,
      "recorded": 5631,
      "lineup": 5632,
      "Sheik": 5633,
      "markets": 5634,
      "wards": 5635,
      "planet": 5636,
      "England": 5637,
      "marking": 5638,
      "policing": 5639,
      "1984": 5640,
      "1988": 5641,
      "1989": 5642,
      "150": 5643,
      "END": 5644,
      "missile": 5645,
      "appeals": 5646,
      "viewers": 5647,
      "parliament": 5648,
      "guilty": 5649,
      "goods": 5650,
      "check": 5651,
      "bodies": 5652,
      "values": 5653,
      "Experts": 5654,
      "refused": 5655,
      "reflect": 5656,
      "apprec": 5657,
      "drachma": 5658,
      "traditional": 5659,
      "pursu": 5660,
      "solo": 5661,
      "solution": 5662,
      "demands": 5663,
      "techniques": 5664,
      "technologies": 5665,
      "Gray": 5666,
      "Spir": 5667,
      "Spider": 5668,
      "facilities": 5669,
      "posted": 5670,
      "1992": 5671,
      "1999": 5672,
      "informs": 5673,
      "passion": 5674,
      "passage": 5675,
      "Hispanic": 5676,
      "slightly": 5677,
      "plications": 5678,
      "ieres": 5679,
      "aircraft": 5680,
      "grown": 5681,
      "вил": 5682,
      "resulted": 5683,
      "resulting": 5684,
      "arming": 5685,
      "programs": 5686,
      "killings": 5687,
      "succeed": 5688,
      "largely": 5689,
      "considered": 5690,
      "consideration": 5691,
      "AGO": 5692,
      "increased": 5693,
      "membership": 5694,
      "confidence": 5695,
      "options": 5696,
      "burger": 5697,
      "arius": 5698,
      "Academ": 5699,
      "effects": 5700,
      "proposed": 5701,
      "expansion": 5702,
      "PS3": 5703,
      "295": 5704,
      "Blue": 5705,
      "fluids": 5706,
      "judicial": 5707,
      "________________": 5708,
      "launches": 5709,
      "helicopter": 5710,
      "driven": 5711,
      "schools": 5712,
      "Christianity": 5713,
      "Tea": 5714,
      "Wilson": 5715,
      "diplom": 5716,
      "equipment": 5717,
      "linked": 5718,
      "replied": 5719,
      "Pakistani": 5720,
      "Stratham": 5721,
      "opinion": 5722,
      "Associated": 5723,
      "Persia": 5724,
      "volume": 5725,
      "watched": 5726,
      "combat": 5727,
      "doctors": 5728,
      "spokes": 5729,
      "representative": 5730,
      "device": 5731,
      "properly": 5732,
      "explained": 5733,
      "responsibility": 5734,
      "film": 5735,
      "precise": 5736,
      "Arabic": 5737,
      "religion": 5738,
      "Palem": 5739,
      "Palest": 5740,
      "emphas": 5741,
      "homes": 5742,
      "languages": 5743,
      "silver": 5744,
      "survive": 5745,
      "LifeSite": 5746,
      "loskey": 5747,
      "welcome": 5748,
      "explosion": 5749,
      "hospitals": 5750,
      "journalist": 5751,
      "connected": 5752,
      "measures": 5753,
      "DEF": 5754,
      "pulled": 5755,
      "towards": 5756,
      "advisor": 5757,
      "odds": 5758,
      "INTP": 5759,
      "settle": 5760,
      "demonstrate": 5761,
      "Prize": 5762,
      "Stock": 5763,
      "primarily": 5764,
      "encourage": 5765,
      "Britain": 5766,
      "hurricane": 5767,
      "walking": 5768,
      "сказа": 5769,
      "initially": 5770,
      "Michael": 5771,
      "Michelle": 5772,
      "Ross": 5773,
      "bassy": 5774,
      "governor": 5775,
      "ASSIF": 5776,
      "Holy": 5777,
      "flew": 5778,
      "reporters": 5779,
      "determine": 5780,
      "implementation": 5781,
      "dollar": 5782,
      "dollars": 5783,
      "wonderful": 5784,
      "horrible": 5785,
      "McCloskey": 5786,
      "copyright": 5787,
      "Lewis": 5788,
      "ную": 5789,
      "imagine": 5790,
      "shocking": 5791,
      "witnessed": 5792,
      "PHONE": 5793,
      "rebels": 5794,
      "restricted": 5795,
      "alleged": 5796,
      "exploration": 5797,
      "perfectly": 5798,
      "monitoring": 5799,
      "memoirs": 5800,
      "предста": 5801,
      "Landysh": 5802,
      "Seminary": 5803,
      "relevant": 5804,
      "concentration": 5805,
      "estimated": 5806,
      "philosoph": 5807,
      "ATTACK": 5808,
      "concertos": 5809,
      "Politics": 5810,
      "Company": 5811,
      "Director": 5812,
      "Soros": 5813,
      "врем": 5814,
      "oppon": 5815,
      "manipulation": 5816,
      "newspaper": 5817,
      "automatically": 5818,
      "genocide": 5819,
      "sovereignty": 5820,
      "Bobby": 5821,
      "Diego": 5822,
      "Jesus": 5823,
      "Radio": 5824,
      "Varoufakis": 5825,
      "grooming": 5826,
      "matters": 5827,
      "tribes": 5828,
      "intellectual": 5829,
      "brilli": 5830,
      "Symphony": 5831,
      "Libya": 5832,
      "Imperia": 5833,
      "Pasht": 5834,
      "Shade": 5835,
      "Truth": 5836,
      "rampant": 5837,
      "vaccine": 5838,
      "reputation": 5839,
      "advertising": 5840,
      "broadcast": 5841,
      "Mezieres": 5842,
      "Zoroastrian": 5843,
      "Bishop": 5844,
      "BASSY": 5845,
      "Chelsea": 5846,
      "Dalai": 5847,
      "Dallas": 5848,
      "Isaac": 5849,
      "MSNBC": 5850,
      "Today": 5851,
      "founder": 5852,
      "stereo": 5853,
      "escape": 5854,
      "approval": 5855,
      "Antonio": 5856,
      "LifeSiteNews": 5857,
      "ASSIFIED": 5858,
      "%.": 5859,
      ".(": 5860,
      "09": 5861,
      "120": 5862,
      "44": 5863,
      "57": 5864,
      "58": 5865,
      "72": 5866,
      "79": 5867,
      "AU": 5868,
      "Ah": 5869,
      "Az": 5870,
      "Ari": 5871,
      "App": 5872,
      "Adel": 5873,
      "Big": 5874,
      "Blo": 5875,
      "Bess": 5876,
      "BRE": 5877,
      "Bible": 5878,
      "Biden": 5879,
      "CR": 5880,
      "Cop": 5881,
      "Clo": 5882,
      "Cau": 5883,
      "Cla": 5884,
      "Cold": 5885,
      "Clim": 5886,
      "Dan": 5887,
      "Dani": 5888,
      "EU": 5889,
      "É": 5890,
      "Ell": 5891,
      "Each": 5892,
      "Egy": 5893,
      "Fro": 5894,
      "Flo": 5895,
      "Ferg": 5896,
      "Full": 5897,
      "Fields": 5898,
      "GN": 5899,
      "Gra": 5900,
      "Good": 5901,
      "Hall": 5902,
      "Hel": 5903,
      "Home": 5904,
      "HERE": 5905,
      "Iv": 5906,
      "Jay": 5907,
      "Kl": 5908,
      "Kess": 5909,
      "Kos": 5910,
      "LD": 5911,
      "Luc": 5912,
      "LHP": 5913,
      "Mat": 5914,
      "Mas": 5915,
      "Mur": 5916,
      "Mot": 5917,
      "Mel": 5918,
      "Mich": 5919,
      "Mitt": 5920,
      "Mont": 5921,
      "NW": 5922,
      "Nord": 5923,
      "Niger": 5924,
      "PA": 5925,
      "Pac": 5926,
      "PLO": 5927,
      "Prem": 5928,
      "Pagan": 5929,
      "Rac": 5930,
      "Rem": 5931,
      "Rod": 5932,
      "RCA": 5933,
      "SL": 5934,
      "SS": 5935,
      "Sand": 5936,
      "Sound": 5937,
      "Since": 5938,
      "Sports": 5939,
      "Ty": 5940,
      "Ter": 5941,
      "Tal": 5942,
      "TIN": 5943,
      "Terror": 5944,
      "Tube": 5945,
      "Whe": 5946,
      "Winn": 5947,
      "Witch": 5948,
      "Yaz": 5949,
      "aur": 5950,
      "award": 5951,
      "bare": 5952,
      "bir": 5953,
      "bour": 5954,
      "brit": 5955,
      "barg": 5956,
      "batter": 5957,
      "cam": 5958,
      "cited": 5959,
      "cattle": 5960,
      "dial": 5961,
      "dying": 5962,
      "diction": 5963,
      "ean": 5964,
      "ect": 5965,
      "eco": 5966,
      "fit": 5967,
      "fare": 5968,
      "file": 5969,
      "fix": 5970,
      "fired": 5971,
      "failed": 5972,
      "fiction": 5973,
      "gn": 5974,
      "gas": 5975,
      "gap": 5976,
      "gold": 5977,
      "greg": 5978,
      "gaining": 5979,
      "hut": 5980,
      "hous": 5981,
      "iy": 5982,
      "iro": 5983,
      "iver": 5984,
      "ius": 5985,
      "iant": 5986,
      "iReport": 5987,
      "ja": 5988,
      "jun": 5989,
      "km": 5990,
      "kids": 5991,
      "lan": 5992,
      "lunch": 5993,
      "luck": 5994,
      "map": 5995,
      "mud": 5996,
      "male": 5997,
      "oath": 5998,
      "pil": 5999,
      "pure": 6000,
      "pick": 6001,
      "pages": 6002,
      "rd": 6003,
      "ram": 6004,
      "rated": 6005,
      "rating": 6006,
      "rush": 6007,
      "rons": 6008,
      "sal": 6009,
      "spl": 6010,
      "slam": 6011,
      "sized": 6012,
      "sometimes": 6013,
      "tle": 6014,
      "til": 6015,
      "twe": 6016,
      "tickets": 6017,
      "treadwell": 6018,
      "uom": 6019,
      "uct": 6020,
      "uous": 6021,
      "von": 6022,
      "vic": 6023,
      "vast": 6024,
      "vals": 6025,
      "wu": 6026,
      "winter": 6027,
      "whel": 6028,
      "xual": 6029,
      "yright": 6030,
      "zero": 6031,
      "́e": 6032,
      "На": 6033,
      "Оба": 6034,
      "Ру": 6035,
      "дру": 6036,
      "ед": 6037,
      "его": 6038,
      "емы": 6039,
      "иде": 6040,
      "ке": 6041,
      "кт": 6042,
      "кла": 6043,
      "ору": 6044,
      "пла": 6045,
      "сф": 6046,
      "ут": 6047,
      "уров": 6048,
      "цу": 6049,
      "чет": 6050,
      "эти": 6051,
      "inj": 6052,
      "ining": 6053,
      "inev": 6054,
      "infect": 6055,
      "inexact": 6056,
      "err": 6057,
      "eron": 6058,
      "erno": 6059,
      "erved": 6060,
      "ania": 6061,
      "ancial": 6062,
      "anwhile": 6063,
      "animal": 6064,
      "thes": 6065,
      "theless": 6066,
      "thetic": 6067,
      "rely": 6068,
      "remo": 6069,
      "renew": 6070,
      "remin": 6071,
      "revel": 6072,
      "revers": 6073,
      "remark": 6074,
      "reaction": 6075,
      "reference": 6076,
      "resem": 6077,
      "atories": 6078,
      "enal": 6079,
      "enforce": 6080,
      "orter": 6081,
      "stag": 6082,
      "stars": 6083,
      "eding": 6084,
      "isl": 6085,
      "arra": 6086,
      "ario": 6087,
      "itical": 6088,
      "andem": 6089,
      "andowski": 6090,
      "ica": 6091,
      "icts": 6092,
      "icians": 6093,
      "omb": 6094,
      "omal": 6095,
      "omination": 6096,
      "lection": 6097,
      "league": 6098,
      "entry": 6099,
      "entities": 6100,
      "acred": 6101,
      "semin": 6102,
      "seasons": 6103,
      "adjust": 6104,
      "adelph": 6105,
      "vey": 6106,
      "bell": 6107,
      "becoming": 6108,
      "rog": 6109,
      "rol": 6110,
      "ropolit": 6111,
      "iments": 6112,
      "chop": 6113,
      "urb": 6114,
      "urse": 6115,
      "uson": 6116,
      "usions": 6117,
      "igent": 6118,
      "unning": 6119,
      "emen": 6120,
      "emor": 6121,
      "emet": 6122,
      "emiss": 6123,
      "conqu": 6124,
      "conserv": 6125,
      "conservative": 6126,
      "iring": 6127,
      "agg": 6128,
      "agic": 6129,
      "agent": 6130,
      "aggressive": 6131,
      "opher": 6132,
      "abandon": 6133,
      "deport": 6134,
      "deleg": 6135,
      "delay": 6136,
      "neutral": 6137,
      "commercial": 6138,
      "trillion": 6139,
      "livest": 6140,
      "moon": 6141,
      "wearing": 6142,
      "illust": 6143,
      "illance": 6144,
      "outbreak": 6145,
      "ainable": 6146,
      "proced": 6147,
      "prosecut": 6148,
      "byl": 6149,
      "exit": 6150,
      "explicit": 6151,
      "keys": 6152,
      "mention": 6153,
      "20th": 6154,
      "2020": 6155,
      "river": 6156,
      "plants": 6157,
      "shire": 6158,
      "anton": 6159,
      "antib": 6160,
      "overwhel": 6161,
      "umes": 6162,
      "eland": 6163,
      "artist": 6164,
      "articles": 6165,
      "earliest": 6166,
      "worth": 6167,
      "doors": 6168,
      "dogan": 6169,
      "bled": 6170,
      "cler": 6171,
      "cles": 6172,
      "management": 6173,
      "manager": 6174,
      "evil": 6175,
      "evident": 6176,
      "berg": 6177,
      "ocative": 6178,
      "gey": 6179,
      "Chang": 6180,
      "Cherno": 6181,
      "mechan": 6182,
      "intense": 6183,
      "grab": 6184,
      "oked": 6185,
      "Stu": 6186,
      "feet": 6187,
      "iven": 6188,
      "ivity": 6189,
      "newly": 6190,
      "princ": 6191,
      "cancer": 6192,
      "ardian": 6193,
      "presum": 6194,
      "teacher": 6195,
      "ideology": 6196,
      "identity": 6197,
      "assass": 6198,
      "recru": 6199,
      "nobody": 6200,
      "eple": 6201,
      "izes": 6202,
      "posal": 6203,
      "aven": 6204,
      "disk": 6205,
      "disagree": 6206,
      "diseas": 6207,
      "discovered": 6208,
      "ultimate": 6209,
      "ultimately": 6210,
      "ublish": 6211,
      "ipation": 6212,
      "ipedia": 6213,
      "Cond": 6214,
      "Cons": 6215,
      "Conference": 6216,
      "attor": 6217,
      "partial": 6218,
      "commission": 6219,
      "Unis": 6220,
      "serves": 6221,
      "internal": 6222,
      "ObamaCare": 6223,
      "mination": 6224,
      "coast": 6225,
      "cooperation": 6226,
      "напра": 6227,
      "prejud": 6228,
      "forest": 6229,
      "INST": 6230,
      "cerem": 6231,
      "osexual": 6232,
      "athy": 6233,
      "тов": 6234,
      "desper": 6235,
      "desire": 6236,
      "brand": 6237,
      "brid": 6238,
      "backed": 6239,
      "maintained": 6240,
      "Almost": 6241,
      "Although": 6242,
      "ANCE": 6243,
      "coll": 6244,
      "location": 6245,
      "locations": 6246,
      "Forrest": 6247,
      "transition": 6248,
      "insight": 6249,
      "YouTube": 6250,
      "warned": 6251,
      "warming": 6252,
      "versial": 6253,
      "Argent": 6254,
      "USE": 6255,
      "Class": 6256,
      "Deb": 6257,
      "visited": 6258,
      "genetic": 6259,
      "publicly": 6260,
      "Lee": 6261,
      "Level": 6262,
      "privi": 6263,
      "лия": 6264,
      "ilyn": 6265,
      "talks": 6266,
      "finance": 6267,
      "finement": 6268,
      "ologist": 6269,
      "ния": 6270,
      "низаци": 6271,
      "relations": 6272,
      "legit": 6273,
      "legisl": 6274,
      "buying": 6275,
      "RET": 6276,
      "founded": 6277,
      "stands": 6278,
      "ARY": 6279,
      "seeking": 6280,
      "province": 6281,
      "provocative": 6282,
      "воз": 6283,
      "Most": 6284,
      "Moham": 6285,
      "ICH": 6286,
      "нее": 6287,
      "tests": 6288,
      "1986": 6289,
      "ITS": 6290,
      "putting": 6291,
      "invited": 6292,
      "headline": 6293,
      "starting": 6294,
      "surely": 6295,
      "ENCE": 6296,
      "ENSE": 6297,
      "Germans": 6298,
      "closure": 6299,
      "clothes": 6300,
      "missing": 6301,
      "realized": 6302,
      "parking": 6303,
      "miles": 6304,
      "зая": 6305,
      "ным": 6306,
      "busy": 6307,
      "лага": 6308,
      "operated": 6309,
      "presented": 6310,
      "льту": 6311,
      "руп": 6312,
      "denied": 6313,
      "bodily": 6314,
      "UNDER": 6315,
      "sky": 6316,
      "writer": 6317,
      "writers": 6318,
      "smile": 6319,
      "дер": 6320,
      "issued": 6321,
      "supported": 6322,
      "дар": 6323,
      "дол": 6324,
      "handling": 6325,
      "traders": 6326,
      "ACE": 6327,
      "greater": 6328,
      "struct": 6329,
      "faces": 6330,
      "rooms": 6331,
      "claiming": 6332,
      "1990": 6333,
      "1998": 6334,
      "helps": 6335,
      "Commit": 6336,
      "status": 6337,
      "EST": 6338,
      "дут": 6339,
      "investors": 6340,
      "voting": 6341,
      "витель": 6342,
      "classical": 6343,
      "Again": 6344,
      "hopeful": 6345,
      "thorough": 6346,
      "stopping": 6347,
      "ении": 6348,
      "ению": 6349,
      "translator": 6350,
      "friendly": 6351,
      "ция": 6352,
      "Carney": 6353,
      "ricity": 6354,
      "winning": 6355,
      "advice": 6356,
      "interested": 6357,
      "Meanwhile": 6358,
      "Within": 6359,
      "meters": 6360,
      "скими": 6361,
      "changing": 6362,
      "descend": 6363,
      "bases": 6364,
      "joke": 6365,
      "Ambassador": 6366,
      "CONS": 6367,
      "Senator": 6368,
      "Media": 6369,
      "Meditation": 6370,
      "causes": 6371,
      "victim": 6372,
      "arios": 6373,
      "secretions": 6374,
      "activities": 6375,
      "computing": 6376,
      "computers": 6377,
      "performed": 6378,
      "effective": 6379,
      "species": 6380,
      "specifically": 6381,
      "specialists": 6382,
      "Maybe": 6383,
      "movement": 6384,
      "proposes": 6385,
      "expensive": 6386,
      "executed": 6387,
      "Atl": 6388,
      "seemed": 6389,
      "involve": 6390,
      "involving": 6391,
      "successfully": 6392,
      "Gov": 6393,
      "Pelos": 6394,
      "ULT": 6395,
      "existing": 6396,
      "reportedly": 6397,
      "lady": 6398,
      "ruling": 6399,
      "requests": 6400,
      "organs": 6401,
      "orgia": 6402,
      "supply": 6403,
      "ELL": 6404,
      "layoffs": 6405,
      "debt": 6406,
      "update": 6407,
      "offered": 6408,
      "repid": 6409,
      "Corp": 6410,
      "masses": 6411,
      "sentiment": 6412,
      "researchers": 6413,
      "speaker": 6414,
      "responded": 6415,
      "Persians": 6416,
      "civilian": 6417,
      "civilization": 6418,
      "doctor": 6419,
      "generally": 6420,
      "Abbas": 6421,
      "Kushan": 6422,
      "spoke": 6423,
      "sounds": 6424,
      "waiting": 6425,
      "represented": 6426,
      "confirm": 6427,
      "devast": 6428,
      "ответ": 6429,
      "ollary": 6430,
      "abductees": 6431,
      "EMBASSY": 6432,
      "Postal": 6433,
      "Windows": 6434,
      "literary": 6435,
      "widely": 6436,
      "енности": 6437,
      "Georgia": 6438,
      "TAIN": 6439,
      "painful": 6440,
      "silence": 6441,
      "taxes": 6442,
      "hotel": 6443,
      "hottest": 6444,
      "arrested": 6445,
      "deeply": 6446,
      "introduction": 6447,
      "graphy": 6448,
      "continuing": 6449,
      "IRS": 6450,
      "patron": 6451,
      "pushing": 6452,
      "snip": 6453,
      "televis": 6454,
      "Herero": 6455,
      "Karl": 6456,
      "Macedon": 6457,
      "SECRET": 6458,
      "blocking": 6459,
      "laboratories": 6460,
      "nomadic": 6461,
      "model": 6462,
      "models": 6463,
      "Major": 6464,
      "links": 6465,
      "multi": 6466,
      "simple": 6467,
      "environments": 6468,
      "arrived": 6469,
      "rocket": 6470,
      "rockets": 6471,
      "projects": 6472,
      "scene": 6473,
      "scenario": 6474,
      "scenarios": 6475,
      "settlement": 6476,
      "financing": 6477,
      "dropping": 6478,
      "NOT": 6479,
      "NOW": 6480,
      "Store": 6481,
      "fears": 6482,
      "shaped": 6483,
      "культу": 6484,
      "фина": 6485,
      "independence": 6486,
      "cells": 6487,
      "extremely": 6488,
      "analyses": 6489,
      "Guardian": 6490,
      "predict": 6491,
      "sensitive": 6492,
      "ская": 6493,
      "congratulated": 6494,
      "teaching": 6495,
      "recovery": 6496,
      "surprising": 6497,
      "Philadelph": 6498,
      "repeat": 6499,
      "opportun": 6500,
      "photos": 6501,
      "Nevada": 6502,
      "зиден": 6503,
      "орми": 6504,
      "replaced": 6505,
      "definitely": 6506,
      "Buy": 6507,
      "Erdogan": 6508,
      "Louis": 6509,
      "Louise": 6510,
      "crucial": 6511,
      "digest": 6512,
      "owsky": 6513,
      "emotion": 6514,
      "saucers": 6515,
      "американские": 6516,
      "Magazine": 6517,
      "SANTI": 6518,
      "глав": 6519,
      "throat": 6520,
      "accurate": 6521,
      "contrast": 6522,
      "eliminate": 6523,
      "manufacturers": 6524,
      "increasingly": 6525,
      "destroy": 6526,
      "Breitbart": 6527,
      "Chemical": 6528,
      "Yuan": 6529,
      "pattern": 6530,
      "patterns": 6531,
      "assume": 6532,
      "quoted": 6533,
      "pronounced": 6534,
      "advantage": 6535,
      "которые": 6536,
      "Financial": 6537,
      "Garden": 6538,
      "Irish": 6539,
      "Nathan": 6540,
      "Related": 6541,
      "бюджета": 6542,
      "altern": 6543,
      "accompl": 6544,
      "defeat": 6545,
      "avoid": 6546,
      "phenomenon": 6547,
      "colonial": 6548,
      "distribution": 6549,
      "announce": 6550,
      "strategic": 6551,
      "Corporation": 6552,
      "pleasure": 6553,
      "Science": 6554,
      "dimens": 6555,
      "slavery": 6556,
      "tolerance": 6557,
      "proceeds": 6558,
      "acknowled": 6559,
      "appropriate": 6560,
      "straightforward": 6561,
      "Ramsey": 6562,
      "Snowden": 6563,
      "SHOULD": 6564,
      "Two": 6565,
      "average": 6566,
      "branch": 6567,
      "daughter": 6568,
      "variety": 6569,
      "outrage": 6570,
      "chosen": 6571,
      "unfold": 6572,
      "suddenly": 6573,
      "explanation": 6574,
      "apolis": 6575,
      "perceived": 6576,
      "collapse": 6577,
      "captured": 6578,
      "UNCLASSIFIED": 6579,
      "WikiLeak": 6580,
      "female": 6581,
      "vulner": 6582,
      "счита": 6583,
      "enemy": 6584,
      "itarian": 6585,
      "sharp": 6586,
      "intentions": 6587,
      "integrity": 6588,
      "Andrews": 6589,
      "AMERICAN": 6590,
      "IGHT": 6591,
      "GDP": 6592,
      "GETTY": 6593,
      "Koran": 6594,
      "fashion": 6595,
      "videos": 6596,
      "ВВП": 6597,
      "Прав": 6598,
      "angry": 6599,
      "enforcement": 6600,
      "aggression": 6601,
      "opolitical": 6602,
      "opathic": 6603,
      "destruction": 6604,
      "Spiritual": 6605,
      "Academy": 6606,
      "Palestinian": 6607,
      "DEFENSE": 6608,
      "Ariz": 6609,
      "Bessus": 6610,
      "Copyright": 6611,
      "Daniel": 6612,
      "États": 6613,
      "Egypt": 6614,
      "Floor": 6615,
      "Ferguson": 6616,
      "Kessler": 6617,
      "Lucian": 6618,
      "Matthew": 6619,
      "Pacific": 6620,
      "Premier": 6621,
      "Yazd": 6622,
      "treadwells": 6623,
      "ropolitan": 6624,
      "livestock": 6625,
      "antibiot": 6626,
      "Chernobyl": 6627,
      "diseases": 6628,
      "prejudice": 6629,
      "Argentina": 6630,
      "Mohammed": 6631,
      "Committee": 6632,
      "Pelosi": 6633,
      "Philadelphia": 6634,
      "SANTIAGO": 6635,
      "WikiLeaks": 6636,
      "!”": 6637,
      "%,": 6638,
      "($": 6639,
      ",’": 6640,
      "020": 6641,
      "37": 6642,
      "38": 6643,
      "41": 6644,
      "42": 6645,
      "4pm": 6646,
      "4GB": 6647,
      "68": 6648,
      "69": 6649,
      "70": 6650,
      "7BS": 6651,
      "83": 6652,
      "9pm": 6653,
      "??": 6654,
      "Au": 6655,
      "Aqu": 6656,
      "Apar": 6657,
      "Agre": 6658,
      "AINST": 6659,
      "BJ": 6660,
      "Bi": 6661,
      "Bad": 6662,
      "Bab": 6663,
      "Bak": 6664,
      "Base": 6665,
      "Bund": 6666,
      "Bled": 6667,
      "Bron": 6668,
      "Blog": 6669,
      "Brown": 6670,
      "Browser": 6671,
      "Bhut": 6672,
      "CK": 6673,
      "Cur": 6674,
      "Cree": 6675,
      "CIN": 6676,
      "Clevel": 6677,
      "Castro": 6678,
      "Cuom": 6679,
      "Dul": 6680,
      "Drug": 6681,
      "Dyn": 6682,
      "DNC": 6683,
      "Ec": 6684,
      "Eric": 6685,
      "Fa": 6686,
      "Fil": 6687,
      "Freedom": 6688,
      "GU": 6689,
      "Ga": 6690,
      "Gar": 6691,
      "Ghas": 6692,
      "Gore": 6693,
      "Gary": 6694,
      "GAN": 6695,
      "Given": 6696,
      "Ha": 6697,
      "Hy": 6698,
      "Hil": 6699,
      "Hay": 6700,
      "Hoc": 6701,
      "Hold": 6702,
      "Hallow": 6703,
      "Having": 6704,
      "Huns": 6705,
      "IE": 6706,
      "Jen": 6707,
      "Jour": 6708,
      "Jord": 6709,
      "Jets": 6710,
      "Jones": 6711,
      "Kat": 6712,
      "Khor": 6713,
      "Kerry": 6714,
      "Lin": 6715,
      "Lad": 6716,
      "Lim": 6717,
      "LLO": 6718,
      "MC": 6719,
      "Men": 6720,
      "Mis": 6721,
      "Mem": 6722,
      "MAT": 6723,
      "Maz": 6724,
      "MOR": 6725,
      "MENT": 6726,
      "Night": 6727,
      "Nama": 6728,
      "Neg": 6729,
      "Natural": 6730,
      "NFL": 6731,
      "Ox": 6732,
      "Ori": 6733,
      "OUR": 6734,
      "OUT": 6735,
      "OWN": 6736,
      "PM": 6737,
      "PP": 6738,
      "PR": 6739,
      "POR": 6740,
      "Paren": 6741,
      "PAC": 6742,
      "PAGE": 6743,
      "Qur": 6744,
      "RW": 6745,
      "Rat": 6746,
      "Rus": 6747,
      "Rach": 6748,
      "Ryan": 6749,
      "RSS": 6750,
      "River": 6751,
      "SW": 6752,
      "Son": 6753,
      "Say": 6754,
      "Sus": 6755,
      "Sex": 6756,
      "Sust": 6757,
      "Sach": 6758,
      "Sput": 6759,
      "Sony": 6760,
      "Somal": 6761,
      "Ten": 6762,
      "Test": 6763,
      "Take": 6764,
      "Tele": 6765,
      "Trib": 6766,
      "Treadwell": 6767,
      "UD": 6768,
      "VO": 6769,
      "Van": 6770,
      "Vign": 6771,
      "Wr": 6772,
      "Wy": 6773,
      "Wis": 6774,
      "Wic": 6775,
      "Would": 6776,
      "Writ": 6777,
      "Witter": 6778,
      "YE": 6779,
      "Yang": 6780,
      "afr": 6781,
      "batt": 6782,
      "bird": 6783,
      "browser": 6784,
      "cro": 6785,
      "cards": 6786,
      "cript": 6787,
      "dar": 6788,
      "dad": 6789,
      "dish": 6790,
      "democrat": 6791,
      "dumb": 6792,
      "eat": 6793,
      "fame": 6794,
      "fails": 6795,
      "frequ": 6796,
      "fuel": 6797,
      "fathers": 6798,
      "gear": 6799,
      "gang": 6800,
      "gmail": 6801,
      "hall": 6802,
      "ih": 6803,
      "ii": 6804,
      "jad": 6805,
      "juge": 6806,
      "jihad": 6807,
      "jersey": 6808,
      "ka": 6809,
      "lt": 6810,
      "lab": 6811,
      "lined": 6812,
      "lux": 6813,
      "mut": 6814,
      "moun": 6815,
      "mour": 6816,
      "match": 6817,
      "maker": 6818,
      "malls": 6819,
      "nic": 6820,
      "nine": 6821,
      "nice": 6822,
      "nife": 6823,
      "pace": 6824,
      "pson": 6825,
      "qa": 6826,
      "qqa": 6827,
      "ras": 6828,
      "rhe": 6829,
      "rhy": 6830,
      "sand": 6831,
      "sid": 6832,
      "sun": 6833,
      "sop": 6834,
      "sister": 6835,
      "tex": 6836,
      "tack": 6837,
      "tort": 6838,
      "tine": 6839,
      "tip": 6840,
      "uated": 6841,
      "vending": 6842,
      "wish": 6843,
      "wage": 6844,
      "wishes": 6845,
      "zing": 6846,
      "Мы": 6847,
      "Минф": 6848,
      "Пен": 6849,
      "РФ": 6850,
      "СС": 6851,
      "анов": 6852,
      "их": 6853,
      "кс": 6854,
      "кто": 6855,
      "кра": 6856,
      "му": 6857,
      "мети": 6858,
      "ологи": 6859,
      "сло": 6860,
      "свя": 6861,
      "тно": 6862,
      "тру": 6863,
      "ую": 6864,
      "’,": 6865,
      "thology": 6866,
      "inal": 6867,
      "intr": 6868,
      "inoff": 6869,
      "infer": 6870,
      "income": 6871,
      "info": 6872,
      "inspir": 6873,
      "inciting": 6874,
      "ered": 6875,
      "ano": 6876,
      "onic": 6877,
      "onia": 6878,
      "recomm": 6879,
      "reward": 6880,
      "ensure": 6881,
      "orf": 6882,
      "ordon": 6883,
      "orado": 6884,
      "stro": 6885,
      "stim": 6886,
      "stab": 6887,
      "sters": 6888,
      "stup": 6889,
      "stress": 6890,
      "stuck": 6891,
      "stove": 6892,
      "stored": 6893,
      "aling": 6894,
      "altogether": 6895,
      "alysis": 6896,
      "oust": 6897,
      "tool": 6898,
      "isc": 6899,
      "island": 6900,
      "iskey": 6901,
      "esar": 6902,
      "escal": 6903,
      "ofess": 6904,
      "asp": 6905,
      "asan": 6906,
      "aspect": 6907,
      "icks": 6908,
      "oms": 6909,
      "entre": 6910,
      "hearing": 6911,
      "ache": 6912,
      "accompan": 6913,
      "academ": 6914,
      "sees": 6915,
      "sevent": 6916,
      "administer": 6917,
      "adays": 6918,
      "beer": 6919,
      "beings": 6920,
      "lymp": 6921,
      "roof": 6922,
      "rola": 6923,
      "amber": 6924,
      "forget": 6925,
      "impose": 6926,
      "imprison": 6927,
      "imedia": 6928,
      "implicit": 6929,
      "aya": 6930,
      "cher": 6931,
      "chap": 6932,
      "uries": 6933,
      "igured": 6934,
      "uty": 6935,
      "eties": 6936,
      "etary": 6937,
      "unn": 6938,
      "unable": 6939,
      "uncertain": 6940,
      "unami": 6941,
      "embassy": 6942,
      "cease": 6943,
      "convin": 6944,
      "tered": 6945,
      "iratory": 6946,
      "withdraw": 6947,
      "agno": 6948,
      "resid": 6949,
      "reserve": 6950,
      "abul": 6951,
      "abama": 6952,
      "abduction": 6953,
      "devot": 6954,
      "deception": 6955,
      "delivered": 6956,
      "istical": 6957,
      "istry": 6958,
      "istration": 6959,
      "nei": 6960,
      "neck": 6961,
      "erson": 6962,
      "complain": 6963,
      "hav": 6964,
      "hair": 6965,
      "trump": 6966,
      "traces": 6967,
      "peop": 6968,
      "ldrons": 6969,
      "lia": 6970,
      "lian": 6971,
      "liers": 6972,
      "atell": 6973,
      "lovers": 6974,
      "alled": 6975,
      "mod": 6976,
      "moves": 6977,
      "web": 6978,
      "weight": 6979,
      "progressive": 6980,
      "prohib": 6981,
      "exists": 6982,
      "extract": 6983,
      "exchanges": 6984,
      "exciting": 6985,
      "exerc": 6986,
      "excited": 6987,
      "posure": 6988,
      "rival": 6989,
      "apar": 6990,
      "apart": 6991,
      "hism": 6992,
      "plat": 6993,
      "plot": 6994,
      "plenty": 6995,
      "shout": 6996,
      "shared": 6997,
      "ifying": 6998,
      "ante": 6999,
      "sole": 7000,
      "estate": 7001,
      "Init": 7002,
      "Indo": 7003,
      "Indon": 7004,
      "Intell": 7005,
      "quant": 7006,
      "quote": 7007,
      "youth": 7008,
      "ework": 7009,
      "perform": 7010,
      "perpet": 7011,
      "worn": 7012,
      "sav": 7013,
      "iao": 7014,
      "ustries": 7015,
      "upper": 7016,
      "dozen": 7017,
      "blow": 7018,
      "bless": 7019,
      "blast": 7020,
      "endar": 7021,
      "clinton": 7022,
      "manner": 7023,
      "manned": 7024,
      "maninoff": 7025,
      "ousands": 7026,
      "Thought": 7027,
      "Thousands": 7028,
      "oca": 7029,
      "geopolitical": 7030,
      "raises": 7031,
      "uded": 7032,
      "Chret": 7033,
      "method": 7034,
      "nowadays": 7035,
      "intention": 7036,
      "granted": 7037,
      "Stat": 7038,
      "Starts": 7039,
      "1940": 7040,
      "pray": 7041,
      "prus": 7042,
      "inejad": 7043,
      "preserve": 7044,
      "Whit": 7045,
      "contest": 7046,
      "bos": 7047,
      "bother": 7048,
      "auth": 7049,
      "auto": 7050,
      "authen": 7051,
      "aught": 7052,
      "Ancient": 7053,
      "Analy": 7054,
      "Analysis": 7055,
      "scre": 7056,
      "scow": 7057,
      "scored": 7058,
      "spin": 7059,
      "spend": 7060,
      "spont": 7061,
      "identical": 7062,
      "Ital": 7063,
      "assion": 7064,
      "assment": 7065,
      "assigned": 7066,
      "reck": 7067,
      "recip": 7068,
      "nose": 7069,
      "epic": 7070,
      "izations": 7071,
      "posing": 7072,
      "positive": 7073,
      "somewhere": 7074,
      "owners": 7075,
      "polls": 7076,
      "disagreement": 7077,
      "donated": 7078,
      "donations": 7079,
      "ureau": 7080,
      "kingdom": 7081,
      "enses": 7082,
      "Conspir": 7083,
      "Contributed": 7084,
      "ussy": 7085,
      "compiling": 7086,
      "server": 7087,
      "pton": 7088,
      "pted": 7089,
      "internationally": 7090,
      "Try": 7091,
      "True": 7092,
      "creating": 7093,
      "creative": 7094,
      "minim": 7095,
      "minimal": 7096,
      "cool": 7097,
      "rypted": 7098,
      "нас": 7099,
      "нах": 7100,
      "ная": 7101,
      "наси": 7102,
      "надо": 7103,
      "стре": 7104,
      "ства": 7105,
      "thank": 7106,
      "afternoon": 7107,
      "forecast": 7108,
      "tsunami": 7109,
      "twist": 7110,
      "INDI": 7111,
      "INCL": 7112,
      "encrypted": 7113,
      "governments": 7114,
      "Real": 7115,
      "Represent": 7116,
      "understood": 7117,
      "ной": 7118,
      "Island": 7119,
      "ISE": 7120,
      "Nobel": 7121,
      "icket": 7122,
      "Asia": 7123,
      "brut": 7124,
      "brain": 7125,
      "bright": 7126,
      "flown": 7127,
      "flash": 7128,
      "workforce": 7129,
      "backing": 7130,
      "ром": 7131,
      "registration": 7132,
      "wherever": 7133,
      "eller": 7134,
      "Sec": 7135,
      "Segment": 7136,
      "Alf": 7137,
      "Alabama": 7138,
      "azines": 7139,
      "crus": 7140,
      "crack": 7141,
      "colored": 7142,
      "collabor": 7143,
      "transit": 7144,
      "transmitted": 7145,
      "subsid": 7146,
      "insur": 7147,
      "insane": 7148,
      "string": 7149,
      "strained": 7150,
      "warm": 7151,
      "wars": 7152,
      "players": 7153,
      "госу": 7154,
      "hoo": 7155,
      "hoax": 7156,
      "perspect": 7157,
      "USA": 7158,
      "factor": 7159,
      "adding": 7160,
      "bleeding": 7161,
      "Delivered": 7162,
      "lando": 7163,
      "landed": 7164,
      "visa": 7165,
      "ORGAN": 7166,
      "рита": 7167,
      "eleg": 7168,
      "element": 7169,
      "elements": 7170,
      "surd": 7171,
      "surface": 7172,
      "tales": 7173,
      "2002": 7174,
      "Euros": 7175,
      "finish": 7176,
      "jected": 7177,
      "argue": 7178,
      "communism": 7179,
      "Adv": 7180,
      "detect": 7181,
      "нима": 7182,
      "Musburger": 7183,
      "lawyer": 7184,
      "cute": 7185,
      "rative": 7186,
      "кон": 7187,
      "коно": 7188,
      "capable": 7189,
      "leges": 7190,
      "currencies": 7191,
      "bug": 7192,
      "REAT": 7193,
      "Mrs": 7194,
      "standard": 7195,
      "ARS": 7196,
      "provin": 7197,
      "provides": 7198,
      "Being": 7199,
      "воен": 7200,
      "вопро": 7201,
      "Sheeple": 7202,
      "consin": 7203,
      "consistent": 7204,
      "Moon": 7205,
      "Moscow": 7206,
      "Grey": 7207,
      "lately": 7208,
      "chnology": 7209,
      "ification": 7210,
      "testing": 7211,
      "testim": 7212,
      "Syriza": 7213,
      "ITED": 7214,
      "invented": 7215,
      "heads": 7216,
      "showed": 7217,
      "Origin": 7218,
      "Orlando": 7219,
      "officially": 7220,
      "pectancy": 7221,
      "grebes": 7222,
      "ными": 7223,
      "таки": 7224,
      "operations": 7225,
      "ministry": 7226,
      "chemical": 7227,
      "aimed": 7228,
      "farm": 7229,
      "chances": 7230,
      "choos": 7231,
      "UNITED": 7232,
      "Christopher": 7233,
      "Prote": 7234,
      "Program": 7235,
      "courts": 7236,
      "gling": 7237,
      "glasses": 7238,
      "Industry": 7239,
      "camps": 7240,
      "Expectancy": 7241,
      "FOLLO": 7242,
      "breath": 7243,
      "вать": 7244,
      "дело": 7245,
      "прое": 7246,
      "applied": 7247,
      "witch": 7248,
      "aturally": 7249,
      "attacked": 7250,
      "solid": 7251,
      "threats": 7252,
      "threatened": 7253,
      "demo": 7254,
      "empty": 7255,
      "technique": 7256,
      "Poland": 7257,
      "1993": 7258,
      "1994": 7259,
      "1997": 7260,
      "helping": 7261,
      "Coming": 7262,
      "risks": 7263,
      "runs": 7264,
      "violation": 7265,
      "violating": 7266,
      "borrow": 7267,
      "Note": 7268,
      "ships": 7269,
      "ahar": 7270,
      "ierra": 7271,
      "voter": 7272,
      "campaigns": 7273,
      "13295": 7274,
      "listen": 7275,
      "personally": 7276,
      "personnel": 7277,
      "циа": 7278,
      "циона": 7279,
      "organization": 7280,
      "depth": 7281,
      "deprec": 7282,
      "Poems": 7283,
      "descended": 7284,
      "AGRE": 7285,
      "AGAINST": 7286,
      "joint": 7287,
      "joined": 7288,
      "increases": 7289,
      "opening": 7290,
      "176": 7291,
      "Colorado": 7292,
      "может": 7293,
      "можно": 7294,
      "CONTAIN": 7295,
      "calendar": 7296,
      "domin": 7297,
      "dominated": 7298,
      "remained": 7299,
      "confusion": 7300,
      "configured": 7301,
      "counties": 7302,
      "countless": 7303,
      "Boeing": 7304,
      "causing": 7305,
      "victims": 7306,
      "secretary": 7307,
      "logic": 7308,
      "activists": 7309,
      "1973": 7310,
      "1976": 7311,
      "1979": 7312,
      "capitalism": 7313,
      "clestone": 7314,
      "fool": 7315,
      "horse": 7316,
      "profit": 7317,
      "265": 7318,
      "Southwestern": 7319,
      "announced": 7320,
      "socially": 7321,
      "attempting": 7322,
      "bankers": 7323,
      "iorant": 7324,
      "mitig": 7325,
      "healthy": 7326,
      "healthcare": 7327,
      "designated": 7328,
      "Going": 7329,
      "Myster": 7330,
      "ULL": 7331,
      "magazines": 7332,
      "aneous": 7333,
      "reasonably": 7334,
      "protesters": 7335,
      "shortly": 7336,
      "investigative": 7337,
      "suggested": 7338,
      "ELA": 7339,
      "driver": 7340,
      "harmon": 7341,
      "layer": 7342,
      "panel": 7343,
      "stayed": 7344,
      "offering": 7345,
      "стано": 7346,
      "rapes": 7347,
      "republish": 7348,
      "churches": 7349,
      "275": 7350,
      "CEO": 7351,
      "HOME": 7352,
      "Price": 7353,
      "Profess": 7354,
      "massive": 7355,
      "heaven": 7356,
      "heavily": 7357,
      "spirit": 7358,
      "physics": 7359,
      "respondents": 7360,
      "fairs": 7361,
      "smaller": 7362,
      "civilians": 7363,
      "образ": 7364,
      "analy": 7365,
      "accessible": 7366,
      "Internet": 7367,
      "bishop": 7368,
      "выш": 7369,
      "representing": 7370,
      "devout": 7371,
      "Added": 7372,
      "Additional": 7373,
      "Namibian": 7374,
      "Bratton": 7375,
      "Centre": 7376,
      "Century": 7377,
      "Editor": 7378,
      "precision": 7379,
      "отно": 7380,
      "peaceful": 7381,
      "answers": 7382,
      "teams": 7383,
      "religions": 7384,
      "EMPLO": 7385,
      "Palmer": 7386,
      "reactors": 7387,
      "towns": 7388,
      "acceptance": 7389,
      "енной": 7390,
      "lockout": 7391,
      "Jamal": 7392,
      "cope": 7393,
      "fellow": 7394,
      "homeland": 7395,
      "homosexual": 7396,
      "suspect": 7397,
      "erospace": 7398,
      "expert": 7399,
      "spreads": 7400,
      "hosts": 7401,
      "hostile": 7402,
      "argued": 7403,
      "Sharia": 7404,
      "COMM": 7405,
      "londonspiritual": 7406,
      "arrests": 7407,
      "constructed": 7408,
      "introduce": 7409,
      "surveillance": 7410,
      "ILL": 7411,
      "Kuwu": 7412,
      "Quad": 7413,
      "patient": 7414,
      "snap": 7415,
      "selling": 7416,
      "amounts": 7417,
      "producing": 7418,
      "electricity": 7419,
      "benefits": 7420,
      "Alien": 7421,
      "Disaster": 7422,
      "nomine": 7423,
      "pull": 7424,
      "sched": 7425,
      "Reading": 7426,
      "difficulty": 7427,
      "Federation": 7428,
      "Wikipedia": 7429,
      "sorts": 7430,
      "soldiers": 7431,
      "environment": 7432,
      "arrive": 7433,
      "advised": 7434,
      "conflicts": 7435,
      "ACTION": 7436,
      "Congressional": 7437,
      "TRUM": 7438,
      "shape": 7439,
      "филь": 7440,
      "reforms": 7441,
      "contracts": 7442,
      "planted": 7443,
      "evolved": 7444,
      "compete": 7445,
      "commitment": 7446,
      "encouraged": 7447,
      "demanding": 7448,
      "Emperor": 7449,
      "Nazis": 7450,
      "Raqqa": 7451,
      "Walter": 7452,
      "bombs": 7453,
      "bombing": 7454,
      "damage": 7455,
      "hurt": 7456,
      "laptop": 7457,
      "petition": 7458,
      "walked": 7459,
      "challenge": 7460,
      "congratulation": 7461,
      "weapon": 7462,
      "Roswell": 7463,
      "indicate": 7464,
      "indicated": 7465,
      "organizations": 7466,
      "professor": 7467,
      "Neville": 7468,
      "pictures": 7469,
      "трилли": 7470,
      "replacing": 7471,
      "strikes": 7472,
      "leaked": 7473,
      "intelligent": 7474,
      "—————": 7475,
      "—————————": 7476,
      "Build": 7477,
      "Buddhist": 7478,
      "Buddhism": 7479,
      "Caesar": 7480,
      "Goldman": 7481,
      "History": 7482,
      "IMMED": 7483,
      "honour": 7484,
      "mistake": 7485,
      "tourists": 7486,
      "emotions": 7487,
      "territorial": 7488,
      "dogs": 7489,
      "Thomson": 7490,
      "Thompson": 7491,
      "Charles": 7492,
      "Charlie": 7493,
      "graduate": 7494,
      "Kingdom": 7495,
      "Look": 7496,
      "Lewandowski": 7497,
      "UMB": 7498,
      "WC2": 7499,
      "blogspot": 7500,
      "uela": 7501,
      "accuracy": 7502,
      "prophe": 7503,
      "shocked": 7504,
      "тому": 7505,
      "1970s": 7506,
      "suffering": 7507,
      "routes": 7508,
      "пере": 7509,
      "revolution": 7510,
      "collective": 7511,
      "challenged": 7512,
      "PEACE": 7513,
      "Returning": 7514,
      "Surv": 7515,
      "Troj": 7516,
      "hillary": 7517,
      "madinejad": 7518,
      "accommo": 7519,
      "concluded": 7520,
      "deployed": 7521,
      "prepare": 7522,
      "Planned": 7523,
      "expanded": 7524,
      "Corporate": 7525,
      "ruption": 7526,
      "Citron": 7527,
      "Defense": 7528,
      "Lynch": 7529,
      "NEW": 7530,
      "SHALL": 7531,
      "VIDU": 7532,
      "fatal": 7533,
      "ipeg": 7534,
      "вления": 7535,
      "lifest": 7536,
      "extraordinary": 7537,
      "institutions": 7538,
      "Firefox": 7539,
      "Korean": 7540,
      "Knights": 7541,
      "Military": 7542,
      "Oslo": 7543,
      "Sassanian": 7544,
      "Taj": 7545,
      "directed": 7546,
      "mouthpiece": 7547,
      "tunnel": 7548,
      "если": 7549,
      "relief": 7550,
      "conversation": 7551,
      "mobile": 7552,
      "Stein": 7553,
      "последни": 7554,
      "fortunately": 7555,
      "политиче": 7556,
      "AKING": 7557,
      "Czech": 7558,
      "Evidence": 7559,
      "Local": 7560,
      "SONY": 7561,
      "habit": 7562,
      "navigation": 7563,
      "цент": 7564,
      "orchestr": 7565,
      "toxic": 7566,
      "acquire": 7567,
      "urkin": 7568,
      "extraterrestrial": 7569,
      "Stanford": 7570,
      "comparison": 7571,
      "coalition": 7572,
      "desktop": 7573,
      "regularly": 7574,
      "registered": 7575,
      "accusations": 7576,
      "approximately": 7577,
      "temperatures": 7578,
      "circumstances": 7579,
      "WC1E": 7580,
      "Голливуда": 7581,
      "PUBLISH": 7582,
      "Cyprus": 7583,
      "Electrola": 7584,
      "Fastenal": 7585,
      "FERC": 7586,
      "Hindu": 7587,
      "Kurdish": 7588,
      "Latin": 7589,
      "NATIONS": 7590,
      "Queen": 7591,
      "WHICH": 7592,
      "bottom": 7593,
      "fingers": 7594,
      "hunter": 7595,
      "mountains": 7596,
      "consumers": 7597,
      "consequences": 7598,
      "astronaut": 7599,
      "prelude": 7600,
      "substantial": 7601,
      "сказал": 7602,
      "allegedly": 7603,
      "brilliant": 7604,
      "Isaacs": 7605,
      "Ahmadinejad": 7606,
      "BREAKING": 7607,
      "Climate": 7608,
      "GNU": 7609,
      "Nigeria": 7610,
      "Winnipeg": 7611,
      "batteries": 7612,
      "Обама": 7613,
      "идеологи": 7614,
      "уровне": 7615,
      "remarkable": 7616,
      "emissions": 7617,
      "conservatives": 7618,
      "procedures": 7619,
      "Stuart": 7620,
      "recruit": 7621,
      "attorney": 7622,
      "desperately": 7623,
      "Forrestal": 7624,
      "Debussy": 7625,
      "заявил": 7626,
      "CONSULT": 7627,
      "финан": 7628,
      "Arizona": 7629,
      "Apartheid": 7630,
      "Bundle": 7631,
      "Bhutto": 7632,
      "Creek": 7633,
      "Cleveland": 7634,
      "Cuomo": 7635,
      "Ecclestone": 7636,
      "Ghassan": 7637,
      "Hockey": 7638,
      "Halloween": 7639,
      "Journal": 7640,
      "Linux": 7641,
      "Russell": 7642,
      "Rachmaninoff": 7643,
      "Sputnik": 7644,
      "Vigneron": 7645,
      "Wisconsin": 7646,
      "afraid": 7647,
      "gangs": 7648,
      "sophist": 7649,
      "texts": 7650,
      "tinePublic": 7651,
      "Минфин": 7652,
      "accompanied": 7653,
      "convinced": 7654,
      "atellite": 7655,
      "exercise": 7656,
      "Indones": 7657,
      "Intelligence": 7658,
      "Chretien": 7659,
      "authentic": 7660,
      "INDIVIDU": 7661,
      "государ": 7662,
      "FOLLOW": 7663,
      "EMPLOYE": 7664,
      "TRUMP": 7665,
      "IMMEDI": 7666,
      "CONSULTATION": 7667,
      ".’": 7668,
      "125": 7669,
      "112": 7670,
      "335": 7671,
      "3rd": 7672,
      "48": 7673,
      "59": 7674,
      "66": 7675,
      "6th": 7676,
      "799": 7677,
      "8pm": 7678,
      "96": 7679,
      "911": 7680,
      "940": 7681,
      "AI": 7682,
      "Ay": 7683,
      "Ave": 7684,
      "Ash": 7685,
      "Aft": 7686,
      "AIR": 7687,
      "Avenue": 7688,
      "BP": 7689,
      "BR": 7690,
      "Bil": 7691,
      "Bay": 7692,
      "Bir": 7693,
      "Bru": 7694,
      "Based": 7695,
      "Border": 7696,
      "BAS": 7697,
      "Brad": 7698,
      "Balk": 7699,
      "Brian": 7700,
      "Bakers": 7701,
      "Cer": 7702,
      "Core": 7703,
      "Cath": 7704,
      "CED": 7705,
      "Cost": 7706,
      "Civil": 7707,
      "Cabinet": 7708,
      "Canton": 7709,
      "DR": 7710,
      "Dou": 7711,
      "Did": 7712,
      "Dim": 7713,
      "Dere": 7714,
      "Dist": 7715,
      "Doug": 7716,
      "Down": 7717,
      "Dob": 7718,
      "Dave": 7719,
      "Duke": 7720,
      "Druid": 7721,
      "EQ": 7722,
      "EV": 7723,
      "Ef": 7724,
      "Event": 7725,
      "Fre": 7726,
      "Fac": 7727,
      "Fam": 7728,
      "Fall": 7729,
      "Four": 7730,
      "FIC": 7731,
      "Food": 7732,
      "Future": 7733,
      "FECT": 7734,
      "GC": 7735,
      "GE": 7736,
      "Gro": 7737,
      "Gun": 7738,
      "Gall": 7739,
      "Gri": 7740,
      "Greg": 7741,
      "Gaz": 7742,
      "Ghol": 7743,
      "Gordon": 7744,
      "HM": 7745,
      "Hen": 7746,
      "Hom": 7747,
      "Ham": 7748,
      "Him": 7749,
      "Hur": 7750,
      "Hop": 7751,
      "Hab": 7752,
      "Hong": 7753,
      "Hard": 7754,
      "Hep": 7755,
      "Hell": 7756,
      "Hadd": 7757,
      "Have": 7758,
      "Horm": 7759,
      "Ian": 7760,
      "Iow": 7761,
      "IPO": 7762,
      "JO": 7763,
      "Jer": 7764,
      "Jet": 7765,
      "Jud": 7766,
      "Jihad": 7767,
      "Ka": 7768,
      "Kas": 7769,
      "Kent": 7770,
      "Kong": 7771,
      "Kham": 7772,
      "Kiev": 7773,
      "Kabul": 7774,
      "LL": 7775,
      "LW": 7776,
      "Lu": 7777,
      "Lion": 7778,
      "Lot": 7779,
      "Lord": 7780,
      "Los": 7781,
      "Lost": 7782,
      "Large": 7783,
      "LGB": 7784,
      "Luke": 7785,
      "MO": 7786,
      "Mu": 7787,
      "Mand": 7788,
      "Mill": 7789,
      "MIN": 7790,
      "Much": 7791,
      "Mah": 7792,
      "Millions": 7793,
      "N1": 7794,
      "NN": 7795,
      "Nin": 7796,
      "Nick": 7797,
      "Nix": 7798,
      "Nature": 7799,
      "Nancy": 7800,
      "Naya": 7801,
      "Nunn": 7802,
      "NUMB": 7803,
      "OP": 7804,
      "Op": 7805,
      "Oz": 7806,
      "Oct": 7807,
      "OAS": 7808,
      "Olymp": 7809,
      "Pan": 7810,
      "Pre": 7811,
      "Pay": 7812,
      "Pres": 7813,
      "Pul": 7814,
      "Pup": 7815,
      "Pod": 7816,
      "Pass": 7817,
      "Pub": 7818,
      "PAR": 7819,
      "Qad": 7820,
      "RI": 7821,
      "Rest": 7822,
      "Roc": 7823,
      "Round": 7824,
      "Raw": 7825,
      "RAP": 7826,
      "Risk": 7827,
      "Rabbi": 7828,
      "Sel": 7829,
      "Send": 7830,
      "Sud": 7831,
      "Saf": 7832,
      "Sher": 7833,
      "Sure": 7834,
      "Sie": 7835,
      "Seven": 7836,
      "Sub": 7837,
      "SER": 7838,
      "Schn": 7839,
      "Six": 7840,
      "Scand": 7841,
      "Sagan": 7842,
      "Sometimes": 7843,
      "Sessions": 7844,
      "Sacred": 7845,
      "Sierra": 7846,
      "TF": 7847,
      "Tre": 7848,
      "Top": 7849,
      "Tact": 7850,
      "Town": 7851,
      "TON": 7852,
      "Tank": 7853,
      "Twent": 7854,
      "Tcha": 7855,
      "Temple": 7856,
      "TREAT": 7857,
      "Ve": 7858,
      "Vis": 7859,
      "Villa": 7860,
      "WR": 7861,
      "Wa": 7862,
      "Way": 7863,
      "Wel": 7864,
      "Water": 7865,
      "Wild": 7866,
      "Walk": 7867,
      "Yah": 7868,
      "Yemen": 7869,
      "[…": 7870,
      "ae": 7871,
      "à": 7872,
      "abel": 7873,
      "bat": 7874,
      "bag": 7875,
      "bul": 7876,
      "bast": 7877,
      "buc": 7878,
      "bio": 7879,
      "cow": 7880,
      "cav": 7881,
      "cure": 7882,
      "cuss": 7883,
      "cked": 7884,
      "culation": 7885,
      "dat": 7886,
      "ding": 7887,
      "dir": 7888,
      "dere": 7889,
      "ders": 7890,
      "dry": 7891,
      "dating": 7892,
      "draft": 7893,
      "daring": 7894,
      "druid": 7895,
      "ec": 7896,
      "fi": 7897,
      "fro": 7898,
      "fers": 7899,
      "fate": 7900,
      "fant": 7901,
      "fuc": 7902,
      "fied": 7903,
      "flood": 7904,
      "filling": 7905,
      "fias": 7906,
      "filled": 7907,
      "gam": 7908,
      "gut": 7909,
      "gate": 7910,
      "gul": 7911,
      "gif": 7912,
      "god": 7913,
      "gian": 7914,
      "gement": 7915,
      "ggling": 7916,
      "hl": 7917,
      "hr": 7918,
      "hu": 7919,
      "hid": 7920,
      "hover": 7921,
      "hint": 7922,
      "hide": 7923,
      "hits": 7924,
      "iat": 7925,
      "iate": 7926,
      "iel": 7927,
      "iatives": 7928,
      "iyan": 7929,
      "jam": 7930,
      "jet": 7931,
      "jack": 7932,
      "ki": 7933,
      "kne": 7934,
      "kaf": 7935,
      "kicked": 7936,
      "lit": 7937,
      "lers": 7938,
      "lav": 7939,
      "lash": 7940,
      "lung": 7941,
      "mun": 7942,
      "mant": 7943,
      "mort": 7944,
      "math": 7945,
      "marg": 7946,
      "matic": 7947,
      "nu": 7948,
      "nis": 7949,
      "nold": 7950,
      "naked": 7951,
      "naturally": 7952,
      "oh": 7953,
      "oke": 7954,
      "odo": 7955,
      "ography": 7956,
      "pse": 7957,
      "pha": 7958,
      "pour": 7959,
      "pnot": 7960,
      "park": 7961,
      "pub": 7962,
      "pund": 7963,
      "patch": 7964,
      "pandem": 7965,
      "praises": 7966,
      "ril": 7967,
      "ray": 7968,
      "rum": 7969,
      "rust": 7970,
      "ride": 7971,
      "rally": 7972,
      "rict": 7973,
      "rick": 7974,
      "rakes": 7975,
      "rural": 7976,
      "si": 7977,
      "sin": 7978,
      "sar": 7979,
      "som": 7980,
      "sam": 7981,
      "slo": 7982,
      "sang": 7983,
      "sick": 7984,
      "sending": 7985,
      "sides": 7986,
      "tin": 7987,
      "tion": 7988,
      "tout": 7989,
      "tap": 7990,
      "tank": 7991,
      "tons": 7992,
      "tempt": 7993,
      "task": 7994,
      "temple": 7995,
      "ticket": 7996,
      "uz": 7997,
      "ubert": 7998,
      "vow": 7999,
      "vak": 8000,
      "wn": 8001,
      "wed": 8002,
      "wid": 8003,
      "wall": 8004,
      "wound": 8005,
      "wine": 8006,
      "wolf": 8007,
      "xim": 8008,
      "yal": 8009,
      "ych": 8010,
      "yari": 8011,
      "yards": 8012,
      "yyed": 8013,
      "zu": 8014,
      "zed": 8015,
      "̀res": 8016,
      "́n": 8017,
      "ВК": 8018,
      "Ва": 8019,
      "Ев": 8020,
      "Про": 8021,
      "Пре": 8022,
      "Чита": 8023,
      "Это": 8024,
      "би": 8025,
      "бер": 8026,
      "брита": 8027,
      "вле": 8028,
      "влия": 8029,
      "гг": 8030,
      "др": 8031,
      "еще": 8032,
      "им": 8033,
      "ис": 8034,
      "име": 8035,
      "кти": 8036,
      "клю": 8037,
      "лен": 8038,
      "мни": 8039,
      "ня": 8040,
      "ос": 8041,
      "оу": 8042,
      "пи": 8043,
      "пы": 8044,
      "сдела": 8045,
      "уже": 8046,
      "хак": 8047,
      "ценности": 8048,
      "чно": 8049,
      "шоу": 8050,
      "эст": 8051,
      "эконо": 8052,
      "“…": 8053,
      "”)": 8054,
      "…”": 8055,
      "thir": 8056,
      "inthe": 8057,
      "inent": 8058,
      "inch": 8059,
      "inist": 8060,
      "infr": 8061,
      "inity": 8062,
      "insp": 8063,
      "inav": 8064,
      "inher": 8065,
      "inci": 8066,
      "inject": 8067,
      "infamous": 8068,
      "incorpor": 8069,
      "inhabit": 8070,
      "eri": 8071,
      "erz": 8072,
      "erge": 8073,
      "erated": 8074,
      "anch": 8075,
      "anish": 8076,
      "anno": 8077,
      "anthology": 8078,
      "onur": 8079,
      "theology": 8080,
      "rect": 8081,
      "reign": 8082,
      "replace": 8083,
      "reverse": 8084,
      "retained": 8085,
      "remarks": 8086,
      "atol": 8087,
      "ene": 8088,
      "encounter": 8089,
      "orth": 8090,
      "oral": 8091,
      "orous": 8092,
      "orph": 8093,
      "orship": 8094,
      "stical": 8095,
      "stations": 8096,
      "stimate": 8097,
      "strange": 8098,
      "stunning": 8099,
      "alf": 8100,
      "aled": 8101,
      "alive": 8102,
      "allied": 8103,
      "alert": 8104,
      "editors": 8105,
      "isive": 8106,
      "isiy": 8107,
      "esh": 8108,
      "esthood": 8109,
      "arre": 8110,
      "arter": 8111,
      "arks": 8112,
      "itude": 8113,
      "itivity": 8114,
      "anda": 8115,
      "andi": 8116,
      "aside": 8117,
      "asks": 8118,
      "asset": 8119,
      "assem": 8120,
      "asyl": 8121,
      "ican": 8122,
      "ician": 8123,
      "icated": 8124,
      "icious": 8125,
      "ione": 8126,
      "lean": 8127,
      "leans": 8128,
      "leaving": 8129,
      "entail": 8130,
      "heat": 8131,
      "hell": 8132,
      "hears": 8133,
      "acular": 8134,
      "ils": 8135,
      "segreg": 8136,
      "adence": 8137,
      "adult": 8138,
      "adopt": 8139,
      "admission": 8140,
      "adapt": 8141,
      "veter": 8142,
      "idad": 8143,
      "idity": 8144,
      "idiot": 8145,
      "becomes": 8146,
      "begun": 8147,
      "amid": 8148,
      "amet": 8149,
      "amework": 8150,
      "ima": 8151,
      "imil": 8152,
      "imid": 8153,
      "impe": 8154,
      "imination": 8155,
      "imental": 8156,
      "immigrants": 8157,
      "implications": 8158,
      "whis": 8159,
      "whist": 8160,
      "olina": 8161,
      "versy": 8162,
      "chy": 8163,
      "chain": 8164,
      "chip": 8165,
      "chens": 8166,
      "urges": 8167,
      "urged": 8168,
      "user": 8169,
      "users": 8170,
      "ussel": 8171,
      "igan": 8172,
      "igious": 8173,
      "igins": 8174,
      "igger": 8175,
      "utnik": 8176,
      "utura": 8177,
      "oters": 8178,
      "ette": 8179,
      "unknown": 8180,
      "uncle": 8181,
      "unusually": 8182,
      "unmarked": 8183,
      "unidentified": 8184,
      "eman": 8185,
      "emails": 8186,
      "embar": 8187,
      "emporary": 8188,
      "emerge": 8189,
      "contrad": 8190,
      "convent": 8191,
      "contribut": 8192,
      "tern": 8193,
      "ctic": 8194,
      "agon": 8195,
      "agnet": 8196,
      "agrap": 8197,
      "agogue": 8198,
      "ophy": 8199,
      "oppose": 8200,
      "rescu": 8201,
      "abil": 8202,
      "abad": 8203,
      "abol": 8204,
      "abuses": 8205,
      "abducted": 8206,
      "absurd": 8207,
      "dece": 8208,
      "dell": 8209,
      "depos": 8210,
      "decre": 8211,
      "debr": 8212,
      "deplo": 8213,
      "defic": 8214,
      "istically": 8215,
      "istribut": 8216,
      "neg": 8217,
      "nest": 8218,
      "neither": 8219,
      "hap": 8220,
      "triv": 8221,
      "trip": 8222,
      "trait": 8223,
      "triple": 8224,
      "trigger": 8225,
      "pel": 8226,
      "lific": 8227,
      "likes": 8228,
      "fruit": 8229,
      "framework": 8230,
      "ullah": 8231,
      "loan": 8232,
      "lobe": 8233,
      "loves": 8234,
      "loving": 8235,
      "lovak": 8236,
      "weigh": 8237,
      "suprem": 8238,
      "outset": 8239,
      "outlined": 8240,
      "aints": 8241,
      "ounce": 8242,
      "pros": 8243,
      "proves": 8244,
      "exceed": 8245,
      "excell": 8246,
      "exports": 8247,
      "exposure": 8248,
      "poets": 8249,
      "pock": 8250,
      "205": 8251,
      "apers": 8252,
      "apolog": 8253,
      "acted": 8254,
      "actively": 8255,
      "sham": 8256,
      "shops": 8257,
      "shots": 8258,
      "oneh": 8259,
      "ifies": 8260,
      "overtime": 8261,
      "overhead": 8262,
      "umber": 8263,
      "sodom": 8264,
      "eles": 8265,
      "eless": 8266,
      "elabor": 8267,
      "Inn": 8268,
      "quate": 8269,
      "aston": 8270,
      "earn": 8271,
      "perfection": 8272,
      "dern": 8273,
      "derabad": 8274,
      "usted": 8275,
      "ustrial": 8276,
      "acket": 8277,
      "ortion": 8278,
      "ortiss": 8279,
      "upset": 8280,
      "upheav": 8281,
      "docks": 8282,
      "blue": 8283,
      "endation": 8284,
      "endors": 8285,
      "endless": 8286,
      "clim": 8287,
      "mann": 8288,
      "manage": 8289,
      "managing": 8290,
      "evin": 8291,
      "evac": 8292,
      "Thus": 8293,
      "udge": 8294,
      "Chiao": 8295,
      "meat": 8296,
      "meets": 8297,
      "button": 8298,
      "intrepid": 8299,
      "intimid": 8300,
      "grant": 8301,
      "grims": 8302,
      "Start": 8303,
      "newall": 8304,
      "newitz": 8305,
      "portions": 8306,
      "1920": 8307,
      "1930": 8308,
      "princi": 8309,
      "ignor": 8310,
      "ignore": 8311,
      "ignored": 8312,
      "contains": 8313,
      "ideal": 8314,
      "boost": 8315,
      "itecture": 8316,
      "ause": 8317,
      "wouldn": 8318,
      "redistribut": 8319,
      "scar": 8320,
      "scure": 8321,
      "script": 8322,
      "scope": 8323,
      "span": 8324,
      "spark": 8325,
      "spaces": 8326,
      "sputnik": 8327,
      "identify": 8328,
      "assimil": 8329,
      "Newark": 8330,
      "recession": 8331,
      "izon": 8332,
      "ranked": 8333,
      "owner": 8334,
      "avi": 8335,
      "disast": 8336,
      "discr": 8337,
      "dispers": 8338,
      "disappointed": 8339,
      "disposal": 8340,
      "donors": 8341,
      "themutil": 8342,
      "curious": 8343,
      "curities": 8344,
      "Conserv": 8345,
      "Heather": 8346,
      "Healing": 8347,
      "council": 8348,
      "completed": 8349,
      "compassion": 8350,
      "centuries": 8351,
      "ords": 8352,
      "laid": 8353,
      "partly": 8354,
      "commemor": 8355,
      "Unless": 8356,
      "served": 8357,
      "serving": 8358,
      "interven": 8359,
      "myth": 8360,
      "mystical": 8361,
      "mining": 8362,
      "minated": 8363,
      "minute": 8364,
      "cos": 8365,
      "coin": 8366,
      "code": 8367,
      "наш": 8368,
      "наши": 8369,
      "называ": 8370,
      "сту": 8371,
      "ство": 8372,
      "стви": 8373,
      "adequate": 8374,
      "thanks": 8375,
      "aftermath": 8376,
      "Russert": 8377,
      "ières": 8378,
      "forever": 8379,
      "knowing": 8380,
      "spell": 8381,
      "twitter": 8382,
      "twenty": 8383,
      "enced": 8384,
      "cert": 8385,
      "obtain": 8386,
      "phr": 8387,
      "ного": 8388,
      "ново": 8389,
      "новы": 8390,
      "ONS": 8391,
      "roughly": 8392,
      "того": 8393,
      "ISION": 8394,
      "ISNA": 8395,
      "Noir": 8396,
      "ень": 8397,
      "Asset": 8398,
      "monks": 8399,
      "fled": 8400,
      "flour": 8401,
      "backs": 8402,
      "ранее": 8403,
      "hereby": 8404,
      "taining": 8405,
      "formation": 8406,
      "formally": 8407,
      "formula": 8408,
      "ATED": 8409,
      "ressortiss": 8410,
      "limits": 8411,
      "Seyyed": 8412,
      "Alam": 8413,
      "ANS": 8414,
      "column": 8415,
      "located": 8416,
      "transmit": 8417,
      "transcript": 8418,
      "submar": 8419,
      "subsequ": 8420,
      "substances": 8421,
      "bookmarks": 8422,
      "warns": 8423,
      "ighter": 8424,
      "106": 8425,
      "Arts": 8426,
      "Arnold": 8427,
      "factions": 8428,
      "factory": 8429,
      "factors": 8430,
      "memories": 8431,
      "adds": 8432,
      "Dee": 8433,
      "Deut": 8434,
      "Deep": 8435,
      "Depression": 8436,
      "tennis": 8437,
      "под": 8438,
      "помни": 8439,
      "128": 8440,
      "Leon": 8441,
      "priesthood": 8442,
      "reporting": 8443,
      "System": 8444,
      "eleph": 8445,
      "ologists": 8446,
      "agoves": 8447,
      "communists": 8448,
      "ний": 8449,
      "ниру": 8450,
      "decadence": 8451,
      "Music": 8452,
      "relating": 8453,
      "lawmakers": 8454,
      "Sham": 8455,
      "Shia": 8456,
      "Short": 8457,
      "ков": 8458,
      "capitol": 8459,
      "каза": 8460,
      "buzz": 8461,
      "architecture": 8462,
      "controversial": 8463,
      "controversy": 8464,
      "REQU": 8465,
      "founding": 8466,
      "foundation": 8467,
      "storytelling": 8468,
      "рез": 8469,
      "respiratory": 8470,
      "maybe": 8471,
      "OFFIC": 8472,
      "orderly": 8473,
      "AST": 8474,
      "Beach": 8475,
      "Beyond": 8476,
      "Placed": 8477,
      "consent": 8478,
      "consol": 8479,
      "plane": 8480,
      "planes": 8481,
      "Modern": 8482,
      "marry": 8483,
      "restaur": 8484,
      "condem": 8485,
      "нес": 8486,
      "implied": 8487,
      "possess": 8488,
      "possessions": 8489,
      "tested": 8490,
      "1985": 8491,
      "cedes": 8492,
      "headquarters": 8493,
      "Therefore": 8494,
      "116": 8495,
      "15pm": 8496,
      "starts": 8497,
      "extent": 8498,
      "extension": 8499,
      "extrem": 8500,
      "showdown": 8501,
      "closer": 8502,
      "closing": 8503,
      "realize": 8504,
      "Orleans": 8505,
      "finding": 8506,
      "findings": 8507,
      "миро": 8508,
      "милли": 8509,
      "banning": 8510,
      "Too": 8511,
      "busiest": 8512,
      "лась": 8513,
      "таго": 8514,
      "operators": 8515,
      "chest": 8516,
      "cheap": 8517,
      "followers": 8518,
      "nearby": 8519,
      "ikowsky": 8520,
      "ikonur": 8521,
      "льный": 8522,
      "lecture": 8523,
      "channel": 8524,
      "denies": 8525,
      "denomination": 8526,
      "economies": 8527,
      "economically": 8528,
      "highway": 8529,
      "societies": 8530,
      "Product": 8531,
      "Protocol": 8532,
      "cker": 8533,
      "courage": 8534,
      "glad": 8535,
      "pays": 8536,
      "corner": 8537,
      "corollary": 8538,
      "corruption": 8539,
      "skills": 8540,
      "meetings": 8541,
      "politicians": 8542,
      "ECHL": 8543,
      "декса": 8544,
      "проду": 8545,
      "прове": 8546,
      "refers": 8547,
      "militants": 8548,
      "drink": 8549,
      "доходов": 8550,
      "тем": 8551,
      "fewer": 8552,
      "handful": 8553,
      "traded": 8554,
      "traditions": 8555,
      "racism": 8556,
      "uga": 8557,
      "сов": 8558,
      "согла": 8559,
      "aley": 8560,
      "fortune": 8561,
      "musician": 8562,
      "Moreover": 8563,
      "audit": 8564,
      "covert": 8565,
      "solve": 8566,
      "threatening": 8567,
      "struggling": 8568,
      "oths": 8569,
      "entered": 8570,
      "ribed": 8571,
      "grounds": 8572,
      "Polish": 8573,
      "Polona": 8574,
      "Policy": 8575,
      "northeast": 8576,
      "receives": 8577,
      "1996": 8578,
      "spacecraft": 8579,
      "casm": 8580,
      "networks": 8581,
      "singing": 8582,
      "statue": 8583,
      "gged": 8584,
      "gotten": 8585,
      "лом": 8586,
      "лого": 8587,
      "мер": 8588,
      "violates": 8589,
      "bigger": 8590,
      "distress": 8591,
      "humanity": 8592,
      "passing": 8593,
      "passes": 8594,
      "slides": 8595,
      "investment": 8596,
      "investments": 8597,
      "votes": 8598,
      "defend": 8599,
      "defying": 8600,
      "classes": 8601,
      "classic": 8602,
      "drogen": 8603,
      "listed": 8604,
      "searching": 8605,
      "prominent": 8606,
      "translating": 8607,
      "Earlier": 8608,
      "ции": 8609,
      "importance": 8610,
      "16th": 8611,
      "Carolina": 8612,
      "facebook": 8613,
      "winner": 8614,
      "organize": 8615,
      "organized": 8616,
      "advanced": 8617,
      "Marco": 8618,
      "Marshall": 8619,
      "Marilyn": 8620,
      "Marrakes": 8621,
      "Point": 8622,
      "metals": 8623,
      "ralia": 8624,
      "ский": 8625,
      "considerable": 8626,
      "AGRAP": 8627,
      "Does": 8628,
      "Dozens": 8629,
      "basically": 8630,
      "hydrogen": 8631,
      "ronic": 8632,
      "thoughts": 8633,
      "idding": 8634,
      "occurs": 8635,
      "occurring": 8636,
      "Amur": 8637,
      "Coll": 8638,
      "Columb": 8639,
      "Nowruz": 8640,
      "Sergey": 8641,
      "мог": 8642,
      "scientist": 8643,
      "Seneg": 8644,
      "calcul": 8645,
      "confisc": 8646,
      "medications": 8647,
      "Board": 8648,
      "badly": 8649,
      "burden": 8650,
      "Afghans": 8651,
      "horror": 8652,
      "lights": 8653,
      "destabil": 8654,
      "keeps": 8655,
      "keeping": 8656,
      "Mayor": 8657,
      "halt": 8658,
      "simult": 8659,
      "simulation": 8660,
      "discs": 8661,
      "bankrupt": 8662,
      "ukov": 8663,
      "designing": 8664,
      "Blagoves": 8665,
      "ballot": 8666,
      "summit": 8667,
      "MEET": 8668,
      "funded": 8669,
      "gery": 8670,
      "judgment": 8671,
      "aneously": 8672,
      "communication": 8673,
      "communicate": 8674,
      "communicable": 8675,
      "Barnewall": 8676,
      "Manufact": 8677,
      "charging": 8678,
      "personality": 8679,
      "investigating": 8680,
      "suggesting": 8681,
      "Evening": 8682,
      "drive": 8683,
      "debts": 8684,
      "seriously": 8685,
      "Bennewitz": 8686,
      "Toronto": 8687,
      "diagno": 8688,
      "equal": 8689,
      "minds": 8690,
      "raped": 8691,
      "decline": 8692,
      "declined": 8693,
      "minorities": 8694,
      "protective": 8695,
      "280": 8696,
      "Ministry": 8697,
      "Mexican": 8698,
      "Prince": 8699,
      "Strait": 8700,
      "barrel": 8701,
      "stein": 8702,
      "steam": 8703,
      "Associations": 8704,
      "Davar": 8705,
      "Month": 8706,
      "Monster": 8707,
      "Roma": 8708,
      "civilizations": 8709,
      "frontières": 8710,
      "practical": 8711,
      "practices": 8712,
      "Brok": 8713,
      "Kushans": 8714,
      "Patriot": 8715,
      "sounding": 8716,
      "чить": 8717,
      "reaching": 8718,
      "devil": 8719,
      "explains": 8720,
      "stronger": 8721,
      "responsive": 8722,
      "Namibians": 8723,
      "Bring": 8724,
      "Brussel": 8725,
      "Edward": 8726,
      "figured": 8727,
      "abductee": 8728,
      "expects": 8729,
      "candidates": 8730,
      "Coast": 8731,
      "Window": 8732,
      "fallen": 8733,
      "вели": 8734,
      "hearts": 8735,
      "roads": 8736,
      "empire": 8737,
      "Congo": 8738,
      "Jamie": 8739,
      "Twitchy": 8740,
      "credible": 8741,
      "pains": 8742,
      "paint": 8743,
      "titled": 8744,
      "titles": 8745,
      "window": 8746,
      "президен": 8747,
      "establishment": 8748,
      "spreadshirt": 8749,
      "subjects": 8750,
      "hostility": 8751,
      "arguing": 8752,
      "Sharpton": 8753,
      "describing": 8754,
      "characters": 8755,
      "entirely": 8756,
      "liberation": 8757,
      "liberated": 8758,
      "loses": 8759,
      "welve": 8760,
      "surveys": 8761,
      "citizen": 8762,
      "ILITY": 8763,
      "IRGC": 8764,
      "Quarter": 8765,
      "focused": 8766,
      "songs": 8767,
      "были": 8768,
      "ходи": 8769,
      "connection": 8770,
      "necessarily": 8771,
      "expressing": 8772,
      "elsewhere": 8773,
      "holidays": 8774,
      "Views": 8775,
      "benefic": 8776,
      "DEP": 8777,
      "MacDonald": 8778,
      "nomination": 8779,
      "senator": 8780,
      "reveals": 8781,
      "grandmother": 8782,
      "стол": 8783,
      "стоя": 8784,
      "которо": 8785,
      "believable": 8786,
      "requirements": 8787,
      "agreements": 8788,
      "negotiating": 8789,
      "Deputy": 8790,
      "Max": 8791,
      "Wikimedia": 8792,
      "humor": 8793,
      "publish": 8794,
      "temporary": 8795,
      "editorial": 8796,
      "arrival": 8797,
      "Anyone": 8798,
      "расходов": 8799,
      "расчет": 8800,
      "skinned": 8801,
      "demonic": 8802,
      "Priv": 8803,
      "Prix": 8804,
      "messages": 8805,
      "voice": 8806,
      "index": 8807,
      "education": 8808,
      "pollution": 8809,
      "competence": 8810,
      "competitive": 8811,
      "committee": 8812,
      "encouraging": 8813,
      "arently": 8814,
      "Command": 8815,
      "Globalist": 8816,
      "Morning": 8817,
      "Mormon": 8818,
      "circulation": 8819,
      "crossbre": 8820,
      "damn": 8821,
      "predicted": 8822,
      "congratulate": 8823,
      "teachers": 8824,
      "awareness": 8825,
      "Philip": 8826,
      "Berets": 8827,
      "cements": 8828,
      "governed": 8829,
      "ются": 8830,
      "referred": 8831,
      "references": 8832,
      "commentary": 8833,
      "indicates": 8834,
      "photograph": 8835,
      "types": 8836,
      "priority": 8837,
      "Burton": 8838,
      "Schubert": 8839,
      "euro": 8840,
      "flee": 8841,
      "machinations": 8842,
      "replacement": 8843,
      "strike": 8844,
      "associate": 8845,
      "leaks": 8846,
      "ophile": 8847,
      "traditionally": 8848,
      "Bactrian": 8849,
      "Economy": 8850,
      "Economic": 8851,
      "cruel": 8852,
      "mistakes": 8853,
      "будут": 8854,
      "streams": 8855,
      "arrangement": 8856,
      "admitted": 8857,
      "beauty": 8858,
      "Thomas": 8859,
      "occupation": 8860,
      "backgrounds": 8861,
      "Books": 8862,
      "TAKE": 8863,
      "Lobos": 8864,
      "Overall": 8865,
      "PROV": 8866,
      "yahoo": 8867,
      "луч": 8868,
      "tracking": 8869,
      "eliminating": 8870,
      "manufacturing": 8871,
      "objects": 8872,
      "Record": 8873,
      "witnesses": 8874,
      "destroyed": 8875,
      "functioning": 8876,
      "suffered": 8877,
      "strengthens": 8878,
      "Travel": 8879,
      "targets": 8880,
      "targeting": 8881,
      "assured": 8882,
      "exploring": 8883,
      "pledge": 8884,
      "meantime": 8885,
      "crashed": 8886,
      "Lebanese": 8887,
      "Holderness": 8888,
      "achievement": 8889,
      "Background": 8890,
      "IOUS": 8891,
      "Ohio": 8892,
      "Return": 8893,
      "Semit": 8894,
      "Troika": 8895,
      "wildly": 8896,
      "rolling": 8897,
      "conclusions": 8898,
      "consciousness": 8899,
      "resistant": 8900,
      "defeated": 8901,
      "plomacy": 8902,
      "quiry": 8903,
      "symbols": 8904,
      "prepared": 8905,
      "phenomena": 8906,
      "maintaining": 8907,
      "strategist": 8908,
      "correctly": 8909,
      "Speaker": 8910,
      "Sciences": 8911,
      "divor": 8912,
      "hanging": 8913,
      "nutrit": 8914,
      "psychologist": 8915,
      "smoking": 8916,
      "slave": 8917,
      "всего": 8918,
      "separate": 8919,
      "shift": 8920,
      "acknowledge": 8921,
      "heroic": 8922,
      "rubber": 8923,
      "regulations": 8924,
      "каким": 8925,
      "каких": 8926,
      "muslims": 8927,
      "engineering": 8928,
      "purchased": 8929,
      "Medicine": 8930,
      "Rahimiyan": 8931,
      "repeatedly": 8932,
      "Korea": 8933,
      "Yanukov": 8934,
      "Zhou": 8935,
      "baby": 8936,
      "direction": 8937,
      "darkness": 8938,
      "fifth": 8939,
      "laser": 8940,
      "sightings": 8941,
      "isolated": 8942,
      "clarity": 8943,
      "proudly": 8944,
      "Annapolis": 8945,
      "fortunate": 8946,
      "struggle": 8947,
      "virtu": 8948,
      "rapidly": 8949,
      "introduced": 8950,
      "innocent": 8951,
      "innocence": 8952,
      "Historiorant": 8953,
      "Sweden": 8954,
      "Swedish": 8955,
      "AIDS": 8956,
      "Baikonur": 8957,
      "Capitol": 8958,
      "Kimmel": 8959,
      "Kindle": 8960,
      "brave": 8961,
      "licens": 8962,
      "laughed": 8963,
      "oblig": 8964,
      "rarely": 8965,
      "sleep": 8966,
      "inflation": 8967,
      "constantly": 8968,
      "Throughout": 8969,
      "prescribed": 8970,
      "contamination": 8971,
      "contaminated": 8972,
      "positively": 8973,
      "installation": 8974,
      "surrounded": 8975,
      "greeting": 8976,
      "действи": 8977,
      "делает": 8978,
      "motivated": 8979,
      "precedented": 8980,
      "Australia": 8981,
      "Diplomacy": 8982,
      "Denver": 8983,
      "Kayhan": 8984,
      "Martin": 8985,
      "SUBJ": 8986,
      "TERR": 8987,
      "Valley": 8988,
      "WOULD": 8989,
      "WASH": 8990,
      "couples": 8991,
      "crazy": 8992,
      "category": 8993,
      "gathering": 8994,
      "tactics": 8995,
      "огда": 8996,
      "styles": 8997,
      "imperial": 8998,
      "embraced": 8999,
      "convening": 9000,
      "constitutional": 9001,
      "compelled": 9002,
      "lobby": 9003,
      "mosque": 9004,
      "excessive": 9005,
      "Children": 9006,
      "Storytelling": 9007,
      "shelves": 9008,
      "monuments": 9009,
      "Several": 9010,
      "говори": 9011,
      "полни": 9012,
      "Sheikhav": 9013,
      "markings": 9014,
      "appreciated": 9015,
      "Graywolf": 9016,
      "precisely": 9017,
      "emphasize": 9018,
      "INTPs": 9019,
      "settlements": 9020,
      "opponent": 9021,
      "Azeri": 9022,
      "Apparently": 9023,
      "Blooms": 9024,
      "Closure": 9025,
      "Froch": 9026,
      "Graham": 9027,
      "Ivory": 9028,
      "LDS": 9029,
      "Michigan": 9030,
      "NW1": 9031,
      "Remember": 9032,
      "Type": 9033,
      "TINENT": 9034,
      "Wheel": 9035,
      "barely": 9036,
      "camera": 9037,
      "fixed": 9038,
      "pilgrims": 9039,
      "tweet": 9040,
      "оружи": 9041,
      "inevitable": 9042,
      "infections": 9043,
      "removal": 9044,
      "renewable": 9045,
      "reminder": 9046,
      "delegates": 9047,
      "outbreaks": 9048,
      "prosecutor": 9049,
      "mechanical": 9050,
      "principle": 9051,
      "Conditions": 9052,
      "Consider": 9053,
      "bridge": 9054,
      "legitimate": 9055,
      "лагает": 9056,
      "держа": 9057,
      "thoroughly": 9058,
      "involvement": 9059,
      "Abbasid": 9060,
      "confirmation": 9061,
      "televised": 9062,
      "opportunities": 9063,
      "ормирова": 9064,
      "alternatives": 9065,
      "dimensional": 9066,
      "outrageous": 9067,
      "vulnerable": 9068,
      "Spirituality": 9069,
      "antibiotic": 9070,
      "Aquarius": 9071,
      "Agreement": 9072,
      "Baku": 9073,
      "DynCorp": 9074,
      "GUID": 9075,
      "Hyderabad": 9076,
      "Jenkins": 9077,
      "Katutura": 9078,
      "Khorasan": 9079,
      "Lady": 9080,
      "Limited": 9081,
      "Oxford": 9082,
      "Oriental": 9083,
      "PORT": 9084,
      "Parenthood": 9085,
      "Quran": 9086,
      "Ratio": 9087,
      "Sayyari": 9088,
      "Sachs": 9089,
      "Wicca": 9090,
      "battles": 9091,
      "Пентаго": 9092,
      "кспер": 9093,
      "academic": 9094,
      "seventeen": 9095,
      "chapter": 9096,
      "uncertainty": 9097,
      "devoted": 9098,
      "peoples": 9099,
      "apartheid": 9100,
      "platform": 9101,
      "ocaust": 9102,
      "spontaneous": 9103,
      "Italian": 9104,
      "Conspiracies": 9105,
      "minimum": 9106,
      "INCLUD": 9107,
      "Alfoneh": 9108,
      "perspective": 9109,
      "elegant": 9110,
      "detective": 9111,
      "bugs": 9112,
      "Protect": 9113,
      "ционально": 9114,
      "depreciation": 9115,
      "AGREE": 9116,
      "176201": 9117,
      "dominate": 9118,
      "mitigate": 9119,
      "станови": 9120,
      "образо": 9121,
      "nominee": 9122,
      "schedul": 9123,
      "prophet": 9124,
      "Survival": 9125,
      "accommodate": 9126,
      "lifestyle": 9127,
      "последние": 9128,
      "recruitment": 9129,
      "INDIVIDUAL": 9130,
      "EMPLOYEES": 9131,
      "AIPAC": 9132,
      "Ayatol": 9133,
      "Avebury": 9134,
      "Aftab": 9135,
      "Balkh": 9136,
      "Bakersfield": 9137,
      "Cathol": 9138,
      "Cantonese": 9139,
      "Derek": 9140,
      "District": 9141,
      "Facilities": 9142,
      "Family": 9143,
      "Gholam": 9144,
      "HMV": 9145,
      "Habib": 9146,
      "Hepthal": 9147,
      "Haddad": 9148,
      "Hormuz": 9149,
      "Iowa": 9150,
      "Khamnei": 9151,
      "Lotito": 9152,
      "LGBT": 9153,
      "Nixon": 9154,
      "Pulitz": 9155,
      "Podcast": 9156,
      "PARAGRAP": 9157,
      "Qadisiy": 9158,
      "Safavi": 9159,
      "Schnabel": 9160,
      "Scandinav": 9161,
      "Tactical": 9162,
      "Tankus": 9163,
      "Tchaikowsky": 9164,
      "TREATY": 9165,
      "Yahya": 9166,
      "[…]": 9167,
      "bucks": 9168,
      "frozen": 9169,
      "fiasco": 9170,
      "kafir": 9171,
      "mortality": 9172,
      "phabet": 9173,
      "pundits": 9174,
      "sarcasm": 9175,
      "Евро": 9176,
      "Читайте": 9177,
      "хакер": 9178,
      "эстети": 9179,
      "asylum": 9180,
      "whistle": 9181,
      "chensk": 9182,
      "contradict": 9183,
      "conventional": 9184,
      "agraph": 9185,
      "deposits": 9186,
      "debris": 9187,
      "trivial": 9188,
      "lovakia": 9189,
      "excellent": 9190,
      "upheaval": 9191,
      "intrepidreport": 9192,
      "sputniknews": 9193,
      "discrimination": 9194,
      "новым": 9195,
      "ressortissants": 9196,
      "submarines": 9197,
      "REQUEST": 9198,
      "миллиар": 9199,
      "Polonaises": 9200,
      "Marrakesh": 9201,
      "Columbia": 9202,
      "Senegal": 9203,
      "Brussels": 9204,
      "Yanukovych": 9205,
      "SUBJECT": 9206,
      "Sheikhavandi": 9207,
      "Bloomsbury": 9208,
      "Ayatollah": 9209,
      "PARAGRAPH": 9210,
      "Qadisiyah": 9211,
      "!'": 9212,
      "+,": 9213,
      "/?": 9214,
      "1st": 9215,
      "220": 9216,
      "3G": 9217,
      "325": 9218,
      "4E": 9219,
      "5th": 9220,
      "62": 9221,
      "63": 9222,
      "64": 9223,
      "73": 9224,
      "76": 9225,
      "700": 9226,
      "750": 9227,
      "82": 9228,
      "86": 9229,
      "88": 9230,
      "94": 9231,
      "97": 9232,
      ":\"": 9233,
      "Ak": 9234,
      "Ach": 9235,
      "Age": 9236,
      "Amy": 9237,
      "Aerospace": 9238,
      "Bor": 9239,
      "Bas": 9240,
      "Bol": 9241,
      "Bag": 9242,
      "Best": 9243,
      "Bod": 9244,
      "Bang": 9245,
      "Buc": 9246,
      "Bos": 9247,
      "Burn": 9248,
      "BAR": 9249,
      "BEC": 9250,
      "Brain": 9251,
      "Brun": 9252,
      "Bada": 9253,
      "Block": 9254,
      "BALL": 9255,
      "Ce": 9256,
      "Cat": 9257,
      "Cro": 9258,
      "Cow": 9259,
      "Could": 9260,
      "Cens": 9261,
      "Cob": 9262,
      "COR": 9263,
      "CLE": 9264,
      "CAL": 9265,
      "Cave": 9266,
      "CES": 9267,
      "Categ": 9268,
      "Clip": 9269,
      "DH": 9270,
      "DU": 9271,
      "Din": 9272,
      "Der": 9273,
      "Dak": 9274,
      "Due": 9275,
      "Div": 9276,
      "Dign": 9277,
      "Dany": 9278,
      "DON": 9279,
      "DIS": 9280,
      "Dise": 9281,
      "Dream": 9282,
      "DET": 9283,
      "Dept": 9284,
      "DAY": 9285,
      "Dyl": 9286,
      "Darius": 9287,
      "Demet": 9288,
      "E1": 9289,
      "E2": 9290,
      "Es": 9291,
      "Eth": 9292,
      "Eli": 9293,
      "EAC": 9294,
      "EIG": 9295,
      "EVD": 9296,
      "Estimate": 9297,
      "F1": 9298,
      "Fu": 9299,
      "Fat": 9300,
      "Fal": 9301,
      "Fis": 9302,
      "Fur": 9303,
      "Fig": 9304,
      "Fun": 9305,
      "Fem": 9306,
      "Fri": 9307,
      "Fif": 9308,
      "Fear": 9309,
      "Find": 9310,
      "File": 9311,
      "FIS": 9312,
      "Fair": 9313,
      "Fried": 9314,
      "Flying": 9315,
      "Father": 9316,
      "FAIR": 9317,
      "FAST": 9318,
      "GM": 9319,
      "GT": 9320,
      "Gon": 9321,
      "Gir": 9322,
      "Gather": 9323,
      "Glock": 9324,
      "Hot": 9325,
      "Hum": 9326,
      "Hend": 9327,
      "Hide": 9328,
      "Hang": 9329,
      "Hond": 9330,
      "Hait": 9331,
      "HAM": 9332,
      "Hung": 9333,
      "HELL": 9334,
      "Half": 9335,
      "IV": 9336,
      "IW": 9337,
      "Ig": 9338,
      "Ire": 9339,
      "Imag": 9340,
      "Jr": 9341,
      "Jac": 9342,
      "Jav": 9343,
      "JUL": 9344,
      "Jersey": 9345,
      "Kan": 9346,
      "Kand": 9347,
      "Kill": 9348,
      "Kens": 9349,
      "Key": 9350,
      "Kiang": 9351,
      "Krem": 9352,
      "Kaine": 9353,
      "Knife": 9354,
      "Kras": 9355,
      "Kevin": 9356,
      "LB": 9357,
      "LS": 9358,
      "Ly": 9359,
      "Len": 9360,
      "Lis": 9361,
      "Lag": 9362,
      "Late": 9363,
      "Live": 9364,
      "Line": 9365,
      "Later": 9366,
      "Lank": 9367,
      "LLE": 9368,
      "Lying": 9369,
      "Liter": 9370,
      "Living": 9371,
      "LIST": 9372,
      "Linda": 9373,
      "MI": 9374,
      "Mi": 9375,
      "Mes": 9376,
      "Mad": 9377,
      "Mut": 9378,
      "Moun": 9379,
      "Mess": 9380,
      "Mud": 9381,
      "Mong": 9382,
      "Mail": 9383,
      "Mult": 9384,
      "Mach": 9385,
      "Make": 9386,
      "Matt": 9387,
      "MAN": 9388,
      "Mush": 9389,
      "MAR": 9390,
      "Male": 9391,
      "Mutil": 9392,
      "Morgan": 9393,
      "Money": 9394,
      "Material": 9395,
      "MIGHT": 9396,
      "Nat": 9397,
      "Nad": 9398,
      "Nag": 9399,
      "None": 9400,
      "Names": 9401,
      "NING": 9402,
      "NTY": 9403,
      "OM": 9404,
      "OT": 9405,
      "Od": 9406,
      "Ot": 9407,
      "Oce": 9408,
      "Ode": 9409,
      "Oper": 9410,
      "OTH": 9411,
      "Pent": 9412,
      "Pam": 9413,
      "Pur": 9414,
      "Pound": 9415,
      "Pence": 9416,
      "Pip": 9417,
      "Pos": 9418,
      "PRE": 9419,
      "Pale": 9420,
      "Pier": 9421,
      "Pret": 9422,
      "PERS": 9423,
      "Psych": 9424,
      "Pope": 9425,
      "Porter": 9426,
      "QB": 9427,
      "Qa": 9428,
      "RA": 9429,
      "Ren": 9430,
      "Rate": 9431,
      "Rain": 9432,
      "Rap": 9433,
      "Rud": 9434,
      "Rose": 9435,
      "Reven": 9436,
      "Rick": 9437,
      "Rank": 9438,
      "Rio": 9439,
      "Rider": 9440,
      "Rather": 9441,
      "Rogue": 9442,
      "Ranger": 9443,
      "Revolution": 9444,
      "RIGHT": 9445,
      "Rhap": 9446,
      "SC": 9447,
      "Sal": 9448,
      "Sar": 9449,
      "Sid": 9450,
      "Sir": 9451,
      "Sport": 9452,
      "Spr": 9453,
      "Sau": 9454,
      "Shel": 9455,
      "SED": 9456,
      "School": 9457,
      "SEL": 9458,
      "Sister": 9459,
      "Santa": 9460,
      "Saint": 9461,
      "Stern": 9462,
      "Tu": 9463,
      "Tan": 9464,
      "Tun": 9465,
      "Tour": 9466,
      "Tel": 9467,
      "Tong": 9468,
      "Tos": 9469,
      "Taking": 9470,
      "Text": 9471,
      "TAG": 9472,
      "TIL": 9473,
      "UP": 9474,
      "Us": 9475,
      "User": 9476,
      "Ver": 9477,
      "Ved": 9478,
      "Vul": 9479,
      "VEL": 9480,
[...]
