{
  "version": "1.0",
  "truncation": null,
  "padding": null,
  "added_tokens": [],
  "normalizer": {
    "type": "Lowercase"
  },
  "pre_tokenizer": {
    "type": "Whitespace"
  },
  "post_processor": null,
  "decoder": null,
  "model": {
    "type": "BPE",
    "dropout": null,
    "unk_token": null,
    "continuing_subword_prefix": null,
    "end_of_word_suffix": null,
    "fuse_unk": false,
    "byte_fallback": false,
    "ignore_merges": false,
    "vocab": {
      "!": 0,
      "\"": 1,
      "#": 2,
      "$": 3,
      "%": 4,
      "&": 5,
      "'": 6,
      "(": 7,
      ")": 8,
      "*": 9,
      "+": 10,
      ",": 11,
      "-": 12,
      ".": 13,
      "/": 14,
      "0": 15,
      "1": 16,
      "2": 17,
      "3": 18,
      "4": 19,
      "5": 20,
      "6": 21,
      "7": 22,
      "8": 23,
      "9": 24,
      ":": 25,
      ";": 26,
      "<": 27,
      "=": 28,
      ">": 29,
      "?": 30,
      "@": 31,
      "[": 32,
      "\\": 33,
      "]": 34,
      "_": 35,
      "`": 36,
      "a": 37,
      "b": 38,
      "c": 39,
      "d": 40,
      "e": 41,
      "f": 42,
      "g": 43,
      "h": 44,
      "i": 45,
      "j": 46,
      "k": 47,
      "l": 48,
      "m": 49,
      "n": 50,
      "o": 51,
      "p": 52,
      "q": 53,
      "r": 54,
      "s": 55,
      "t": 56,
      "u": 57,
      "v": 58,
      "w": 59,
      "x": 60,
      "y": 61,
      "z": 62,
      "{": 63,
      "|": 64,
      "}": 65,
      "£": 66,
      "§": 67,
      "©": 68,
      "­": 69,
      "®": 70,
      "°": 71,
      "´": 72,
      "º": 73,
      "¼": 74,
      "à": 75,
      "á": 76,
      "ç": 77,
      "é": 78,
      "ê": 79,
      "ë": 80,
      "ì": 81,
      "í": 82,
      "ñ": 83,
      "ó": 84,
      "ö": 85,
      "ú": 86,
      "ü": 87,
      "č": 88,
      "ě": 89,
      "ī": 90,
      "ž": 91,
      "​": 92,
      "–": 93,
      "—": 94,
      "‘": 95,
      "’": 96,
      "“": 97,
      "”": 98,
      "•": 99,
      "…": 100,
      "′": 101,
      "€": 102,
      "™": 103,
      "∂": 104,
      "√": 105,
      "≥": 106,
      "th": 107,
      "in": 108,
      "the": 109,
      "an": 110,
      "re": 111,
      "on": 112,
      "er": 113,
      "at": 114,
      "en": 115,
      "st": 116,
      "or": 117,
      "al": 118,
      "ed": 119,
      "ou": 120,
      "is": 121,
      "ing": 122,
      "to": 123,
      "ar": 124,
      "it": 125,
      "of": 126,
      "and": 127,
      "es": 128,
      "as": 129,
      "ic": 130,
      "ion": 131,
      "le": 132,
      "om": 133,
      "se": 134,
      "ent": 135,
      "ac": 136,
      "be": 137,
      "he": 138,
      "il": 139,
      "ve": 140,
      "ad": 141,
      "id": 142,
      "ro": 143,
      "ch": 144,
      "for": 145,
      "ly": 146,
      "wh": 147,
      "that": 148,
      "de": 149,
      "lo": 150,
      "us": 151,
      "we": 152,
      "ig": 153,
      "no": 154,
      "am": 155,
      "im": 156,
      "ay": 157,
      "ver": 158,
      "ce": 159,
      "tr": 160,
      "ol": 161,
      "ation": 162,
      "ir": 163,
      "pe": 164,
      "un": 165,
      "con": 166,
      "ut": 167,
      "res": 168,
      "are": 169,
      "ne": 170,
      "ag": 171,
      "ur": 172,
      "wi": 173,
      "ter": 174,
      "ke": 175,
      "com": 176,
      "mo": 177,
      "with": 178,
      "ain": 179,
      "ct": 180,
      "li": 181,
      "um": 182,
      "ab": 183,
      "ld": 184,
      "was": 185,
      "ha": 186,
      "fr": 187,
      "te": 188,
      "our": 189,
      "ment": 190,
      "ate": 191,
      "po": 192,
      "ers": 193,
      "pro": 194,
      "out": 195,
      "su": 196,
      "op": 197,
      "ge": 198,
      "fe": 199,
      "ill": 200,
      "ul": 201,
      "so": 202,
      "ex": 203,
      "oun": 204,
      "ist": 205,
      "this": 206,
      "all": 207,
      "go": 208,
      "ht": 209,
      "do": 210,
      "one": 211,
      "sa": 212,
      "if": 213,
      "ther": 214,
      "ap": 215,
      "not": 216,
      "sh": 217,
      "by": 218,
      "have": 219,
      "me": 220,
      "art": 221,
      "but": 222,
      "has": 223,
      "pr": 224,
      "ies": 225,
      "man": 226,
      "ess": 227,
      "you": 228,
      "pl": 229,
      "ould": 230,
      "ort": 231,
      "from": 232,
      "ial": 233,
      "ant": 234,
      "act": 235,
      "ity": 236,
      "ia": 237,
      "cl": 238,
      "ast": 239,
      "ive": 240,
      "20": 241,
      "iv": 242,
      "said": 243,
      "pres": 244,
      "they": 245,
      "cr": 246,
      "co": 247,
      "his": 248,
      "end": 249,
      "af": 250,
      "port": 251,
      "wor": 252,
      "ump": 253,
      "ack": 254,
      "ust": 255,
      "red": 256,
      "ye": 257,
      "ight": 258,
      "ho": 259,
      "who": 260,
      "ll": 261,
      "qu": 262,
      "can": 263,
      "ome": 264,
      "trump": 265,
      "em": 266,
      "au": 267,
      "ck": 268,
      "day": 269,
      "ind": 270,
      "their": 271,
      "el": 272,
      "ary": 273,
      "der": 274,
      "ice": 275,
      "up": 276,
      "ev": 277,
      "part": 278,
      "bo": 279,
      "ak": 280,
      "tim": 281,
      "bl": 282,
      "will": 283,
      "been": 284,
      "ian": 285,
      "wn": 286,
      "ard": 287,
      "fo": 288,
      "ich": 289,
      "new": 290,
      "gr": 291,
      "ie": 292,
      "ren": 293,
      "more": 294,
      "ident": 295,
      "ally": 296,
      "ts": 297,
      "mar": 298,
      "ated": 299,
      "sp": 300,
      "ions": 301,
      "ine": 302,
      "year": 303,
      "ong": 304,
      "uk": 305,
      "per": 306,
      "ous": 307,
      "there": 308,
      "about": 309,
      "had": 310,
      "some": 311,
      "low": 312,
      "now": 313,
      "pol": 314,
      "ens": 315,
      "were": 316,
      "her": 317,
      "off": 318,
      "oug": 319,
      "which": 320,
      "coun": 321,
      "ree": 322,
      "she": 323,
      "br": 324,
      "ace": 325,
      "very": 326,
      "age": 327,
      "ber": 328,
      "would": 329,
      "od": 330,
      "min": 331,
      "ide": 332,
      "ud": 333,
      "peop": 334,
      "its": 335,
      "other": 336,
      "what": 337,
      "people": 338,
      "uss": 339,
      "like": 340,
      "ound": 341,
      "ign": 342,
      "ans": 343,
      "str": 344,
      "ire": 345,
      "ence": 346,
      "aw": 347,
      "ip": 348,
      ",\"": 349,
      "thing": 350,
      "any": 351,
      "ance": 352,
      "sec": 353,
      "00": 354,
      "over": 355,
      "dis": 356,
      "here": 357,
      "ure": 358,
      "rain": 359,
      "ass": 360,
      "ail": 361,
      "ical": 362,
      "president": 363,
      "say": 364,
      "sc": 365,
      "also": 366,
      "ake": 367,
      "ok": 368,
      "ish": 369,
      "cont": 370,
      "ty": 371,
      "after": 372,
      "ations": 373,
      "ite": 374,
      "ukrain": 375,
      "fir": 376,
      "cent": 377,
      "form": 378,
      "ting": 379,
      "ser": 380,
      "pre": 381,
      "russ": 382,
      "many": 383,
      "ough": 384,
      "able": 385,
      "mon": 386,
      "ach": 387,
      "war": 388,
      "acc": 389,
      "ib": 390,
      "iz": 391,
      "time": 392,
      "int": 393,
      "vern": 394,
      "med": 395,
      "when": 396,
      "my": 397,
      "govern": 398,
      "just": 399,
      "amer": 400,
      "old": 401,
      "than": 402,
      "enc": 403,
      "du": 404,
      "ction": 405,
      "your": 406,
      "eu": 407,
      "wo": 408,
      "ger": 409,
      "work": 410,
      "don": 411,
      "cial": 412,
      "fore": 413,
      "pos": 414,
      "ful": 415,
      "ame": 416,
      "201": 417,
      "av": 418,
      "way": 419,
      "ors": 420,
      "comm": 421,
      "state": 422,
      "americ": 423,
      "blo": 424,
      "ink": 425,
      "spe": 426,
      "lead": 427,
      "government": 428,
      "fl": 429,
      "ob": 430,
      "ates": 431,
      "ted": 432,
      "sup": 433,
      "est": 434,
      "them": 435,
      "ord": 436,
      "dr": 437,
      "ukraine": 438,
      "ky": 439,
      "add": 440,
      "ase": 441,
      "under": 442,
      "ret": 443,
      "euro": 444,
      ".\"": 445,
      "ep": 446,
      "ile": 447,
      "pu": 448,
      "most": 449,
      "comp": 450,
      "these": 451,
      "back": 452,
      "reg": 453,
      "nation": 454,
      "could": 455,
      "sy": 456,
      "gu": 457,
      "att": 458,
      "ade": 459,
      "ef": 460,
      "read": 461,
      "arch": 462,
      "into": 463,
      "marke": 464,
      "publ": 465,
      "ory": 466,
      "first": 467,
      "sho": 468,
      "how": 469,
      "europe": 470,
      "ious": 471,
      "\".": 472,
      "reat": 473,
      "ents": 474,
      "igh": 475,
      "see": 476,
      "get": 477,
      "air": 478,
      "come": 479,
      "two": 480,
      "leg": 481,
      "minist": 482,
      "being": 483,
      "inter": 484,
      "even": 485,
      "head": 486,
      "search": 487,
      "report": 488,
      "ress": 489,
      "ning": 490,
      "cau": 491,
      "again": 492,
      "may": 493,
      "vo": 494,
      "inc": 495,
      "ose": 496,
      "call": 497,
      "ied": 498,
      "try": 499,
      "serv": 500,
      "ities": 501,
      "used": 502,
      "ition": 503,
      "years": 504,
      "russia": 505,
      "cause": 506,
      "fin": 507,
      "ise": 508,
      "want": 509,
      "sto": 510,
      "des": 511,
      "ult": 512,
      "iss": 513,
      "wee": 514,
      "vers": 515,
      "public": 516,
      "ks": 517,
      "sel": 518,
      "eral": 519,
      "world": 520,
      "xt": 521,
      "think": 522,
      "ict": 523,
      "block": 524,
      "ban": 525,
      "last": 526,
      "right": 527,
      "incl": 528,
      "only": 529,
      "ick": 530,
      "then": 531,
      "cer": 532,
      "ms": 533,
      "uring": 534,
      "down": 535,
      "tal": 536,
      "vis": 537,
      "ild": 538,
      "ue": 539,
      "ry": 540,
      "ual": 541,
      "where": 542,
      "did": 543,
      "ration": 544,
      "chan": 545,
      "long": 546,
      "him": 547,
      "line": 548,
      "chain": 549,
      "gen": 550,
      "bet": 551,
      "vest": 552,
      "ced": 553,
      "every": 554,
      "hel": 555,
      "rel": 556,
      "because": 557,
      "ative": 558,
      "says": 559,
      "market": 560,
      "ma": 561,
      "ps": 562,
      "alth": 563,
      "those": 564,
      "land": 565,
      "law": 566,
      "next": 567,
      "jo": 568,
      "need": 569,
      "national": 570,
      "ww": 571,
      "aking": 572,
      "told": 573,
      "pp": 574,
      "zel": 575,
      "cted": 576,
      "ensky": 577,
      "zelensky": 578,
      "row": 579,
      "well": 580,
      "support": 581,
      "cess": 582,
      "io": 583,
      "ily": 584,
      "blockchain": 585,
      "mer": 586,
      "pa": 587,
      "invest": 588,
      "rough": 589,
      "pon": 590,
      "ater": 591,
      "xx": 592,
      "ince": 593,
      "prov": 594,
      "use": 595,
      "offic": 596,
      "cle": 597,
      "pers": 598,
      "ann": 599,
      "while": 600,
      "dec": 601,
      "cour": 602,
      "cho": 603,
      "col": 604,
      "put": 605,
      "look": 606,
      "mil": 607,
      "ra": 608,
      "par": 609,
      "rest": 610,
      "ating": 611,
      "sur": 612,
      "car": 613,
      "ele": 614,
      "high": 615,
      "ss": 616,
      "202": 617,
      "la": 618,
      "cur": 619,
      "vie": 620,
      "polit": 621,
      "fed": 622,
      "ph": 623,
      "pt": 624,
      "through": 625,
      "news": 626,
      ".”": 627,
      "fam": 628,
      "king": 629,
      "lar": 630,
      "rem": 631,
      "going": 632,
      "includ": 633,
      "19": 634,
      "ple": 635,
      "before": 636,
      "mem": 637,
      "bit": 638,
      "cal": 639,
      "inte": 640,
      "bu": 641,
      "made": 642,
      "ear": 643,
      "fact": 644,
      "stock": 645,
      "je": 646,
      "nor": 647,
      "log": 648,
      "fol": 649,
      "ible": 650,
      "sign": 651,
      "def": 652,
      "real": 653,
      "against": 654,
      "make": 655,
      "quest": 656,
      "country": 657,
      "ments": 658,
      "inv": 659,
      "ism": 660,
      "gest": 661,
      "tain": 662,
      "wer": 663,
      "feren": 664,
      "ency": 665,
      "bal": 666,
      "ces": 667,
      "mu": 668,
      "during": 669,
      "ama": 670,
      "person": 671,
      "dire": 672,
      "und": 673,
      "ave": 674,
      "reas": 675,
      "stand": 676,
      "ys": 677,
      "ited": 678,
      "take": 679,
      "ving": 680,
      "ific": 681,
      "week": 682,
      "clo": 683,
      "know": 684,
      "plo": 685,
      "help": 686,
      "produ": 687,
      "ouse": 688,
      "ash": 689,
      "urn": 690,
      "should": 691,
      "press": 692,
      "since": 693,
      "//": 694,
      "ution": 695,
      "does": 696,
      "secur": 697,
      "month": 698,
      "://": 699,
      "eng": 700,
      "htt": 701,
      "self": 702,
      "dy": 703,
      "administ": 704,
      "led": 705,
      "own": 706,
      "vi": 707,
      "follow": 708,
      "big": 709,
      "les": 710,
      "sen": 711,
      "ton": 712,
      "gress": 713,
      "cons": 714,
      "respon": 715,
      "view": 716,
      "house": 717,
      "ices": 718,
      "beli": 719,
      "char": 720,
      "oper": 721,
      "appe": 722,
      "di": 723,
      "order": 724,
      "life": 725,
      "bre": 726,
      "bro": 727,
      "ca": 728,
      "happ": 729,
      "ists": 730,
      "security": 731,
      "ta": 732,
      "ten": 733,
      "stit": 734,
      "cond": 735,
      "ble": 736,
      "cap": 737,
      "ves": 738,
      "ital": 739,
      "contin": 740,
      "official": 741,
      "far": 742,
      "mr": 743,
      "econ": 744,
      "tar": 745,
      "atic": 746,
      "econom": 747,
      "less": 748,
      "ters": 749,
      "much": 750,
      "che": 751,
      "around": 752,
      "ris": 753,
      "depart": 754,
      "plan": 755,
      "milit": 756,
      "ared": 757,
      "such": 758,
      "bas": 759,
      "iff": 760,
      "home": 761,
      "ins": 762,
      "stem": 763,
      "white": 764,
      "polic": 765,
      "org": 766,
      "good": 767,
      "american": 768,
      "val": 769,
      "ween": 770,
      "between": 771,
      "clear": 772,
      "ics": 773,
      "feel": 774,
      "found": 775,
      "miss": 776,
      "administration": 777,
      "grou": 778,
      "media": 779,
      "ness": 780,
      "tem": 781,
      "fect": 782,
      "mit": 783,
      "start": 784,
      "power": 785,
      "russian": 786,
      "attack": 787,
      "nat": 788,
      "child": 789,
      "post": 790,
      "point": 791,
      "sub": 792,
      "illion": 793,
      "show": 794,
      "investig": 795,
      "giv": 796,
      "oman": 797,
      "set": 798,
      "european": 799,
      "including": 800,
      "deal": 801,
      "social": 802,
      "prof": 803,
      "system": 804,
      "ime": 805,
      "sure": 806,
      "secret": 807,
      "fer": 808,
      "glo": 809,
      "sour": 810,
      "states": 811,
      "military": 812,
      "three": 813,
      "exce": 814,
      "ward": 815,
      "germany": 816,
      "star": 817,
      "both": 818,
      "thor": 819,
      "still": 820,
      "bc": 821,
      "por": 822,
      "200": 823,
      "cut": 824,
      "wr": 825,
      "department": 826,
      "cor": 827,
      "commun": 828,
      "ording": 829,
      "direct": 830,
      "free": 831,
      "recent": 832,
      "erg": 833,
      "stru": 834,
      "let": 835,
      "without": 836,
      "ext": 837,
      "ner": 838,
      "peace": 839,
      "coin": 840,
      "ved": 841,
      "obama": 842,
      "called": 843,
      "num": 844,
      "demo": 845,
      "mee": 846,
      "leaders": 847,
      "10": 848,
      "ked": 849,
      "research": 850,
      "test": 851,
      "canad": 852,
      "curren": 853,
      "democr": 854,
      "ures": 855,
      "atch": 856,
      "trans": 857,
      "pect": 858,
      "tech": 859,
      "soc": 860,
      "author": 861,
      "mone": 862,
      "tion": 863,
      "ster": 864,
      "ular": 865,
      "things": 866,
      "000": 867,
      "group": 868,
      "hist": 869,
      "bitcoin": 870,
      "according": 871,
      "hum": 872,
      "too": 873,
      "health": 874,
      "family": 875,
      "bus": 876,
      "bers": 877,
      "force": 878,
      "import": 879,
      "ually": 880,
      "ross": 881,
      "terr": 882,
      "times": 883,
      "ather": 884,
      "mag": 885,
      "change": 886,
      "ald": 887,
      "ility": 888,
      "move": 889,
      "prom": 890,
      "federal": 891,
      "uary": 892,
      "really": 893,
      "ings": 894,
      "tru": 895,
      "exper": 896,
      "black": 897,
      "ways": 898,
      "http": 899,
      "mig": 900,
      "ran": 901,
      "contr": 902,
      "aim": 903,
      "ls": 904,
      "ised": 905,
      "beg": 906,
      "bi": 907,
      "ven": 908,
      "ately": 909,
      "party": 910,
      "four": 911,
      "har": 912,
      "stud": 913,
      "ages": 914,
      "court": 915,
      "gh": 916,
      "ru": 917,
      "ste": 918,
      "top": 919,
      "headline": 920,
      "stocks": 921,
      "light": 922,
      "issu": 923,
      "ship": 924,
      "ought": 925,
      "america": 926,
      "ready": 927,
      "political": 928,
      "face": 929,
      "body": 930,
      "police": 931,
      "contro": 932,
      "same": 933,
      "office": 934,
      "sou": 935,
      "sim": 936,
      "spo": 937,
      "searches": 938,
      "viol": 939,
      "happen": 940,
      "12": 941,
      "ivers": 942,
      "got": 943,
      "aff": 944,
      "donald": 945,
      "money": 946,
      "ath": 947,
      "ft": 948,
      "hing": 949,
      "mus": 950,
      "inform": 951,
      "live": 952,
      "inton": 953,
      "why": 954,
      "poss": 955,
      "exceed": 956,
      "never": 957,
      "open": 958,
      "ending": 959,
      "www": 960,
      "secretary": 961,
      "bbc": 962,
      "jor": 963,
      "sun": 964,
      "wit": 965,
      "chr": 966,
      "list": 967,
      "indust": 968,
      "gram": 969,
      "question": 970,
      "global": 971,
      "men": 972,
      "vir": 973,
      "lop": 974,
      "prev": 975,
      "cam": 976,
      "ged": 977,
      "ix": 978,
      "ned": 979,
      "ale": 980,
      "second": 981,
      "tax": 982,
      "policy": 983,
      "grow": 984,
      "os": 985,
      "ues": 986,
      "win": 987,
      "best": 988,
      "iday": 989,
      "present": 990,
      "ended": 991,
      "space": 992,
      "finan": 993,
      "),": 994,
      "great": 995,
      "another": 996,
      "velop": 997,
      "near": 998,
      "clinton": 999,
      "dat": 1000,
      "night": 1001,
      "iness": 1002,
      "develop": 1003,
      "aren": 1004,
      "days": 1005,
      "fire": 1006,
      "oc": 1007,
      "major": 1008,
      "source": 1009,
      "hand": 1010,
      "ior": 1011,
      "ines": 1012,
      "play": 1013,
      "place": 1014,
      "ants": 1015,
      "ize": 1016,
      "rece": 1017,
      "using": 1018,
      "xxxx": 1019,
      "bar": 1020,
      "cre": 1021,
      "dist": 1022,
      "kind": 1023,
      "mat": 1024,
      "local": 1025,
      "keep": 1026,
      "email": 1027,
      "former": 1028,
      "legal": 1029,
      "officials": 1030,
      "cy": 1031,
      "ot": 1032,
      "ats": 1033,
      ",”": 1034,
      "find": 1035,
      "pay": 1036,
      "ons": 1037,
      "left": 1038,
      "ential": 1039,
      "commit": 1040,
      "visit": 1041,
      "den": 1042,
      "nes": 1043,
      "anal": 1044,
      "allow": 1045,
      "program": 1046,
      "congress": 1047,
      "pope": 1048,
      "priv": 1049,
      "something": 1050,
      "ference": 1051,
      "financial": 1052,
      "bs": 1053,
      "sum": 1054,
      "tak": 1055,
      "inal": 1056,
      "trad": 1057,
      "sol": 1058,
      "side": 1059,
      "tle": 1060,
      "idence": 1061,
      "action": 1062,
      "remain": 1063,
      "ling": 1064,
      "lim": 1065,
      "today": 1066,
      "ically": 1067,
      "seem": 1068,
      "constit": 1069,
      "sug": 1070,
      "human": 1071,
      "business": 1072,
      "christ": 1073,
      "came": 1074,
      "case": 1075,
      "ges": 1076,
      "lu": 1077,
      "lit": 1078,
      "might": 1079,
      "whe": 1080,
      "washing": 1081,
      "book": 1082,
      "meeting": 1083,
      "30": 1084,
      "dif": 1085,
      "jan": 1086,
      "oil": 1087,
      "run": 1088,
      "sm": 1089,
      "won": 1090,
      "sever": 1091,
      "bank": 1092,
      "ient": 1093,
      "sing": 1094,
      "rele": 1095,
      "ator": 1096,
      "det": 1097,
      "net": 1098,
      "howe": 1099,
      "full": 1100,
      "cast": 1101,
      "fac": 1102,
      "gold": 1103,
      "kno": 1104,
      "crit": 1105,
      "election": 1106,
      "given": 1107,
      "information": 1108,
      "ben": 1109,
      "care": 1110,
      "fund": 1111,
      "mid": 1112,
      "must": 1113,
      "pass": 1114,
      "ctions": 1115,
      "proble": 1116,
      "added": 1117,
      "organ": 1118,
      "data": 1119,
      "washington": 1120,
      "several": 1121,
      "each": 1122,
      "gree": 1123,
      "lot": 1124,
      "coming": 1125,
      "2017": 1126,
      "interest": 1127,
      "isis": 1128,
      "ars": 1129,
      "acy": 1130,
      "deb": 1131,
      "ago": 1132,
      "few": 1133,
      "aud": 1134,
      "iety": 1135,
      "ized": 1136,
      "current": 1137,
      "ium": 1138,
      "later": 1139,
      "pat": 1140,
      "sit": 1141,
      "sent": 1142,
      "watch": 1143,
      "leve": 1144,
      "united": 1145,
      "plain": 1146,
      "ians": 1147,
      "ds": 1148,
      "fur": 1149,
      "hu": 1150,
      "main": 1151,
      "mess": 1152,
      "na": 1153,
      "step": 1154,
      "alleg": 1155,
      "sex": 1156,
      "claim": 1157,
      "minister": 1158,
      "number": 1159,
      "ko": 1160,
      "ute": 1161,
      "agency": 1162,
      "safe": 1163,
      "mean": 1164,
      "known": 1165,
      "threat": 1166,
      "infl": 1167,
      "ief": 1168,
      "understand": 1169,
      "canada": 1170,
      "ier": 1171,
      "kill": 1172,
      "mass": 1173,
      "pur": 1174,
      "ision": 1175,
      "friday": 1176,
      "ends": 1177,
      "members": 1178,
      "economic": 1179,
      "cas": 1180,
      "lon": 1181,
      "ral": 1182,
      "along": 1183,
      "death": 1184,
      "among": 1185,
      "likely": 1186,
      "comple": 1187,
      "north": 1188,
      "industry": 1189,
      "however": 1190,
      "eve": 1191,
      "late": 1192,
      "sus": 1193,
      "dep": 1194,
      "ives": 1195,
      "emplo": 1196,
      ").": 1197,
      "uc": 1198,
      "ref": 1199,
      "become": 1200,
      "nolog": 1201,
      "comes": 1202,
      "fri": 1203,
      "ived": 1204,
      "leader": 1205,
      "announ": 1206,
      "investigation": 1207,
      "technolog": 1208,
      "ience": 1209,
      "mber": 1210,
      "german": 1211,
      "americans": 1212,
      "important": 1213,
      "whether": 1214,
      "fil": 1215,
      "scho": 1216,
      "requ": 1217,
      "school": 1218,
      "done": 1219,
      "east": 1220,
      "dev": 1221,
      "dest": 1222,
      "concer": 1223,
      "prote": 1224,
      "crim": 1225,
      "cost": 1226,
      "hosp": 1227,
      "reported": 1228,
      "break": 1229,
      "risk": 1230,
      "hold": 1231,
      "making": 1232,
      "sch": 1233,
      "ination": 1234,
      "ional": 1235,
      "seen": 1236,
      "agree": 1237,
      "due": 1238,
      "statement": 1239,
      "suggest": 1240,
      "50": 1241,
      "et": 1242,
      "hig": 1243,
      "ired": 1244,
      "ju": 1245,
      "rec": 1246,
      "unt": 1247,
      "term": 1248,
      "cum": 1249,
      "job": 1250,
      "class": 1251,
      "saying": 1252,
      "service": 1253,
      "large": 1254,
      "terror": 1255,
      "aid": 1256,
      "city": 1257,
      "hour": 1258,
      "ibut": 1259,
      "jud": 1260,
      "mind": 1261,
      "nal": 1262,
      "ply": 1263,
      "vide": 1264,
      "reed": 1265,
      "story": 1266,
      "already": 1267,
      "ison": 1268,
      "often": 1269,
      "tries": 1270,
      "conne": 1271,
      "team": 1272,
      "ivid": 1273,
      "others": 1274,
      "following": 1275,
      "musk": 1276,
      "process": 1277,
      "suc": 1278,
      "yet": 1279,
      "strong": 1280,
      "effect": 1281,
      "member": 1282,
      "believe": 1283,
      "history": 1284,
      "hospital": 1285,
      "\",": 1286,
      "mp": 1287,
      "ush": 1288,
      "exam": 1289,
      "event": 1290,
      "disc": 1291,
      "ished": 1292,
      "descr": 1293,
      "2024": 1294,
      "possible": 1295,
      "million": 1296,
      "stop": 1297,
      "als": 1298,
      "comment": 1299,
      "certain": 1300,
      "didn": 1301,
      "sunday": 1302,
      "17": 1303,
      "ever": 1304,
      "five": 1305,
      "fail": 1306,
      "gre": 1307,
      "gard": 1308,
      "hol": 1309,
      "mor": 1310,
      "youn": 1311,
      "ina": 1312,
      "always": 1313,
      "iting": 1314,
      "cts": 1315,
      "having": 1316,
      "tell": 1317,
      "foreign": 1318,
      "posed": 1319,
      "company": 1320,
      "children": 1321,
      "detail": 1322,
      "bad": 1323,
      "bab": 1324,
      "fig": 1325,
      "hard": 1326,
      "lt": 1327,
      "ene": 1328,
      "energ": 1329,
      "omen": 1330,
      "ira": 1331,
      "god": 1332,
      "cover": 1333,
      "afd": 1334,
      "countries": 1335,
      "non": 1336,
      "pho": 1337,
      "roman": 1338,
      "vance": 1339,
      "republic": 1340,
      "pot": 1341,
      "ukrainian": 1342,
      "effor": 1343,
      "months": 1344,
      "based": 1345,
      "january": 1346,
      "eas": 1347,
      "ging": 1348,
      "chall": 1349,
      "univers": 1350,
      "prosec": 1351,
      "appro": 1352,
      "accused": 1353,
      "position": 1354,
      "increas": 1355,
      "paign": 1356,
      "campaign": 1357,
      "dro": 1358,
      "ken": 1359,
      "rad": 1360,
      "turn": 1361,
      "water": 1362,
      "ased": 1363,
      "food": 1364,
      "counter": 1365,
      "iously": 1366,
      "general": 1367,
      "invol": 1368,
      "hn": 1369,
      "educ": 1370,
      "aring": 1371,
      "ury": 1372,
      "partic": 1373,
      "provid": 1374,
      "coll": 1375,
      "putin": 1376,
      "analys": 1377,
      "iraq": 1378,
      "mac": 1379,
      "tur": 1380,
      "vic": 1381,
      "wed": 1382,
      "across": 1383,
      "pected": 1384,
      "plic": 1385,
      "ground": 1386,
      "ield": 1387,
      "reports": 1388,
      "merz": 1389,
      "constitution": 1390,
      "little": 1391,
      "energy": 1392,
      "11": 1393,
      "ech": 1394,
      "fbi": 1395,
      "paren": 1396,
      "sed": 1397,
      "ude": 1398,
      "ond": 1399,
      "took": 1400,
      "asked": 1401,
      "meas": 1402,
      "spec": 1403,
      "course": 1404,
      "nato": 1405,
      "further": 1406,
      "success": 1407,
      "equ": 1408,
      "son": 1409,
      "treat": 1410,
      "wa": 1411,
      "short": 1412,
      "return": 1413,
      "international": 1414,
      "gener": 1415,
      "tariff": 1416,
      "differen": 1417,
      "small": 1418,
      "hip": 1419,
      "mak": 1420,
      "ron": 1421,
      "sat": 1422,
      "weather": 1423,
      "irish": 1424,
      "fron": 1425,
      "price": 1426,
      "access": 1427,
      "better": 1428,
      "until": 1429,
      "15": 1430,
      "dan": 1431,
      "link": 1432,
      "ying": 1433,
      "pet": 1434,
      "plac": 1435,
      "events": 1436,
      "brit": 1437,
      "early": 1438,
      "..": 1439,
      "civ": 1440,
      "dol": 1441,
      "name": 1442,
      "went": 1443,
      "unch": 1444,
      "aged": 1445,
      "within": 1446,
      "pop": 1447,
      "exp": 1448,
      "fut": 1449,
      "accoun": 1450,
      "cept": 1451,
      "key": 1452,
      "artic": 1453,
      "john": 1454,
      "personal": 1455,
      "reason": 1456,
      "control": 1457,
      "taken": 1458,
      "problem": 1459,
      "fight": 1460,
      "gs": 1461,
      "gle": 1462,
      "hack": 1463,
      "iation": 1464,
      "sil": 1465,
      "woman": 1466,
      "stor": 1467,
      "beh": 1468,
      "conserv": 1469,
      "ural": 1470,
      "tee": 1471,
      "ified": 1472,
      "means": 1473,
      "grap": 1474,
      "rench": 1475,
      "discuss": 1476,
      "ange": 1477,
      "ream": 1478,
      "ering": 1479,
      "lect": 1480,
      "dem": 1481,
      "suf": 1482,
      "share": 1483,
      "away": 1484,
      "monday": 1485,
      "2016": 1486,
      "markets": 1487,
      "desp": 1488,
      "doesn": 1489,
      "brother": 1490,
      "director": 1491,
      "level": 1492,
      "give": 1493,
      "yes": 1494,
      "though": 1495,
      "enough": 1496,
      "ands": 1497,
      "une": 1498,
      "conf": 1499,
      "fran": 1500,
      "docum": 1501,
      "actions": 1502,
      "crisis": 1503,
      "respons": 1504,
      "society": 1505,
      "migr": 1506,
      "private": 1507,
      "london": 1508,
      "different": 1509,
      "18": 1510,
      "25": 1511,
      "ai": 1512,
      "lish": 1513,
      "mill": 1514,
      "past": 1515,
      "attem": 1516,
      "ising": 1517,
      "thern": 1518,
      "ards": 1519,
      "encies": 1520,
      "continue": 1521,
      "stern": 1522,
      "bill": 1523,
      "cred": 1524,
      "sco": 1525,
      "women": 1526,
      "ention": 1527,
      "adv": 1528,
      "area": 1529,
      "prime": 1530,
      "ization": 1531,
      "record": 1532,
      "university": 1533,
      "civil": 1534,
      "dollar": 1535,
      "jour": 1536,
      "ler": 1537,
      "mom": 1538,
      "mary": 1539,
      "rich": 1540,
      "vol": 1541,
      "init": 1542,
      "icult": 1543,
      "road": 1544,
      "result": 1545,
      "explain": 1546,
      "working": 1547,
      "speech": 1548,
      "provide": 1549,
      "respond": 1550,
      "community": 1551,
      "young": 1552,
      "fun": 1553,
      "fall": 1554,
      "ike": 1555,
      "uation": 1556,
      "ino": 1557,
      "isl": 1558,
      "itive": 1559,
      "room": 1560,
      "evidence": 1561,
      "matter": 1562,
      "employe": 1563,
      "photo": 1564,
      "education": 1565,
      "16": 1566,
      "cit": 1567,
      "hit": 1568,
      "mur": 1569,
      "sir": 1570,
      "western": 1571,
      "mot": 1572,
      "lled": 1573,
      "lling": 1574,
      "individ": 1575,
      "cially": 1576,
      "lawy": 1577,
      "believ": 1578,
      "kore": 1579,
      "higher": 1580,
      "potential": 1581,
      "14": 1582,
      "dom": 1583,
      "ns": 1584,
      "instit": 1585,
      "reco": 1586,
      "lear": 1587,
      "ilities": 1588,
      "chance": 1589,
      "dead": 1590,
      "loc": 1591,
      "ames": 1592,
      "imp": 1593,
      "liber": 1594,
      "justice": 1595,
      "build": 1596,
      "trading": 1597,
      "video": 1598,
      "analysis": 1599,
      "future": 1600,
      "despite": 1601,
      "date": 1602,
      "reve": 1603,
      "reach": 1604,
      "represent": 1605,
      "arr": 1606,
      "assoc": 1607,
      "chief": 1608,
      "ament": 1609,
      "ctors": 1610,
      "cry": 1611,
      "mark": 1612,
      "regul": 1613,
      "interview": 1614,
      "everything": 1615,
      "decision": 1616,
      "wards": 1617,
      "migration": 1618,
      "individual": 1619,
      "diff": 1620,
      "french": 1621,
      "hal": 1622,
      "lin": 1623,
      "lan": 1624,
      "ming": 1625,
      "wro": 1626,
      "remo": 1627,
      "atives": 1628,
      "doing": 1629,
      "bring": 1630,
      "speak": 1631,
      "weeks": 1632,
      "everyone": 1633,
      "truth": 1634,
      "south": 1635,
      "alleged": 1636,
      "technology": 1637,
      "hours": 1638,
      "front": 1639,
      "behind": 1640,
      "13": 1641,
      "ped": 1642,
      "rul": 1643,
      "tre": 1644,
      "ouar": 1645,
      "hemp": 1646,
      "roy": 1647,
      "ford": 1648,
      "conv": 1649,
      "confir": 1650,
      "lies": 1651,
      "ability": 1652,
      "met": 1653,
      "prison": 1654,
      "foc": 1655,
      "march": 1656,
      "scouar": 1657,
      "wants": 1658,
      "selves": 1659,
      "rights": 1660,
      "close": 1661,
      "economy": 1662,
      "sexual": 1663,
      "tariffs": 1664,
      "wrote": 1665,
      "cu": 1666,
      "nu": 1667,
      "six": 1668,
      "vatic": 1669,
      "zer": 1670,
      "thought": 1671,
      "ones": 1672,
      "once": 1673,
      "stree": 1674,
      "staff": 1675,
      "least": 1676,
      "heart": 1677,
      "advis": 1678,
      "ids": 1679,
      "ider": 1680,
      "trave": 1681,
      "nec": 1682,
      "agencies": 1683,
      "ateg": 1684,
      "iving": 1685,
      "llig": 1686,
      "spir": 1687,
      "wood": 1688,
      "signific": 1689,
      "continu": 1690,
      "writ": 1691,
      "complete": 1692,
      "scouarnec": 1693,
      "vatican": 1694,
      "ties": 1695,
      "wall": 1696,
      "almost": 1697,
      "espe": 1698,
      "decl": 1699,
      "ird": 1700,
      "reser": 1701,
      "lier": 1702,
      "plom": 1703,
      "actually": 1704,
      "emerg": 1705,
      "aug": 1706,
      "getting": 1707,
      "ject": 1708,
      "diplom": 1709,
      "begin": 1710,
      "distr": 1711,
      "describ": 1712,
      "garda": 1713,
      "especially": 1714,
      "40": 1715,
      "died": 1716,
      "fair": 1717,
      "gn": 1718,
      "iate": 1719,
      "sens": 1720,
      "rew": 1721,
      "ony": 1722,
      "ork": 1723,
      "ality": 1724,
      "arrest": 1725,
      "itions": 1726,
      "uses": 1727,
      "west": 1728,
      "confl": 1729,
      "india": 1730,
      "contact": 1731,
      "fully": 1732,
      "related": 1733,
      "intellig": 1734,
      "sense": 1735,
      "consum": 1736,
      "summit": 1737,
      "seems": 1738,
      "benef": 1739,
      "sl": 1740,
      "scr": 1741,
      "var": 1742,
      "york": 1743,
      "role": 1744,
      "china": 1745,
      "france": 1746,
      "hope": 1747,
      "aily": 1748,
      "central": 1749,
      "2018": 1750,
      "earth": 1751,
      "defence": 1752,
      "invas": 1753,
      "https": 1754,
      "profess": 1755,
      "received": 1756,
      "debt": 1757,
      "huge": 1758,
      "hackman": 1759,
      "ah": 1760,
      "ahead": 1761,
      "mal": 1762,
      "push": 1763,
      "tour": 1764,
      "wal": 1765,
      "toge": 1766,
      "bey": 1767,
      "below": 1768,
      "dece": 1769,
      "nove": 1770,
      "trial": 1771,
      "exe": 1772,
      "prices": 1773,
      "cannot": 1774,
      "county": 1775,
      "aware": 1776,
      "blog": 1777,
      "vote": 1778,
      "operation": 1779,
      "contract": 1780,
      "happened": 1781,
      "development": 1782,
      "graph": 1783,
      "citiz": 1784,
      "significant": 1785,
      "together": 1786,
      "ither": 1787,
      "kes": 1788,
      "rup": 1789,
      "sk": 1790,
      "sal": 1791,
      "wide": 1792,
      "orig": 1793,
      "total": 1794,
      "ark": 1795,
      "love": 1796,
      "anti": 1797,
      "someone": 1798,
      "anything": 1799,
      "avail": 1800,
      "talks": 1801,
      "porters": 1802,
      "stead": 1803,
      "depend": 1804,
      "__": 1805,
      "ires": 1806,
      "taking": 1807,
      "uel": 1808,
      "atory": 1809,
      "vered": 1810,
      "nothing": 1811,
      "trust": 1812,
      "urs": 1813,
      "keir": 1814,
      "quick": 1815,
      "medical": 1816,
      "leading": 1817,
      "2022": 1818,
      "critical": 1819,
      "criminal": 1820,
      "employees": 1821,
      "difficult": 1822,
      "intelligence": 1823,
      "60": 1824,
      "az": 1825,
      "billion": 1826,
      "cult": 1827,
      "daily": 1828,
      "ping": 1829,
      "ried": 1830,
      "ators": 1831,
      "ask": 1832,
      "enter": 1833,
      "forces": 1834,
      "wealth": 1835,
      "respect": 1836,
      "ctor": 1837,
      "exist": 1838,
      "prep": 1839,
      "although": 1840,
      "choice": 1841,
      "earlier": 1842,
      "attacks": 1843,
      "extrem": 1844,
      "efforts": 1845,
      "journal": 1846,
      "invasion": 1847,
      "24": 1848,
      "oid": 1849,
      "vacc": 1850,
      "inated": 1851,
      "rease": 1852,
      "held": 1853,
      "ney": 1854,
      "cture": 1855,
      "word": 1856,
      "cks": 1857,
      "scient": 1858,
      "addition": 1859,
      "compan": 1860,
      "syr": 1861,
      "phone": 1862,
      "famil": 1863,
      "production": 1864,
      "charges": 1865,
      "xxxxxxxx": 1866,
      "committee": 1867,
      "announced": 1868,
      "millions": 1869,
      "execut": 1870,
      "aver": 1871,
      "cop": 1872,
      "dou": 1873,
      "dam": 1874,
      "flow": 1875,
      "gas": 1876,
      "hund": 1877,
      "sw": 1878,
      "ured": 1879,
      "request": 1880,
      "alter": 1881,
      "del": 1882,
      "usion": 1883,
      "immed": 1884,
      "mother": 1885,
      "coast": 1886,
      "idents": 1887,
      "cents": 1888,
      "estab": 1889,
      "readers": 1890,
      "wanted": 1891,
      "needs": 1892,
      "phys": 1893,
      "biggest": 1894,
      "wrong": 1895,
      "histor": 1896,
      "violent": 1897,
      "growth": 1898,
      "released": 1899,
      "situation": 1900,
      "safety": 1901,
      "cases": 1902,
      "friend": 1903,
      "particular": 1904,
      "victim": 1905,
      "british": 1906,
      "hundred": 1907,
      "==": 1908,
      "bol": 1909,
      "div": 1910,
      "freed": 1911,
      "lad": 1912,
      "mis": 1913,
      "pted": 1914,
      "rap": 1915,
      "ined": 1916,
      "envir": 1917,
      "ico": 1918,
      "leave": 1919,
      "acter": 1920,
      "ides": 1921,
      "amoun": 1922,
      "trade": 1923,
      "union": 1924,
      "outside": 1925,
      "febr": 1926,
      "spending": 1927,
      "idea": 1928,
      "speaking": 1929,
      "address": 1930,
      "looks": 1931,
      "mission": 1932,
      "details": 1933,
      "prosecut": 1934,
      "available": 1935,
      "environ": 1936,
      "february": 1937,
      "80": 1938,
      "field": 1939,
      "gar": 1940,
      "nia": 1941,
      "pred": 1942,
      "rates": 1943,
      "san": 1944,
      "thous": 1945,
      "ason": 1946,
      "ades": 1947,
      "poin": 1948,
      "expected": 1949,
      "pray": 1950,
      "willing": 1951,
      "2015": 1952,
      "avoid": 1953,
      "commiss": 1954,
      "looking": 1955,
      "launch": 1956,
      "appeared": 1957,
      "message": 1958,
      "turning": 1959,
      "brothers": 1960,
      "mic": 1961,
      "ners": 1962,
      "pain": 1963,
      "ring": 1964,
      "”.": 1965,
      "instead": 1966,
      "stay": 1967,
      "imate": 1968,
      "resul": 1969,
      "aper": 1970,
      "plat": 1971,
      "activ": 1972,
      "else": 1973,
      "regard": 1974,
      "services": 1975,
      "relation": 1976,
      "199": 1977,
      "systems": 1978,
      "christian": 1979,
      "influ": 1980,
      "latest": 1981,
      "challeng": 1982,
      "credit": 1983,
      "commission": 1984,
      "bor": 1985,
      "bed": 1986,
      "border": 1987,
      "dle": 1988,
      "fast": 1989,
      "greg": 1990,
      "las": 1991,
      "mult": 1992,
      "nations": 1993,
      "ri": 1994,
      "tro": 1995,
      "tues": 1996,
      "thurs": 1997,
      "aled": 1998,
      "aran": 1999,
      "los": 2000,
      "webs": 2001,
      "necess": 2002,
      "pose": 2003,
      "prove": 2004,
      "protest": 2005,
      "opport": 2006,
      "express": 2007,
      "saw": 2008,
      "pract": 2009,
      "prise": 2010,
      "craf": 2011,
      "augh": 2012,
      "board": 2013,
      "flight": 2014,
      "shoo": 2015,
      "increase": 2016,
      "trying": 2017,
      "policies": 2018,
      "democrats": 2019,
      "conservative": 2020,
      "impact": 2021,
      "executive": 2022,
      "freedom": 2023,
      "tuesday": 2024,
      "thursday": 2025,
      "opportun": 2026,
      "100": 2027,
      "table": 2028,
      "ang": 2029,
      "vere": 2030,
      "deep": 2031,
      "amp": 2032,
      "condu": 2033,
      "comb": 2034,
      "applic": 2035,
      "ively": 2036,
      "presidential": 2037,
      "design": 2038,
      "path": 2039,
      "response": 2040,
      "starmer": 2041,
      "2008": 2042,
      "authorities": 2043,
      "began": 2044,
      "fourth": 2045,
      "study": 2046,
      "remains": 2047,
      "killed": 2048,
      "protect": 2049,
      "franc": 2050,
      "conflict": 2051,
      "december": 2052,
      "dal": 2053,
      "ff": 2054,
      "oval": 2055,
      "independ": 2056,
      "ley": 2057,
      "concl": 2058,
      "lives": 2059,
      "expect": 2060,
      "shall": 2061,
      "crime": 2062,
      "cancer": 2063,
      "strateg": 2064,
      "rather": 2065,
      "products": 2066,
      "broad": 2067,
      "communic": 2068,
      "contribut": 2069,
      "currently": 2070,
      "romania": 2071,
      "demand": 2072,
      "street": 2073,
      "beyond": 2074,
      "23": 2075,
      "dig": 2076,
      "fal": 2077,
      "jim": 2078,
      "repe": 2079,
      "stat": 2080,
      "oud": 2081,
      "towards": 2082,
      "wel": 2083,
      "train": 2084,
      "terms": 2085,
      "redu": 2086,
      "host": 2087,
      "agement": 2088,
      "banks": 2089,
      "cali": 2090,
      "issue": 2091,
      "occur": 2092,
      "middle": 2093,
      "agreement": 2094,
      "popular": 2095,
      "november": 2096,
      "companies": 2097,
      "hundreds": 2098,
      "points": 2099,
      "cand": 2100,
      "gg": 2101,
      "lines": 2102,
      "mex": 2103,
      "ny": 2104,
      "native": 2105,
      "rate": 2106,
      "ug": 2107,
      "heav": 2108,
      "cele": 2109,
      "negot": 2110,
      "fered": 2111,
      "explo": 2112,
      "doctors": 2113,
      "hood": 2114,
      "parties": 2115,
      "boo": 2116,
      "ireland": 2117,
      "prec": 2118,
      "ences": 2119,
      "special": 2120,
      "adding": 2121,
      "calls": 2122,
      "started": 2123,
      "struction": 2124,
      "issues": 2125,
      "approach": 2126,
      "families": 2127,
      "bul": 2128,
      "flo": 2129,
      "hop": 2130,
      "iated": 2131,
      "mart": 2132,
      "pal": 2133,
      "ws": 2134,
      "stated": 2135,
      "argu": 2136,
      "separ": 2137,
      "became": 2138,
      "conference": 2139,
      "aggress": 2140,
      "abuse": 2141,
      "outbreak": 2142,
      "feat": 2143,
      "exchange": 2144,
      "whole": 2145,
      "percent": 2146,
      "assist": 2147,
      "typ": 2148,
      "blood": 2149,
      "themselves": 2150,
      "orders": 2151,
      "kyran": 2152,
      "voc": 2153,
      "himself": 2154,
      "closed": 2155,
      "growing": 2156,
      "audio": 2157,
      "murder": 2158,
      "half": 2159,
      "described": 2160,
      "average": 2161,
      "website": 2162,
      "wers": 2163,
      "zi": 2164,
      "infr": 2165,
      "online": 2166,
      "stage": 2167,
      "ises": 2168,
      "tom": 2169,
      "sea": 2170,
      "resign": 2171,
      "liament": 2172,
      "ulation": 2173,
      "prim": 2174,
      "plans": 2175,
      "foot": 2176,
      "ensive": 2177,
      "anyone": 2178,
      "disast": 2179,
      "contain": 2180,
      "ibility": 2181,
      "include": 2182,
      "parliament": 2183,
      "operations": 2184,
      "natural": 2185,
      "nearly": 2186,
      "majority": 2187,
      "susp": 2188,
      "danger": 2189,
      "recogn": 2190,
      "craft": 2191,
      "califor": 2192,
      "gir": 2193,
      "ii": 2194,
      "third": 2195,
      "inde": 2196,
      "ana": 2197,
      "refer": 2198,
      "ening": 2199,
      "entire": 2200,
      "deter": 2201,
      "loss": 2202,
      "cell": 2203,
      "teach": 2204,
      "ultim": 2205,
      "ift": 2206,
      "covered": 2207,
      "que": 2208,
      "spread": 2209,
      "science": 2210,
      "medic": 2211,
      "enced": 2212,
      "forecast": 2213,
      "guaran": 2214,
      "talk": 2215,
      "longer": 2216,
      "recently": 2217,
      "magdal": 2218,
      "simply": 2219,
      "previously": 2220,
      "increasing": 2221,
      "specific": 2222,
      "makes": 2223,
      "placed": 2224,
      "migrants": 2225,
      "continued": 2226,
      "extremism": 2227,
      "syria": 2228,
      "victims": 2229,
      "relationship": 2230,
      "francis": 2231,
      "false": 2232,
      "magdalene": 2233,
      "bur": 2234,
      "bass": 2235,
      "ik": 2236,
      "june": 2237,
      "psy": 2238,
      "tic": 2239,
      "ze": 2240,
      "reven": 2241,
      "leav": 2242,
      "tra": 2243,
      "true": 2244,
      "kel": 2245,
      "common": 2246,
      "abo": 2247,
      "proper": 2248,
      "soon": 2249,
      "words": 2250,
      "lower": 2251,
      "scale": 2252,
      "ordin": 2253,
      "voters": 2254,
      "relig": 2255,
      "laws": 2256,
      "colle": 2257,
      "politics": 2258,
      "check": 2259,
      "mitted": 2260,
      "canadian": 2261,
      "experience": 2262,
      "single": 2263,
      "claims": 2264,
      "devices": 2265,
      "silver": 2266,
      "focus": 2267,
      "quickly": 2268,
      "establish": 2269,
      "environment": 2270,
      "thousands": 2271,
      "mexico": 2272,
      "celebr": 2273,
      "either": 2274,
      "ga": 2275,
      "hor": 2276,
      "ients": 2277,
      "round": 2278,
      "sha": 2279,
      "sold": 2280,
      "yst": 2281,
      "stic": 2282,
      "itor": 2283,
      "ilar": 2284,
      "amed": 2285,
      "aging": 2286,
      "mob": 2287,
      "ops": 2288,
      "prior": 2289,
      "coal": 2290,
      "peri": 2291,
      "offer": 2292,
      "series": 2293,
      "region": 2294,
      "needed": 2295,
      "paul": 2296,
      "appears": 2297,
      "letter": 2298,
      "democracy": 2299,
      "magnes": 2300,
      "southern": 2301,
      "nesday": 2302,
      "allowed": 2303,
      "greek": 2304,
      "friends": 2305,
      "wednesday": 2306,
      "moment": 2307,
      "arrested": 2308,
      "various": 2309,
      "california": 2310,
      "magnesium": 2311,
      "45": 2312,
      "bt": 2313,
      "cust": 2314,
      "cold": 2315,
      "fic": 2316,
      "gain": 2317,
      "mc": 2318,
      "pac": 2319,
      "tv": 2320,
      "vice": 2321,
      "aries": 2322,
      "immigration": 2323,
      "utions": 2324,
      "tex": 2325,
      "probab": 2326,
      "exact": 2327,
      "istan": 2328,
      "goo": 2329,
      "quite": 2330,
      "upon": 2331,
      "worked": 2332,
      "observ": 2333,
      "published": 2334,
      "please": 2335,
      "pression": 2336,
      "appear": 2337,
      "capital": 2338,
      "similar": 2339,
      "figure": 2340,
      "satur": 2341,
      "spirit": 2342,
      "emergency": 2343,
      "gardaí": 2344,
      "**": 2345,
      "crow": 2346,
      "father": 2347,
      "gun": 2348,
      "hill": 2349,
      "pict": 2350,
      "aling": 2351,
      "sequ": 2352,
      "ided": 2353,
      "lying": 2354,
      "living": 2355,
      "felt": 2356,
      "plann": 2357,
      "clin": 2358,
      "ival": 2359,
      "cru": 2360,
      "indic": 2361,
      "partners": 2362,
      "iple": 2363,
      "centre": 2364,
      "2014": 2365,
      "shock": 2366,
      "carry": 2367,
      "highly": 2368,
      "breaking": 2369,
      "experi": 2370,
      "facebook": 2371,
      "concerns": 2372,
      "republican": 2373,
      "macron": 2374,
      "article": 2375,
      "document": 2376,
      "lawyer": 2377,
      "nuclear": 2378,
      "alternative": 2379,
      "coalition": 2380,
      "period": 2381,
      "saturday": 2382,
      "bn": 2383,
      "bon": 2384,
      "bid": 2385,
      "cing": 2386,
      "cil": 2387,
      "ctr": 2388,
      "cir": 2389,
      "cul": 2390,
      "creat": 2391,
      "ease": 2392,
      "llow": 2393,
      "mater": 2394,
      "rac": 2395,
      "rise": 2396,
      "ern": 2397,
      "stren": 2398,
      "stream": 2399,
      "ently": 2400,
      "deport": 2401,
      "neigh": 2402,
      "abor": 2403,
      "tele": 2404,
      "ify": 2405,
      "management": 2406,
      "ples": 2407,
      "mineral": 2408,
      "firm": 2409,
      "pret": 2410,
      "flu": 2411,
      "calling": 2412,
      "talking": 2413,
      "paid": 2414,
      "product": 2415,
      "sources": 2416,
      "cuts": 2417,
      "students": 2418,
      "receive": 2419,
      "created": 2420,
      "citizens": 2421,
      "candid": 2422,
      "martin": 2423,
      "probably": 2424,
      "streng": 2425,
      "cli": 2426,
      "card": 2427,
      "figh": 2428,
      "hen": 2429,
      "iately": 2430,
      "jap": 2431,
      "mas": 2432,
      "nom": 2433,
      "ufact": 2434,
      "wish": 2435,
      "wise": 2436,
      "restr": 2437,
      "orge": 2438,
      "alone": 2439,
      "isn": 2440,
      "andrew": 2441,
      "sep": 2442,
      "illegal": 2443,
      "fort": 2444,
      "convers": 2445,
      "comments": 2446,
      "goes": 2447,
      "door": 2448,
      "manufact": 2449,
      "hote": 2450,
      "elon": 2451,
      "sche": 2452,
      "legisl": 2453,
      "maybe": 2454,
      "icking": 2455,
      "decades": 2456,
      "signed": 2457,
      "defend": 2458,
      "leadership": 2459,
      "violence": 2460,
      "destroy": 2461,
      "involved": 2462,
      "account": 2463,
      "fighting": 2464,
      "korea": 2465,
      "individuals": 2466,
      "travel": 2467,
      "google": 2468,
      "japan": 2469,
      "aust": 2470,
      "awn": 2471,
      "band": 2472,
      "dict": 2473,
      "gave": 2474,
      "ibe": 2475,
      "iev": 2476,
      "ka": 2477,
      "ml": 2478,
      "moun": 2479,
      "wil": 2480,
      "income": 2481,
      "arg": 2482,
      "chair": 2483,
      "forward": 2484,
      "defin": 2485,
      "lody": 2486,
      "areas": 2487,
      "mosco": 2488,
      "progress": 2489,
      "feed": 2490,
      "afgh": 2491,
      "spent": 2492,
      "disease": 2493,
      "myr": 2494,
      "works": 2495,
      "workers": 2496,
      "2013": 2497,
      "volody": 2498,
      "join": 2499,
      "elected": 2500,
      "largest": 2501,
      "inside": 2502,
      "tember": 2503,
      "numbers": 2504,
      "democratic": 2505,
      "promo": 2506,
      "octo": 2507,
      "limited": 2508,
      "patr": 2509,
      "jobs": 2510,
      "learn": 2511,
      "additional": 2512,
      "immediately": 2513,
      "moscow": 2514,
      "volodymyr": 2515,
      "22": 2516,
      "35": 2517,
      "aut": 2518,
      "batt": 2519,
      "cou": 2520,
      "cross": 2521,
      "ded": 2522,
      "dark": 2523,
      "eye": 2524,
      "hy": 2525,
      "nav": 2526,
      "pul": 2527,
      "thol": 2528,
      "ane": 2529,
      "ened": 2530,
      "enforce": 2531,
      "isra": 2532,
      "arily": 2533,
      "lost": 2534,
      "weap": 2535,
      "uni": 2536,
      "nel": 2537,
      "fraud": 2538,
      "metal": 2539,
      "pressure": 2540,
      "grand": 2541,
      "kyiv": 2542,
      "incident": 2543,
      "changed": 2544,
      "buy": 2545,
      "reality": 2546,
      "direction": 2547,
      "weekend": 2548,
      "cathol": 2549,
      "meet": 2550,
      "spot": 2551,
      "maintain": 2552,
      "example": 2553,
      "morning": 2554,
      "institute": 2555,
      "langu": 2556,
      "platform": 2557,
      "necessary": 2558,
      "repeated": 2559,
      "september": 2560,
      "october": 2561,
      "bio": 2562,
      "cke": 2563,
      "dc": 2564,
      "han": 2565,
      "male": 2566,
      "pen": 2567,
      "sor": 2568,
      "sof": 2569,
      "sound": 2570,
      "ery": 2571,
      "sty": 2572,
      "dered": 2573,
      "improve": 2574,
      "utes": 2575,
      "agreed": 2576,
      "comex": 2577,
      "moving": 2578,
      "motion": 2579,
      "liver": 2580,
      "proof": 2581,
      "super": 2582,
      "shut": 2583,
      "astru": 2584,
      "worth": 2585,
      "whose": 2586,
      "llor": 2587,
      "bling": 2588,
      "berg": 2589,
      "secure": 2590,
      "yourself": 2591,
      "supporters": 2592,
      "guest": 2593,
      "joy": 2594,
      "2023": 2595,
      "starting": 2596,
      "profit": 2597,
      "techn": 2598,
      "range": 2599,
      "prevent": 2600,
      "winner": 2601,
      "running": 2602,
      "critic": 2603,
      "greece": 2604,
      "figures": 2605,
      "parent": 2606,
      "parents": 2607,
      "initi": 2608,
      "building": 2609,
      "amount": 2610,
      "predict": 2611,
      "infrastru": 2612,
      "planned": 2613,
      "21": 2614,
      "hus": 2615,
      "hous": 2616,
      "mun": 2617,
      "mike": 2618,
      "swit": 2619,
      "tor": 2620,
      "wen": 2621,
      "reme": 2622,
      "review": 2623,
      "ense": 2624,
      "arian": 2625,
      "itself": 2626,
      "section": 2627,
      "whate": 2628,
      "image": 2629,
      "trip": 2630,
      "ably": 2631,
      "george": 2632,
      "shame": 2633,
      "ially": 2634,
      "antic": 2635,
      "affect": 2636,
      "emp": 2637,
      "update": 2638,
      "warning": 2639,
      "flag": 2640,
      "changes": 2641,
      "relations": 2642,
      "miles": 2643,
      "politic": 2644,
      "plement": 2645,
      "standing": 2646,
      "consider": 2647,
      "giving": 2648,
      "extreme": 2649,
      "authority": 2650,
      "previous": 2651,
      "emails": 2652,
      "takes": 2653,
      "collap": 2654,
      "attempt": 2655,
      "chancellor": 2656,
      "custom": 2657,
      "texas": 2658,
      "neighb": 2659,
      "infrastructure": 2660,
      "whatever": 2661,
      "28": 2662,
      "bure": 2663,
      "dav": 2664,
      "ered": 2665,
      "hone": 2666,
      "lack": 2667,
      "nas": 2668,
      "page": 2669,
      "tions": 2670,
      "ub": 2671,
      "wast": 2672,
      "ank": 2673,
      "rect": 2674,
      "stant": 2675,
      "stance": 2676,
      "isions": 2677,
      "itation": 2678,
      "ilt": 2679,
      "forced": 2680,
      "ceed": 2681,
      "iran": 2682,
      "neg": 2683,
      "georg": 2684,
      "fear": 2685,
      "soap": 2686,
      "approv": 2687,
      "shared": 2688,
      "click": 2689,
      "crash": 2690,
      "afford": 2691,
      "council": 2692,
      "supply": 2693,
      "drill": 2694,
      "comput": 2695,
      "paris": 2696,
      "surv": 2697,
      "2021": 2698,
      "198": 2699,
      "helped": 2700,
      "caused": 2701,
      "conditions": 2702,
      "basis": 2703,
      "subscr": 2704,
      "shows": 2705,
      "corpor": 2706,
      "create": 2707,
      "programs": 2708,
      "eastern": 2709,
      "failed": 2710,
      "challen": 2711,
      "radio": 2712,
      "treatment": 2713,
      "linked": 2714,
      "documents": 2715,
      "contracts": 2716,
      "challenges": 2717,
      "negoti": 2718,
      "above": 2719,
      "bureau": 2720,
      "26": 2721,
      "fires": 2722,
      "gone": 2723,
      "hon": 2724,
      "mad": 2725,
      "tou": 2726,
      "tate": 2727,
      "tren": 2728,
      "twit": 2729,
      "ica": 2730,
      "icial": 2731,
      "note": 2732,
      "traff": 2733,
      "resour": 2734,
      "wife": 2735,
      "compet": 2736,
      "lied": 2737,
      "wasn": 2738,
      "powers": 2739,
      "opposition": 2740,
      "exc": 2741,
      "ister": 2742,
      "doge": 2743,
      "apr": 2744,
      "meant": 2745,
      "acting": 2746,
      "quality": 2747,
      "boy": 2748,
      "stra": 2749,
      "type": 2750,
      "draw": 2751,
      "guard": 2752,
      "internet": 2753,
      "icked": 2754,
      "cedes": 2755,
      "mercedes": 2756,
      "integr": 2757,
      "senate": 2758,
      "belief": 2759,
      "nature": 2760,
      "issued": 2761,
      "witness": 2762,
      "problems": 2763,
      "announce": 2764,
      "terrorist": 2765,
      "judge": 2766,
      "easily": 2767,
      "increased": 2768,
      "provided": 2769,
      "believes": 2770,
      "trees": 2771,
      "confirmed": 2772,
      "beginning": 2773,
      "divine": 2774,
      "material": 2775,
      "pretty": 2776,
      "challenge": 2777,
      "70": 2778,
      "cash": 2779,
      "dome": 2780,
      "hic": 2781,
      "hur": 2782,
      "knew": 2783,
      "lun": 2784,
      "mir": 2785,
      "pto": 2786,
      "pair": 2787,
      "rid": 2788,
      "sort": 2789,
      "vul": 2790,
      "wild": 2791,
      "anx": 2792,
      "remember": 2793,
      "onia": 2794,
      "stress": 2795,
      "eda": 2796,
      "town": 2797,
      "arm": 2798,
      "heard": 2799,
      "advoc": 2800,
      "dete": 2801,
      "deplo": 2802,
      "resol": 2803,
      "moder": 2804,
      "absol": 2805,
      "haven": 2806,
      "poor": 2807,
      "sud": 2808,
      "femin": 2809,
      "appoint": 2810,
      "brief": 2811,
      "assess": 2812,
      "positive": 2813,
      "syn": 2814,
      "shot": 2815,
      "surve": 2816,
      "electr": 2817,
      "lah": 2818,
      "throughout": 2819,
      "includes": 2820,
      "questions": 2821,
      "charge": 2822,
      "happy": 2823,
      "chem": 2824,
      "value": 2825,
      "summer": 2826,
      "funding": 2827,
      "messages": 2828,
      "threats": 2829,
      "inflation": 2830,
      "protection": 2831,
      "suggested": 2832,
      "...": 2833,
      "suffer": 2834,
      "islam": 2835,
      "domain": 2836,
      "rupt": 2837,
      "prepared": 2838,
      "prosecutors": 2839,
      "girl": 2840,
      "revenue": 2841,
      "absolute": 2842,
      "29": 2843,
      "afr": 2844,
      "ball": 2845,
      "base": 2846,
      "burn": 2847,
      "cat": 2848,
      "cities": 2849,
      "da": 2850,
      "ding": 2851,
      "fai": 2852,
      "gps": 2853,
      "ham": 2854,
      "mous": 2855,
      "osc": 2856,
      "ram": 2857,
      "site": 2858,
      "uge": 2859,
      "via": 2860,
      "vict": 2861,
      "zing": 2862,
      "“(": 2863,
      "ateral": 2864,
      "stain": 2865,
      "oring": 2866,
      "allies": 2867,
      "asse": 2868,
      "accom": 2869,
      "acqu": 2870,
      "accept": 2871,
      "ches": 2872,
      "depression": 2873,
      "implement": 2874,
      "track": 2875,
      "peter": 2876,
      "haps": 2877,
      "prop": 2878,
      "opin": 2879,
      "princ": 2880,
      "climate": 2881,
      "club": 2882,
      "upd": 2883,
      "perhaps": 2884,
      "content": 2885,
      "commer": 2886,
      "attention": 2887,
      "finally": 2888,
      "stood": 2889,
      "included": 2890,
      "northern": 2891,
      "reasons": 2892,
      "senior": 2893,
      "targe": 2894,
      "goods": 2895,
      "russians": 2896,
      "posted": 2897,
      "directly": 2898,
      "spoke": 2899,
      "spokes": 2900,
      "release": 2901,
      "career": 2902,
      "purch": 2903,
      "require": 2904,
      "costs": 2905,
      "green": 2906,
      "countering": 2907,
      "confidence": 2908,
      "crypto": 2909,
      "rules": 2910,
      "written": 2911,
      "sensors": 2912,
      "original": 2913,
      "physical": 2914,
      "particularly": 2915,
      "launched": 2916,
      "conduct": 2917,
      "leaving": 2918,
      "minerals": 2919,
      "conversation": 2920,
      "argum": 2921,
      "enforcement": 2922,
      "soft": 2923,
      "nasa": 2924,
      "twitter": 2925,
      "domestic": 2926,
      "faith": 2927,
      "(£": 2928,
      "lord": 2929,
      "oce": 2930,
      "pan": 2931,
      "uck": 2932,
      "vlad": 2933,
      "wing": 2934,
      "ware": 2935,
      "ances": 2936,
      "isation": 2937,
      "tox": 2938,
      "ander": 2939,
      "ese": 2940,
      "icated": 2941,
      "acce": 2942,
      "vehic": 2943,
      "admitted": 2944,
      "load": 2945,
      "nov": 2946,
      "imag": 2947,
      "abilities": 2948,
      "text": 2949,
      "fellow": 2950,
      "doz": 2951,
      "apparent": 2952,
      "essential": 2953,
      "acted": 2954,
      "evil": 2955,
      "newsp": 2956,
      "ension": 2957,
      "iption": 2958,
      "scene": 2959,
      "thank": 2960,
      "speed": 2961,
      "adds": 2962,
      "guy": 2963,
      "seeing": 2964,
      "evening": 2965,
      "mathis": 2966,
      "carried": 2967,
      "highlight": 2968,
      "feder": 2969,
      "missing": 2970,
      "meanwhile": 2971,
      "complex": 2972,
      "refuge": 2973,
      "film": 2974,
      "schol": 2975,
      "eventually": 2976,
      "certainly": 2977,
      "effort": 2978,
      "prosecution": 2979,
      "involve": 2980,
      "articles": 2981,
      "advant": 2982,
      "dollars": 2983,
      "believed": 2984,
      "association": 2985,
      "associated": 2986,
      "results": 2987,
      "troops": 2988,
      "heavy": 2989,
      "pacific": 2990,
      "israel": 2991,
      "sudden": 2992,
      "31": 2993,
      "borders": 2994,
      "cbs": 2995,
      "dim": 2996,
      "eight": 2997,
      "fill": 2998,
      "gi": 2999,
      "game": 3000,
      "james": 3001,
      "none": 3002,
      "pm": 3003,
      "sle": 3004,
      "tit": 3005,
      "tes": 3006,
      "vp": 3007,
      "winter": 3008,
      "xy": 3009,
      "xim": 3010,
      "yout": 3011,
      "iny": 3012,
      "anim": 3013,
      "ende": 3014,
      "lets": 3015,
      "severe": 3016,
      "hest": 3017,
      "deliver": 3018,
      "lose": 3019,
      "loved": 3020,
      "vert": 3021,
      "agend": 3022,
      "liance": 3023,
      "fried": 3024,
      "tered": 3025,
      "mention": 3026,
      "propos": 3027,
      "project": 3028,
      "html": 3029,
      "actor": 3030,
      "worse": 3031,
      "box": 3032,
      "rent": 3033,
      "brought": 3034,
      "discovered": 3035,
      "monstr": 3036,
      "guid": 3037,
      "mayor": 3038,
      "joint": 3039,
      "investors": 3040,
      "decisions": 3041,
      "built": 3042,
      "industr": 3043,
      "denied": 3044,
      "difference": 3045,
      "funds": 3046,
      "levels": 3047,
      "mindful": 3048,
      "republicans": 3049,
      "measure": 3050,
      "successful": 3051,
      "lawyers": 3052,
      "zero": 3053,
      "diplomatic": 3054,
      "scientists": 3055,
      "damage": 3056,
      "laser": 3057,
      "shooting": 3058,
      "separate": 3059,
      "ultimately": 3060,
      "feminine": 3061,
      "youtu": 3062,
      "500": 3063,
      "90": 3064,
      "camer": 3065,
      "fif": 3066,
      "hom": 3067,
      "send": 3068,
      "insur": 3069,
      "remove": 3070,
      "endo": 3071,
      "assa": 3072,
      "leach": 3073,
      "sell": 3074,
      "healing": 3075,
      "ilateral": 3076,
      "idency": 3077,
      "rodu": 3078,
      "weak": 3079,
      "ams": 3080,
      "tried": 3081,
      "liby": 3082,
      "fection": 3083,
      "notice": 3084,
      "shift": 3085,
      "plant": 3086,
      "clust": 3087,
      "parts": 3088,
      "fox": 3089,
      "introdu": 3090,
      "myself": 3091,
      "drug": 3092,
      "regime": 3093,
      "seek": 3094,
      "aircraft": 3095,
      "iot": 3096,
      "annual": 3097,
      "colum": 3098,
      "raised": 3099,
      "ledge": 3100,
      "character": 3101,
      "condition": 3102,
      "basic": 3103,
      "movement": 3104,
      "rule": 3105,
      "faced": 3106,
      "massive": 3107,
      "connected": 3108,
      "effects": 3109,
      "constitutional": 3110,
      "angeles": 3111,
      "removed": 3112,
      "zerland": 3113,
      "professional": 3114,
      "____": 3115,
      "multiple": 3116,
      "communications": 3117,
      "status": 3118,
      "suspic": 3119,
      "cells": 3120,
      "guarante": 3121,
      "picture": 3122,
      "weapons": 3123,
      "switzerland": 3124,
      "waste": 3125,
      "negative": 3126,
      "resources": 3127,
      "deploy": 3128,
      "updates": 3129,
      "ocean": 3130,
      "!!": 3131,
      ".)": 3132,
      ".,": 3133,
      "aire": 3134,
      "bom": 3135,
      "beng": 3136,
      "bacter": 3137,
      "dair": 3138,
      "daugh": 3139,
      "iers": 3140,
      "jd": 3141,
      "nine": 3142,
      "names": 3143,
      "pi": 3144,
      "slow": 3145,
      "snow": 3146,
      "wind": 3147,
      "yield": 3148,
      "inar": 3149,
      "recomm": 3150,
      "ensure": 3151,
      "alps": 3152,
      "armed": 3153,
      "itarian": 3154,
      "season": 3155,
      "beach": 3156,
      "rown": 3157,
      "ched": 3158,
      "chic": 3159,
      "imir": 3160,
      "impossible": 3161,
      "verse": 3162,
      "trig": 3163,
      "resist": 3164,
      "tea": 3165,
      "presidency": 3166,
      "ports": 3167,
      "partner": 3168,
      "scen": 3169,
      "scop": 3170,
      "center": 3171,
      "serious": 3172,
      "accur": 3173,
      "obv": 3174,
      "backing": 3175,
      "efp": 3176,
      "surprise": 3177,
      "realize": 3178,
      "feels": 3179,
      "foundation": 3180,
      "gives": 3181,
      "currency": 3182,
      "harris": 3183,
      "spoken": 3184,
      "winning": 3185,
      "greater": 3186,
      "steps": 3187,
      "meaning": 3188,
      "pursu": 3189,
      "holding": 3190,
      "terrorists": 3191,
      "foods": 3192,
      "equip": 3193,
      "storm": 3194,
      "responsible": 3195,
      "explained": 3196,
      "revealed": 3197,
      "treated": 3198,
      "reserve": 3199,
      "august": 3200,
      "consumer": 3201,
      "culture": 3202,
      "doubt": 3203,
      "opportunity": 3204,
      "reduce": 3205,
      "occurred": 3206,
      "primary": 3207,
      "husband": 3208,
      "neighbour": 3209,
      "vladimir": 3210,
      "agenda": 3211,
      "dairy": 3212,
      "37": 3213,
      "400": 3214,
      "ault": 3215,
      "bud": 3216,
      "fix": 3217,
      "gates": 3218,
      "hun": 3219,
      "lay": 3220,
      "map": 3221,
      "nice": 3222,
      "pil": 3223,
      "sam": 3224,
      "tte": 3225,
      "tary": 3226,
      "thus": 3227,
      "inst": 3228,
      "reaction": 3229,
      "onic": 3230,
      "atter": 3231,
      "stone": 3232,
      "alk": 3233,
      "edge": 3234,
      "isa": 3235,
      "ites": 3236,
      "beha": 3237,
      "hear": 3238,
      "cha": 3239,
      "lyn": 3240,
      "lywood": 3241,
      "deut": 3242,
      "nobody": 3243,
      "trillion": 3244,
      "hazi": 3245,
      "sul": 3246,
      "2020": 3247,
      "crack": 3248,
      "umption": 3249,
      "ieve": 3250,
      "spend": 3251,
      "answer": 3252,
      "century": 3253,
      "governor": 3254,
      "leads": 3255,
      "supposed": 3256,
      "backed": 3257,
      "attor": 3258,
      "effic": 3259,
      "seeking": 3260,
      "final": 3261,
      "relative": 3262,
      "investment": 3263,
      "officer": 3264,
      "phil": 3265,
      "ption": 3266,
      "logy": 3267,
      "english": 3268,
      "continues": 3269,
      "struct": 3270,
      "experts": 3271,
      "nedy": 3272,
      "lux": 3273,
      "wonder": 3274,
      "patients": 3275,
      "claimed": 3276,
      "concerned": 3277,
      "suggests": 3278,
      "judicial": 3279,
      "connect": 3280,
      "failure": 3281,
      "kennedy": 3282,
      "suffered": 3283,
      "completely": 3284,
      "benefit": 3285,
      "professor": 3286,
      "historical": 3287,
      "afghan": 3288,
      "promote": 3289,
      "benghazi": 3290,
      "scopic": 3291,
      "?\"": 3292,
      "ax": 3293,
      "bir": 3294,
      "bble": 3295,
      "dies": 3296,
      "fold": 3297,
      "fav": 3298,
      "frequ": 3299,
      "hi": 3300,
      "jes": 3301,
      "ker": 3302,
      "mach": 3303,
      "ror": 3304,
      "sand": 3305,
      "sac": 3306,
      "attr": 3307,
      "sector": 3308,
      "iles": 3309,
      "iding": 3310,
      "destruction": 3311,
      "demonstr": 3312,
      "iment": 3313,
      "trilateral": 3314,
      "proceed": 3315,
      "geo": 3316,
      "istic": 3317,
      "goal": 3318,
      "shop": 3319,
      "active": 3320,
      "quar": 3321,
      "quid": 3322,
      "cance": 3323,
      "perfect": 3324,
      "poll": 3325,
      "brain": 3326,
      "minutes": 3327,
      "uded": 3328,
      "preced": 3329,
      "encour": 3330,
      "forest": 3331,
      "statements": 3332,
      "supp": 3333,
      "estim": 3334,
      "drive": 3335,
      "drivers": 3336,
      "regions": 3337,
      "thinking": 3338,
      "ictions": 3339,
      "supporting": 3340,
      "officers": 3341,
      "famous": 3342,
      "jet": 3343,
      "normal": 3344,
      "tained": 3345,
      "engine": 3346,
      "administr": 3347,
      "insist": 3348,
      "clearly": 3349,
      "groups": 3350,
      "porter": 3351,
      "correct": 3352,
      "promise": 3353,
      "virus": 3354,
      "taxes": 3355,
      "tradition": 3356,
      "understanding": 3357,
      "employ": 3358,
      "sched": 3359,
      "highest": 3360,
      "july": 3361,
      "holiday": 3362,
      "hollywood": 3363,
      "romanian": 3364,
      "stories": 3365,
      "migrant": 3366,
      "motor": 3367,
      "liberal": 3368,
      "origin": 3369,
      "xxxxxxxxxxxxxxxx": 3370,
      "====": 3371,
      "bollah": 3372,
      "rapid": 3373,
      "born": 3374,
      "flights": 3375,
      "boost": 3376,
      "disaster": 3377,
      "psycho": 3378,
      "exactly": 3379,
      "austral": 3380,
      "battle": 3381,
      "repeatedly": 3382,
      "david": 3383,
      "anxiety": 3384,
      "modern": 3385,
      "friedrich": 3386,
      "insurance": 3387,
      "endoscopic": 3388,
      "emotion": 3389,
      "fish": 3390,
      "gl": 3391,
      "gam": 3392,
      "hud": 3393,
      "kir": 3394,
      "lou": 3395,
      "pus": 3396,
      "pie": 3397,
      "rare": 3398,
      "tt": 3399,
      "tiff": 3400,
      "”,": 3401,
      "thom": 3402,
      "inqu": 3403,
      "inju": 3404,
      "rev": 3405,
      "arab": 3406,
      "iter": 3407,
      "acad": 3408,
      "beaut": 3409,
      "ida": 3410,
      "rob": 3411,
      "user": 3412,
      "users": 3413,
      "cease": 3414,
      "residents": 3415,
      "mod": 3416,
      "liquid": 3417,
      "option": 3418,
      "expo": 3419,
      "app": 3420,
      "apart": 3421,
      "iven": 3422,
      "core": 3423,
      "acknow": 3424,
      "auto": 3425,
      "bris": 3426,
      "bray": 3427,
      "awa": 3428,
      "mony": 3429,
      "achieve": 3430,
      "ibly": 3431,
      "izing": 3432,
      "driving": 3433,
      "guil": 3434,
      "voted": 3435,
      "store": 3436,
      "lasting": 3437,
      "vision": 3438,
      "maur": 3439,
      "pped": 3440,
      "putting": 3441,
      "raise": 3442,
      "jews": 3443,
      "consist": 3444,
      "broke": 3445,
      "capt": 3446,
      "feelings": 3447,
      "stars": 3448,
      "researchers": 3449,
      "transport": 3450,
      "gheda": 3451,
      "hands": 3452,
      "allows": 3453,
      "limit": 3454,
      "debate": 3455,
      "allegations": 3456,
      "baby": 3457,
      "drogheda": 3458,
      "turned": 3459,
      "measures": 3460,
      "generation": 3461,
      "places": 3462,
      "korean": 3463,
      "reached": 3464,
      "representative": 3465,
      "bringing": 3466,
      "district": 3467,
      "journalists": 3468,
      "swiss": 3469,
      "delay": 3470,
      "opportunities": 3471,
      "applications": 3472,
      "strategy": 3473,
      "referring": 3474,
      "religion": 3475,
      "establishment": 3476,
      "mobile": 3477,
      "hillary": 3478,
      "experienced": 3479,
      "candidate": 3480,
      "hotel": 3481,
      "destroyed": 3482,
      "couple": 3483,
      "catholic": 3484,
      "language": 3485,
      "subscribe": 3486,
      "april": 3487,
      "absolutely": 3488,
      "newspaper": 3489,
      "scholz": 3490,
      "guarantees": 3491,
      "injured": 3492,
      "academ": 3493,
      "%.": 3494,
      "300": 3495,
      "cia": 3496,
      "divid": 3497,
      "eg": 3498,
      "fat": 3499,
      "fired": 3500,
      "gal": 3501,
      "gend": 3502,
      "jun": 3503,
      "jur": 3504,
      "nic": 3505,
      "oh": 3506,
      "race": 3507,
      "raw": 3508,
      "sad": 3509,
      "spr": 3510,
      "sight": 3511,
      "sick": 3512,
      "swed": 3513,
      "sides": 3514,
      "sister": 3515,
      "wave": 3516,
      "tho": 3517,
      "anced": 3518,
      "reli": 3519,
      "revol": 3520,
      "reporters": 3521,
      "ston": 3522,
      "ordered": 3523,
      "aler": 3524,
      "asc": 3525,
      "rock": 3526,
      "rocke": 3527,
      "chur": 3528,
      "forth": 3529,
      "determ": 3530,
      "usive": 3531,
      "usually": 3532,
      "imony": 3533,
      "trou": 3534,
      "unknown": 3535,
      "moon": 3536,
      "sustain": 3537,
      "gets": 3538,
      "fell": 3539,
      "ession": 3540,
      "cloud": 3541,
      "hole": 3542,
      "quant": 3543,
      "icette": 3544,
      "evol": 3545,
      "blin": 3546,
      "iest": 3547,
      "sometimes": 3548,
      "bert": 3549,
      "wars": 3550,
      "thanks": 3551,
      "epis": 3552,
      "compared": 3553,
      "finance": 3554,
      "choose": 3555,
      "collect": 3556,
      "surround": 3557,
      "elections": 3558,
      "memor": 3559,
      "jected": 3560,
      "jects": 3561,
      "ification": 3562,
      "consumption": 3563,
      "powerful": 3564,
      "communities": 3565,
      "muslim": 3566,
      "keeping": 3567,
      "programme": 3568,
      "facing": 3569,
      "concern": 3570,
      "largely": 3571,
      "videos": 3572,
      "particip": 3573,
      "treaty": 3574,
      "moments": 3575,
      "potentially": 3576,
      "institutions": 3577,
      "arrived": 3578,
      "allegedly": 3579,
      "sensitive": 3580,
      "billionaire": 3581,
      "prepare": 3582,
      "activities": 3583,
      "regarding": 3584,
      "influence": 3585,
      "dangerous": 3586,
      "soldiers": 3587,
      "honest": 3588,
      "computer": 3589,
      "negotiations": 3590,
      "trafficking": 3591,
      "youtube": 3592,
      "daughter": 3593,
      "budget": 3594,
      "behavi": 3595,
      "attorney": 3596,
      "luxury": 3597,
      "kirkel": 3598,
      "guilty": 3599,
      "mauricette": 3600,
      "determine": 3601,
      ".'": 3602,
      "27": 3603,
      "36": 3604,
      "bond": 3605,
      "cup": 3606,
      "cards": 3607,
      "dut": 3608,
      "dream": 3609,
      "fi": 3610,
      "fuel": 3611,
      "gin": 3612,
      "gather": 3613,
      "hib": 3614,
      "mes": 3615,
      "named": 3616,
      "pate": 3617,
      "ric": 3618,
      "rome": 3619,
      "sn": 3620,
      "squ": 3621,
      "sky": 3622,
      "size": 3623,
      "vent": 3624,
      "inate": 3625,
      "thered": 3626,
      "rely": 3627,
      "reform": 3628,
      "reference": 3629,
      "ature": 3630,
      "enjoy": 3631,
      "alist": 3632,
      "iced": 3633,
      "selling": 3634,
      "ented": 3635,
      "hearing": 3636,
      "ado": 3637,
      "roll": 3638,
      "usual": 3639,
      "weld": 3640,
      "amid": 3641,
      "amend": 3642,
      "images": 3643,
      "consc": 3644,
      "agno": 3645,
      "lif": 3646,
      "abil": 3647,
      "outdoor": 3648,
      "outlets": 3649,
      "oppos": 3650,
      "sovere": 3651,
      "iful": 3652,
      "proud": 3653,
      "astro": 3654,
      "rens": 3655,
      "offers": 3656,
      "idered": 3657,
      "stri": 3658,
      "scand": 3659,
      "mont": 3660,
      "encing": 3661,
      "dublin": 3662,
      "flor": 3663,
      "mostly": 3664,
      "sym": 3665,
      "reading": 3666,
      "shown": 3667,
      "voice": 3668,
      "banned": 3669,
      "visible": 3670,
      "pson": 3671,
      "supported": 3672,
      "decided": 3673,
      "looked": 3674,
      "remind": 3675,
      "logical": 3676,
      "defense": 3677,
      "knows": 3678,
      "considered": 3679,
      "views": 3680,
      "charged": 3681,
      "homeland": 3682,
      "feeling": 3683,
      "showed": 3684,
      "setting": 3685,
      "cutting": 3686,
      "testimony": 3687,
      "transform": 3688,
      "truce": 3689,
      "witch": 3690,
      "developed": 3691,
      "cyber": 3692,
      "commitment": 3693,
      "businesses": 3694,
      "network": 3695,
      "faces": 3696,
      "organization": 3697,
      "suspect": 3698,
      "suspected": 3699,
      "germans": 3700,
      "schools": 3701,
      "devast": 3702,
      "connection": 3703,
      "examination": 3704,
      "drop": 3705,
      "equity": 3706,
      "discussion": 3707,
      "attempted": 3708,
      "records": 3709,
      "function": 3710,
      "woodmore": 3711,
      "enterprise": 3712,
      "vaccine": 3713,
      "combat": 3714,
      "independent": 3715,
      "digital": 3716,
      "determin": 3717,
      "teachers": 3718,
      "spiritual": 3719,
      "creating": 3720,
      "fighter": 3721,
      "manufacturing": 3722,
      "legislation": 3723,
      "mountain": 3724,
      "style": 3725,
      "politicians": 3726,
      "chemical": 3727,
      "purchase": 3728,
      "vehicle": 3729,
      "vpn": 3730,
      "equipment": 3731,
      "weldon": 3732,
      "sovereign": 3733,
      "95": 3734,
      "bb": 3735,
      "cn": 3736,
      "die": 3737,
      "eth": 3738,
      "foun": 3739,
      "gall": 3740,
      "lab": 3741,
      "pent": 3742,
      "pack": 3743,
      "paper": 3744,
      "rwa": 3745,
      "smo": 3746,
      "sought": 3747,
      "utr": 3748,
      "van": 3749,
      "inspe": 3750,
      "enor": 3751,
      "alliance": 3752,
      "eds": 3753,
      "itude": 3754,
      "offered": 3755,
      "seg": 3756,
      "beat": 3757,
      "hez": 3758,
      "advert": 3759,
      "adams": 3760,
      "deput": 3761,
      "noon": 3762,
      "trail": 3763,
      "unrwa": 3764,
      "constant": 3765,
      "urg": 3766,
      "kept": 3767,
      "mode": 3768,
      "ume": 3769,
      "ables": 3770,
      "pod": 3771,
      "female": 3772,
      "meth": 3773,
      "actress": 3774,
      "prescr": 3775,
      "cooper": 3776,
      "worst": 3777,
      "qual": 3778,
      "audi": 3779,
      "bot": 3780,
      "bodies": 3781,
      "akes": 3782,
      "blue": 3783,
      "grant": 3784,
      "marks": 3785,
      "perfor": 3786,
      "polls": 3787,
      "hero": 3788,
      "sheep": 3789,
      "display": 3790,
      "oked": 3791,
      "regular": 3792,
      "heads": 3793,
      "iction": 3794,
      "clean": 3795,
      "decade": 3796,
      "surge": 3797,
      "surpr": 3798,
      "defic": 3799,
      "produced": 3800,
      "divers": 3801,
      "happens": 3802,
      "capabilities": 3803,
      "valu": 3804,
      "democrat": 3805,
      "groupthink": 3806,
      "questioner": 3807,
      "committed": 3808,
      "technologies": 3809,
      "filed": 3810,
      "films": 3811,
      "required": 3812,
      "effective": 3813,
      "radical": 3814,
      "shortly": 3815,
      "returned": 3816,
      "royal": 3817,
      "citizen": 3818,
      "copy": 3819,
      "shooter": 3820,
      "ordinary": 3821,
      "gathered": 3822,
      "fortun": 3823,
      "metals": 3824,
      "collapse": 3825,
      "victory": 3826,
      "assets": 3827,
      "opinion": 3828,
      "deutsche": 3829,
      "jesus": 3830,
      "beautiful": 3831,
      "ceasefire": 3832,
      "patel": 3833,
      "deputy": 3834,
      "47": 3835,
      "75": 3836,
      "fers": 3837,
      "fasc": 3838,
      "gm": 3839,
      "ito": 3840,
      "iency": 3841,
      "ots": 3842,
      "oxy": 3843,
      "sate": 3844,
      "sadd": 3845,
      "tip": 3846,
      "ugs": 3847,
      "vin": 3848,
      "yawn": 3849,
      "inner": 3850,
      "remony": 3851,
      "ongoing": 3852,
      "erup": 3853,
      "itory": 3854,
      "seven": 3855,
      "bel": 3856,
      "ador": 3857,
      "igno": 3858,
      "ceremony": 3859,
      "pete": 3860,
      "abort": 3861,
      "excl": 3862,
      "istics": 3863,
      "gov": 3864,
      "saud": 3865,
      "prince": 3866,
      "pled": 3867,
      "actual": 3868,
      "preser": 3869,
      "code": 3870,
      "worry": 3871,
      "elim": 3872,
      "identified": 3873,
      "mari": 3874,
      "count": 3875,
      "brid": 3876,
      "strike": 3877,
      "ukrainians": 3878,
      "warm": 3879,
      "ibilities": 3880,
      "izon": 3881,
      "workforce": 3882,
      "spect": 3883,
      "drugs": 3884,
      "airs": 3885,
      "served": 3886,
      "desper": 3887,
      "pping": 3888,
      "ponents": 3889,
      "senator": 3890,
      "opera": 3891,
      "appeal": 3892,
      "diagno": 3893,
      "cape": 3894,
      "planning": 3895,
      "temper": 3896,
      "settle": 3897,
      "structure": 3898,
      "strugg": 3899,
      "extent": 3900,
      "promised": 3901,
      "trucks": 3902,
      "simple": 3903,
      "playing": 3904,
      "matters": 3905,
      "cycl": 3906,
      "finding": 3907,
      "visitors": 3908,
      "allowing": 3909,
      "passed": 3910,
      "membership": 3911,
      "tells": 3912,
      "coverage": 3913,
      "easy": 3914,
      "providing": 3915,
      "measles": 3916,
      "benefits": 3917,
      "ruption": 3918,
      "sanctions": 3919,
      "application": 3920,
      "crimea": 3921,
      "argued": 3922,
      "types": 3923,
      "increasingly": 3924,
      "environmental": 3925,
      "wengen": 3926,
      "drilling": 3927,
      "oscars": 3928,
      "refugees": 3929,
      "guidance": 3930,
      "bacteria": 3931,
      "founder": 3932,
      "enormous": 3933,
      "hezbollah": 3934,
      "podcast": 3935,
      "method": 3936,
      "sheeple": 3937,
      "01": 3938,
      "44": 3939,
      "88": 3940,
      "ape": 3941,
      "aur": 3942,
      "fit": 3943,
      "fly": 3944,
      "fine": 3945,
      "fash": 3946,
      "gul": 3947,
      "jam": 3948,
      "jury": 3949,
      "lor": 3950,
      "nam": 3951,
      "oz": 3952,
      "rif": 3953,
      "swe": 3954,
      "sla": 3955,
      "tens": 3956,
      "vant": 3957,
      "ths": 3958,
      "instru": 3959,
      "infection": 3960,
      "item": 3961,
      "anda": 3962,
      "ases": 3963,
      "asking": 3964,
      "icted": 3965,
      "ione": 3966,
      "select": 3967,
      "aces": 3968,
      "becoming": 3969,
      "idel": 3970,
      "amino": 3971,
      "iry": 3972,
      "unity": 3973,
      "confeder": 3974,
      "resort": 3975,
      "agon": 3976,
      "mood": 3977,
      "movie": 3978,
      "supre": 3979,
      "exter": 3980,
      "sail": 3981,
      "noted": 3982,
      "arts": 3983,
      "mann": 3984,
      "manip": 3985,
      "manuel": 3986,
      "plast": 3987,
      "yester": 3988,
      "emil": 3989,
      "embr": 3990,
      "autom": 3991,
      "indian": 3992,
      "boat": 3993,
      "perform": 3994,
      "intended": 3995,
      "dram": 3996,
      "understood": 3997,
      "regist": 3998,
      "regret": 3999,
      "comey": 4000,
      "voter": 4001,
      "banking": 4002,
      "landsc": 4003,
      "joe": 4004,
      "larger": 4005,
      "balance": 4006,
      "clock": 4007,
      "ashed": 4008,
      "pressed": 4009,
      "operating": 4010,
      "causing": 4011,
      "captain": 4012,
      "target": 4013,
      "values": 4014,
      "tempor": 4015,
      "profits": 4016,
      "writing": 4017,
      "territory": 4018,
      "promises": 4019,
      "studies": 4020,
      "controvers": 4021,
      "opened": 4022,
      "listen": 4023,
      "menende": 4024,
      "virt": 4025,
      "locals": 4026,
      "legalization": 4027,
      "payment": 4028,
      "killing": 4029,
      "deaths": 4030,
      "refused": 4031,
      "juana": 4032,
      "telling": 4033,
      "easier": 4034,
      "provides": 4035,
      "iraqi": 4036,
      "makers": 4037,
      "dani": 4038,
      "population": 4039,
      "storms": 4040,
      "initially": 4041,
      "educational": 4042,
      "location": 4043,
      "confirm": 4044,
      "distribut": 4045,
      "consumers": 4046,
      "fields": 4047,
      "prayers": 4048,
      "independence": 4049,
      "aggression": 4050,
      "assistance": 4051,
      "footage": 4052,
      "clinic": 4053,
      "carrying": 4054,
      "guests": 4055,
      "technical": 4056,
      "industrial": 4057,
      "homes": 4058,
      "bomb": 4059,
      "chicago": 4060,
      "geograph": 4061,
      "gender": 4062,
      "church": 4063,
      "performan": 4064,
      "satell": 4065,
      "marijuana": 4066,
      "fashion": 4067,
      "yesterday": 4068,
      "menendez": 4069,
      "57": 4070,
      "cdu": 4071,
      "dund": 4072,
      "eyes": 4073,
      "fli": 4074,
      "fier": 4075,
      "iver": 4076,
      "iples": 4077,
      "kar": 4078,
      "kids": 4079,
      "lat": 4080,
      "mist": 4081,
      "ore": 4082,
      "ode": 4083,
      "pun": 4084,
      "pts": 4085,
      "pick": 4086,
      "ries": 4087,
      "rating": 4088,
      "sr": 4089,
      "sht": 4090,
      "song": 4091,
      "tight": 4092,
      "tiny": 4093,
      "uff": 4094,
      "wake": 4095,
      "thy": 4096,
      "inent": 4097,
      "infect": 4098,
      "anger": 4099,
      "renew": 4100,
      "replace": 4101,
      "replaced": 4102,
      "reporter": 4103,
      "era": 4104,
      "enem": 4105,
      "alan": 4106,
      "tool": 4107,
      "asia": 4108,
      "omo": 4109,
      "becomes": 4110,
      "vey": 4111,
      "whom": 4112,
      "usaid": 4113,
      "amm": 4114,
      "ambass": 4115,
      "unable": 4116,
      "unlikely": 4117,
      "unfold": 4118,
      "convic": 4119,
      "consequ": 4120,
      "moves": 4121,
      "fract": 4122,
      "sult": 4123,
      "opio": 4124,
      "fears": 4125,
      "shior": 4126,
      "mel": 4127,
      "anta": 4128,
      "iah": 4129,
      "presents": 4130,
      "coord": 4131,
      "worried": 4132,
      "emmanuel": 4133,
      "partis": 4134,
      "forens": 4135,
      "offering": 4136,
      "brut": 4137,
      "minim": 4138,
      "urer": 4139,
      "scre": 4140,
      "afternoon": 4141,
      "server": 4142,
      "izations": 4143,
      "2012": 4144,
      "governments": 4145,
      "attend": 4146,
      "legally": 4147,
      "votes": 4148,
      "serving": 4149,
      "deser": 4150,
      "publicly": 4151,
      "download": 4152,
      "rape": 4153,
      "park": 4154,
      "signals": 4155,
      "default": 4156,
      "engage": 4157,
      "owners": 4158,
      "follows": 4159,
      "followed": 4160,
      "brea": 4161,
      "plane": 4162,
      "planet": 4163,
      "investigators": 4164,
      "glob": 4165,
      "except": 4166,
      "bush": 4167,
      "happening": 4168,
      "lists": 4169,
      "nearby": 4170,
      "barack": 4171,
      "paying": 4172,
      "congressional": 4173,
      "remained": 4174,
      "liter": 4175,
      "sentenced": 4176,
      "nathan": 4177,
      "appropr": 4178,
      "collabor": 4179,
      "expans": 4180,
      "accounts": 4181,
      "conservatives": 4182,
      "angel": 4183,
      "responsibility": 4184,
      "civilian": 4185,
      "photos": 4186,
      "located": 4187,
      "ruled": 4188,
      "convinc": 4189,
      "thoughts": 4190,
      "aught": 4191,
      "tourists": 4192,
      "walk": 4193,
      "widely": 4194,
      "scientific": 4195,
      "immediate": 4196,
      "prosecutor": 4197,
      "conducted": 4198,
      "broadcast": 4199,
      "welcome": 4200,
      "shares": 4201,
      "****": 4202,
      "crucial": 4203,
      "chairman": 4204,
      "navig": 4205,
      "initiatives": 4206,
      "housing": 4207,
      "appointed": 4208,
      "suffering": 4209,
      "targeted": 4210,
      "involvement": 4211,
      "title": 4212,
      "camera": 4213,
      "afghanistan": 4214,
      "birth": 4215,
      "cancelled": 4216,
      "schedul": 4217,
      "louis": 4218,
      "spring": 4219,
      "florida": 4220,
      "fortunately": 4221,
      "saudi": 4222,
      "confederate": 4223,
      "dramatic": 4224,
      "performance": 4225,
      "dundalk": 4226,
      "ambassador": 4227,
      "shiori": 4228,
      "34": 4229,
      "98": 4230,
      "blow": 4231,
      "cab": 4232,
      "cies": 4233,
      "fare": 4234,
      "fake": 4235,
      "gse": 4236,
      "krem": 4237,
      "lap": 4238,
      "labor": 4239,
      "lisa": 4240,
      "ni": 4241,
      "oise": 4242,
      "slight": 4243,
      "santa": 4244,
      "tally": 4245,
      "twee": 4246,
      "tired": 4247,
      "tank": 4248,
      "wage": 4249,
      "wicked": 4250,
      "zon": 4251,
      "ini": 4252,
      "info": 4253,
      "erc": 4254,
      "erity": 4255,
      "atl": 4256,
      "atom": 4257,
      "stret": 4258,
      "isol": 4259,
      "toward": 4260,
      "sey": 4261,
      "acle": 4262,
      "hegse": 4263,
      "ros": 4264,
      "losing": 4265,
      "usa": 4266,
      "wered": 4267,
      "ima": 4268,
      "trac": 4269,
      "olf": 4270,
      "pear": 4271,
      "util": 4272,
      "resc": 4273,
      "ager": 4274,
      "urb": 4275,
      "termin": 4276,
      "ket": 4277,
      "moved": 4278,
      "frust": 4279,
      "atest": 4280,
      "opt": 4281,
      "opposed": 4282,
      "options": 4283,
      "fected": 4284,
      "notes": 4285,
      "2000": 4286,
      "bless": 4287,
      "grad": 4288,
      "grav": 4289,
      "spar": 4290,
      "spam": 4291,
      "ously": 4292,
      "brand": 4293,
      "minor": 4294,
      "otherwise": 4295,
      "award": 4296,
      "overall": 4297,
      "forms": 4298,
      "monitor": 4299,
      "achiev": 4300,
      "warned": 4301,
      "2010": 4302,
      "retal": 4303,
      "regional": 4304,
      "couldn": 4305,
      "guide": 4306,
      "stores": 4307,
      "version": 4308,
      "wells": 4309,
      "buying": 4310,
      "factors": 4311,
      "noro": 4312,
      "invad": 4313,
      "knowledge": 4314,
      "plot": 4315,
      "produce": 4316,
      "owned": 4317,
      "charles": 4318,
      "causes": 4319,
      "childhood": 4320,
      "subsequ": 4321,
      "showing": 4322,
      "humans": 4323,
      "healthcare": 4324,
      "imports": 4325,
      "truly": 4326,
      "expert": 4327,
      "harvey": 4328,
      "rub": 4329,
      "ships": 4330,
      "controlled": 4331,
      "firewall": 4332,
      "receiving": 4333,
      "creation": 4334,
      "cycle": 4335,
      "solution": 4336,
      "sugar": 4337,
      "bankers": 4338,
      "relevant": 4339,
      "fundament": 4340,
      "organizations": 4341,
      "purpose": 4342,
      "alongside": 4343,
      "depends": 4344,
      "effectively": 4345,
      "detailed": 4346,
      "covering": 4347,
      "maced": 4348,
      "wait": 4349,
      "britain": 4350,
      "expand": 4351,
      "expensive": 4352,
      "confident": 4353,
      "explains": 4354,
      "photograph": 4355,
      "learning": 4356,
      "remote": 4357,
      "speaker": 4358,
      "adviser": 4359,
      "reserves": 4360,
      "tourism": 4361,
      "significantly": 4362,
      "sales": 4363,
      "prayer": 4364,
      "river": 4365,
      "expressed": 4366,
      "hopes": 4367,
      "indeed": 4368,
      "teaching": 4369,
      "guarantee": 4370,
      "crowd": 4371,
      "fighters": 4372,
      "nominated": 4373,
      "patrick": 4374,
      "soros": 4375,
      "initiative": 4376,
      "approved": 4377,
      "corporate": 4378,
      "touch": 4379,
      "announcement": 4380,
      "surveill": 4381,
      "electric": 4382,
      "accompl": 4383,
      "toxic": 4384,
      "dozens": 4385,
      "recommend": 4386,
      "insisted": 4387,
      "australia": 4388,
      "revolution": 4389,
      "conscious": 4390,
      "scandal": 4391,
      "pentagon": 4392,
      "diversity": 4393,
      "abortion": 4394,
      "settlement": 4395,
      "supreme": 4396,
      "external": 4397,
      "landscape": 4398,
      "controversial": 4399,
      "shtf": 4400,
      "partisan": 4401,
      "forensic": 4402,
      "kremlin": 4403,
      "hegseth": 4404,
      "06": 4405,
      "38": 4406,
      "65": 4407,
      "bay": 4408,
      "bound": 4409,
      "flying": 4410,
      "gy": 4411,
      "hate": 4412,
      "ith": 4413,
      "km": 4414,
      "kash": 4415,
      "lum": 4416,
      "nbc": 4417,
      "oi": 4418,
      "pir": 4419,
      "pump": 4420,
      "pak": 4421,
      "pence": 4422,
      "pting": 4423,
      "rand": 4424,
      "ray": 4425,
      "rum": 4426,
      "sin": 4427,
      "scan": 4428,
      "sized": 4429,
      "tough": 4430,
      "wat": 4431,
      "instr": 4432,
      "theast": 4433,
      "rez": 4434,
      "rees": 4435,
      "recru": 4436,
      "onto": 4437,
      "atures": 4438,
      "alex": 4439,
      "ingly": 4440,
      "army": 4441,
      "asy": 4442,
      "acids": 4443,
      "rog": 4444,
      "robert": 4445,
      "chines": 4446,
      "dee": 4447,
      "delive": 4448,
      "degree": 4449,
      "improv": 4450,
      "impose": 4451,
      "irs": 4452,
      "unpreced": 4453,
      "unfortunately": 4454,
      "concept": 4455,
      "rescu": 4456,
      "neither": 4457,
      "mented": 4458,
      "pool": 4459,
      "proced": 4460,
      "outcome": 4461,
      "optim": 4462,
      "feld": 4463,
      "illness": 4464,
      "ulate": 4465,
      "extra": 4466,
      "ounce": 4467,
      "dog": 4468,
      "doors": 4469,
      "pra": 4470,
      "print": 4471,
      "presence": 4472,
      "coordin": 4473,
      "ller": 4474,
      "quo": 4475,
      "elite": 4476,
      "gry": 4477,
      "marg": 4478,
      "marler": 4479,
      "perman": 4480,
      "therefore": 4481,
      "berlin": 4482,
      "serve": 4483,
      "accident": 4484,
      "accidents": 4485,
      "wore": 4486,
      "poses": 4487,
      "driver": 4488,
      "publish": 4489,
      "airport": 4490,
      "internal": 4491,
      "reporting": 4492,
      "joined": 4493,
      "roughly": 4494,
      "useful": 4495,
      "paral": 4496,
      "restaur": 4497,
      "cars": 4498,
      "2025": 4499,
      "197": 4500,
      "personnel": 4501,
      "capac": 4502,
      "continent": 4503,
      "farm": 4504,
      "attacking": 4505,
      "posts": 4506,
      "substance": 4507,
      "investigating": 4508,
      "sett": 4509,
      "socialist": 4510,
      "profile": 4511,
      "corruption": 4512,
      "transfer": 4513,
      "healthy": 4514,
      "contrast": 4515,
      "steve": 4516,
      "gotten": 4517,
      "affairs": 4518,
      "datab": 4519,
      "analyst": 4520,
      "organisation": 4521,
      "device": 4522,
      "classified": 4523,
      "stronger": 4524,
      "greatest": 4525,
      "waiting": 4526,
      "generally": 4527,
      "gleason": 4528,
      "advanced": 4529,
      "responded": 4530,
      "motiv": 4531,
      "sexuality": 4532,
      "cuomo": 4533,
      "decline": 4534,
      "operational": 4535,
      "influenc": 4536,
      "protests": 4537,
      "practice": 4538,
      "deeply": 4539,
      "designed": 4540,
      "contribute": 4541,
      "contributed": 4542,
      "precise": 4543,
      "specifically": 4544,
      "traum": 4545,
      "circum": 4546,
      "strength": 4547,
      "strengthen": 4548,
      "restrictions": 4549,
      "dictator": 4550,
      "universe": 4551,
      "houses": 4552,
      "georgia": 4553,
      "approval": 4554,
      "trend": 4555,
      "beliefs": 4556,
      "lungs": 4557,
      "catal": 4558,
      "spokesperson": 4559,
      "argument": 4560,
      "advantage": 4561,
      "filled": 4562,
      "sleep": 4563,
      "proposal": 4564,
      "assault": 4565,
      "libya": 4566,
      "column": 4567,
      "accurate": 4568,
      "exposure": 4569,
      "episode": 4570,
      "square": 4571,
      "amendment": 4572,
      "devastating": 4573,
      "determined": 4574,
      "oxygen": 4575,
      "methods": 4576,
      "emilia": 4577,
      "convicted": 4578,
      "appropriate": 4579,
      "scheduled": 4580,
      "atlantic": 4581,
      "norovirus": 4582,
      "surveillance": 4583,
      "pakistan": 4584,
      "instrum": 4585,
      "chinese": 4586,
      "delivered": 4587,
      "unprecedented": 4588,
      "52": 4589,
      "69": 4590,
      "apo": 4591,
      "categ": 4592,
      "drew": 4593,
      "ec": 4594,
      "fle": 4595,
      "fate": 4596,
      "hat": 4597,
      "hall": 4598,
      "jer": 4599,
      "kiss": 4600,
      "lers": 4601,
      "lash": 4602,
      "leng": 4603,
      "match": 4604,
      "nen": 4605,
      "nra": 4606,
      "obl": 4607,
      "oyst": 4608,
      "pne": 4609,
      "rally": 4610,
      "rated": 4611,
      "rush": 4612,
      "si": 4613,
      "sis": 4614,
      "sending": 4615,
      "tact": 4616,
      "treas": 4617,
      "uan": 4618,
      "von": 4619,
      "vil": 4620,
      "thr": 4621,
      "inno": 4622,
      "revers": 4623,
      "represents": 4624,
      "error": 4625,
      "ena": 4626,
      "encry": 4627,
      "stun": 4628,
      "stuff": 4629,
      "totally": 4630,
      "arizon": 4631,
      "icing": 4632,
      "sees": 4633,
      "acher": 4634,
      "height": 4635,
      "veter": 4636,
      "chinar": 4637,
      "lots": 4638,
      "igan": 4639,
      "imposed": 4640,
      "immigrants": 4641,
      "unclear": 4642,
      "uncertain": 4643,
      "uters": 4644,
      "resh": 4645,
      "respir": 4646,
      "neck": 4647,
      "neutr": 4648,
      "agents": 4649,
      "ague": 4650,
      "agues": 4651,
      "model": 4652,
      "lie": 4653,
      "umed": 4654,
      "umonia": 4655,
      "hael": 4656,
      "frame": 4657,
      "teen": 4658,
      "teles": 4659,
      "ourselves": 4660,
      "doctor": 4661,
      "save": 4662,
      "therap": 4663,
      "sharing": 4664,
      "cool": 4665,
      "emer": 4666,
      "embar": 4667,
      "boys": 4668,
      "blame": 4669,
      "herd": 4670,
      "herself": 4671,
      "shep": 4672,
      "brian": 4673,
      "wouldn": 4674,
      "discrim": 4675,
      "contam": 4676,
      "tyr": 4677,
      "servers": 4678,
      "seriously": 4679,
      "warren": 4680,
      "myster": 4681,
      "commander": 4682,
      "obtained": 4683,
      "drink": 4684,
      "drawn": 4685,
      "driven": 4686,
      "undering": 4687,
      "retail": 4688,
      "background": 4689,
      "shore": 4690,
      "beings": 4691,
      "headed": 4692,
      "incidents": 4693,
      "desire": 4694,
      "channel": 4695,
      "gene": 4696,
      "helps": 4697,
      "lands": 4698,
      "merman": 4699,
      "laundering": 4700,
      "viet": 4701,
      "ballot": 4702,
      "amazing": 4703,
      "persons": 4704,
      "shouldn": 4705,
      "dynam": 4706,
      "brown": 4707,
      "planes": 4708,
      "basically": 4709,
      "missile": 4710,
      "attacked": 4711,
      "subject": 4712,
      "struck": 4713,
      "testing": 4714,
      "monetary": 4715,
      "harm": 4716,
      "student": 4717,
      "possibility": 4718,
      "taxpay": 4719,
      "windo": 4720,
      "presented": 4721,
      "developing": 4722,
      "players": 4723,
      "privately": 4724,
      "constitu": 4725,
      "christmas": 4726,
      "luck": 4727,
      "facilities": 4728,
      "benz": 4729,
      "funded": 4730,
      "interests": 4731,
      "interested": 4732,
      "patter": 4733,
      "sites": 4734,
      "sentence": 4735,
      "watched": 4736,
      "refle": 4737,
      "reportedly": 4738,
      "teams": 4739,
      "babies": 4740,
      "links": 4741,
      "pushed": 4742,
      "michael": 4743,
      "challenging": 4744,
      "practical": 4745,
      "aggressive": 4746,
      "assistant": 4747,
      "typically": 4748,
      "primarily": 4749,
      "burg": 4750,
      "observation": 4751,
      "bureaucr": 4752,
      "trends": 4753,
      "straight": 4754,
      "vulgar": 4755,
      "detect": 4756,
      "resolution": 4757,
      "preparedness": 4758,
      "propag": 4759,
      "principles": 4760,
      "commerce": 4761,
      "commercial": 4762,
      "arguments": 4763,
      "software": 4764,
      "acceler": 4765,
      "imagine": 4766,
      "mentioned": 4767,
      "cluster": 4768,
      "introduced": 4769,
      "lynch": 4770,
      "administrator": 4771,
      "emotional": 4772,
      "inquiry": 4773,
      "arabia": 4774,
      "eggs": 4775,
      "sovereignty": 4776,
      "cnn": 4777,
      "audience": 4778,
      "saddam": 4779,
      "instructions": 4780,
      "globular": 4781,
      "expansion": 4782,
      "accomplish": 4783,
      "waters": 4784,
      "asylum": 4785,
      "oysters": 4786,
      "pneumonia": 4787,
      "respiratory": 4788,
      "%,": 4789,
      "--": 4790,
      "150": 4791,
      "33": 4792,
      "48": 4793,
      "55": 4794,
      "bun": 4795,
      "bli": 4796,
      "cro": 4797,
      "dna": 4798,
      "fision": 4799,
      "gap": 4800,
      "gift": 4801,
      "grown": 4802,
      "ku": 4803,
      "kit": 4804,
      "lic": 4805,
      "mi": 4806,
      "muse": 4807,
      "mix": 4808,
      "nif": 4809,
      "pé": 4810,
      "phas": 4811,
      "pages": 4812,
      "rt": 4813,
      "rist": 4814,
      "rio": 4815,
      "sab": 4816,
      "sale": 4817,
      "tus": 4818,
      "taught": 4819,
      "vid": 4820,
      "vill": 4821,
      "zz": 4822,
      "áil": 4823,
      "ining": 4824,
      "insul": 4825,
      "reput": 4826,
      "referen": 4827,
      "remarks": 4828,
      "reuters": 4829,
      "stal": 4830,
      "stable": 4831,
      "alab": 4832,
      "alice": 4833,
      "edia": 4834,
      "outr": 4835,
      "itors": 4836,
      "escu": 4837,
      "icul": 4838,
      "entered": 4839,
      "bell": 4840,
      "adm": 4841,
      "advance": 4842,
      "rose": 4843,
      "lock": 4844,
      "weidel": 4845,
      "ceo": 4846,
      "older": 4847,
      "iring": 4848,
      "agr": 4849,
      "complain": 4850,
      "haz": 4851,
      "teacher": 4852,
      "gemel": 4853,
      "fee": 4854,
      "illust": 4855,
      "ulated": 4856,
      "soviet": 4857,
      "apped": 4858,
      "apprec": 4859,
      "shado": 4860,
      "memo": 4861,
      "plus": 4862,
      "plun": 4863,
      "actors": 4864,
      "astron": 4865,
      "boss": 4866,
      "iet": 4867,
      "marx": 4868,
      "marked": 4869,
      "span": 4870,
      "enses": 4871,
      "shell": 4872,
      "minute": 4873,
      "ideas": 4874,
      "igned": 4875,
      "ipt": 4876,
      "anyway": 4877,
      "overnight": 4878,
      "itely": 4879,
      "firms": 4880,
      "preh": 4881,
      "prem": 4882,
      "pregn": 4883,
      "intent": 4884,
      "guess": 4885,
      "attended": 4886,
      "marketing": 4887,
      "interior": 4888,
      "heading": 4889,
      "jets": 4890,
      "signs": 4891,
      "directed": 4892,
      "standard": 4893,
      "weekly": 4894,
      "closer": 4895,
      "knowing": 4896,
      "tonnes": 4897,
      "capito": 4898,
      "mrs": 4899,
      "rising": 4900,
      "missed": 4901,
      "pointed": 4902,
      "corrupt": 4903,
      "transcr": 4904,
      "importance": 4905,
      "bike": 4906,
      "harness": 4907,
      "played": 4908,
      "seemed": 4909,
      "luis": 4910,
      "wheel": 4911,
      "netic": 4912,
      "casual": 4913,
      "etf": 4914,
      "juno": 4915,
      "terrorism": 4916,
      "connections": 4917,
      "hospitals": 4918,
      "description": 4919,
      "moral": 4920,
      "sonnen": 4921,
      "smaller": 4922,
      "frank": 4923,
      "recorded": 4924,
      "functions": 4925,
      "learned": 4926,
      "regulation": 4927,
      "focused": 4928,
      "nutr": 4929,
      "streets": 4930,
      "diplomacy": 4931,
      "describing": 4932,
      "blogspot": 4933,
      "existing": 4934,
      "existence": 4935,
      "journalist": 4936,
      "amounts": 4937,
      "micro": 4938,
      "resulted": 4939,
      "regardless": 4940,
      "welfare": 4941,
      "explos": 4942,
      "hoping": 4943,
      "palest": 4944,
      "outbreaks": 4945,
      "suspended": 4946,
      "losses": 4947,
      "property": 4948,
      "religious": 4949,
      "college": 4950,
      "guns": 4951,
      "biden": 4952,
      "racism": 4953,
      "deportation": 4954,
      "henry": 4955,
      "dedicated": 4956,
      "georgescu": 4957,
      "materials": 4958,
      "advantages": 4959,
      "giant": 4960,
      "fifth": 4961,
      "resistance": 4962,
      "obviously": 4963,
      "efficiency": 4964,
      "relatively": 4965,
      "favor": 4966,
      "quarter": 4967,
      "encourage": 4968,
      "estimated": 4969,
      "employment": 4970,
      "gambling": 4971,
      "pushing": 4972,
      "piece": 4973,
      "outdoorz": 4974,
      "striking": 4975,
      "bridge": 4976,
      "gulf": 4977,
      "slavery": 4978,
      "daniel": 4979,
      "sparked": 4980,
      "capacity": 4981,
      "treasury": 4982,
      "arizona": 4983,
      "propaganda": 4984,
      "pérez": 4985,
      "alabama": 4986,
      "gemelli": 4987,
      "capitol": 4988,
      "sonnenfeld": 4989,
      "($": 4990,
      "360": 4991,
      "43": 4992,
      "51": 4993,
      "56": 4994,
      "63": 4995,
      "76": 4996,
      "800": 4997,
      "97": 4998,
      "99": 4999,
      "ba": 5000,
      "bac": 5001,
      "bone": 5002,
      "bess": 5003,
      "bird": 5004,
      "cers": 5005,
      "cdc": 5006,
      "eli": 5007,
      "ght": 5008,
      "hs": 5009,
      "hid": 5010,
      "hance": 5011,
      "ja": 5012,
      "jump": 5013,
      "jef": 5014,
      "kin": 5015,
      "mand": 5016,
      "mut": 5017,
      "narr": 5018,
      "rat": 5019,
      "sid": 5020,
      "vy": 5021,
      "vast": 5022,
      "wound": 5023,
      "whel": 5024,
      "zed": 5025,
      "zone": 5026,
      "injur": 5027,
      "theless": 5028,
      "ancing": 5029,
      "angry": 5030,
      "erous": 5031,
      "enhance": 5032,
      "stim": 5033,
      "stab": 5034,
      "stances": 5035,
      "icts": 5036,
      "beck": 5037,
      "belt": 5038,
      "heim": 5039,
      "hell": 5040,
      "adhere": 5041,
      "rot": 5042,
      "roots": 5043,
      "loves": 5044,
      "web": 5045,
      "irty": 5046,
      "unit": 5047,
      "conce": 5048,
      "resent": 5049,
      "nels": 5050,
      "urning": 5051,
      "keen": 5052,
      "commod": 5053,
      "ouri": 5054,
      "erson": 5055,
      "prohib": 5056,
      "outlook": 5057,
      "outcomes": 5058,
      "suit": 5059,
      "feet": 5060,
      "ults": 5061,
      "extr": 5062,
      "expl": 5063,
      "exposed": 5064,
      "exchanges": 5065,
      "exerc": 5066,
      "ifies": 5067,
      "sher": 5068,
      "shar": 5069,
      "mechan": 5070,
      "mang": 5071,
      "plants": 5072,
      "clim": 5073,
      "covid": 5074,
      "affected": 5075,
      "quake": 5076,
      "partial": 5077,
      "bled": 5078,
      "poland": 5079,
      "ensuring": 5080,
      "ideo": 5081,
      "overwhel": 5082,
      "scream": 5083,
      "positions": 5084,
      "2011": 5085,
      "aves": 5086,
      "avalan": 5087,
      "dra": 5088,
      "retain": 5089,
      "returning": 5090,
      "compar": 5091,
      "backup": 5092,
      "backlash": 5093,
      "legion": 5094,
      "ministry": 5095,
      "caught": 5096,
      "incred": 5097,
      "finn": 5098,
      "marketresearch": 5099,
      "maxim": 5100,
      "lawmakers": 5101,
      "proven": 5102,
      "perspect": 5103,
      "annivers": 5104,
      "decide": 5105,
      "carol": 5106,
      "phy": 5107,
      "pleas": 5108,
      "facts": 5109,
      "standards": 5110,
      "closure": 5111,
      "clocks": 5112,
      "taoise": 5113,
      "italy": 5114,
      "cheap": 5115,
      "valley": 5116,
      "investigate": 5117,
      "socialism": 5118,
      "fert": 5119,
      "2006": 5120,
      "extin": 5121,
      "currencies": 5122,
      "magaz": 5123,
      "experiment": 5124,
      "soul": 5125,
      "music": 5126,
      "opening": 5127,
      "virgin": 5128,
      "camp": 5129,
      "occup": 5130,
      "plays": 5131,
      "distress": 5132,
      "kinds": 5133,
      "solve": 5134,
      "solid": 5135,
      "luke": 5136,
      "interesting": 5137,
      "hubble": 5138,
      "purposes": 5139,
      "reflect": 5140,
      "crimes": 5141,
      "minds": 5142,
      "garden": 5143,
      "dropped": 5144,
      "radiation": 5145,
      "successfully": 5146,
      "generated": 5147,
      "satan": 5148,
      "silence": 5149,
      "responsibilities": 5150,
      "scott": 5151,
      "initial": 5152,
      "motions": 5153,
      "reveal": 5154,
      "removal": 5155,
      "convince": 5156,
      "writer": 5157,
      "declared": 5158,
      "diplomats": 5159,
      "fairly": 5160,
      "ski": 5161,
      "cultiv": 5162,
      "wealthy": 5163,
      "activity": 5164,
      "designated": 5165,
      "protecting": 5166,
      "expectations": 5167,
      "reduced": 5168,
      "heavily": 5169,
      "disasters": 5170,
      "entirely": 5171,
      "ultimate": 5172,
      "medication": 5173,
      "medicine": 5174,
      "priority": 5175,
      "pictures": 5176,
      "shocked": 5177,
      "hotels": 5178,
      "scheme": 5179,
      "unique": 5180,
      "directional": 5181,
      "catholics": 5182,
      "penal": 5183,
      "sounds": 5184,
      "criticism": 5185,
      "munich": 5186,
      "anticip": 5187,
      "emphas": 5188,
      "extremely": 5189,
      "customers": 5190,
      "corporation": 5191,
      "honor": 5192,
      "survey": 5193,
      "africa": 5194,
      "dozen": 5195,
      "suddenly": 5196,
      "clusters": 5197,
      "________": 5198,
      "yields": 5199,
      "scenes": 5200,
      "obvious": 5201,
      "harrison": 5202,
      "wonderful": 5203,
      "machine": 5204,
      "acknowled": 5205,
      "captured": 5206,
      "transportation": 5207,
      "divided": 5208,
      "fatal": 5209,
      "gathering": 5210,
      "opposite": 5211,
      "advertising": 5212,
      "tips": 5213,
      "sweep": 5214,
      "automatic": 5215,
      "temporary": 5216,
      "brutalist": 5217,
      "breathing": 5218,
      "convinced": 5219,
      "category": 5220,
      "oblig": 5221,
      "ville": 5222,
      "museum": 5223,
      "bessent": 5224,
      "injuries": 5225,
      "anniversary": 5226,
      "taoiseach": 5227,
      ".—": 5228,
      "09": 5229,
      "32": 5230,
      "42": 5231,
      "49": 5232,
      "87": 5233,
      "bag": 5234,
      "bong": 5235,
      "cct": 5236,
      "dáil": 5237,
      "fans": 5238,
      "file": 5239,
      "fresh": 5240,
      "gross": 5241,
      "hab": 5242,
      "jack": 5243,
      "kent": 5244,
      "kil": 5245,
      "kick": 5246,
      "lac": 5247,
      "lind": 5248,
      "lished": 5249,
      "mort": 5250,
      "mast": 5251,
      "mine": 5252,
      "matt": 5253,
      "nie": 5254,
      "og": 5255,
      "ole": 5256,
      "pup": 5257,
      "rous": 5258,
      "tag": 5259,
      "tone": 5260,
      "uate": 5261,
      "vit": 5262,
      "vital": 5263,
      "zy": 5264,
      "’.": 5265,
      "….": 5266,
      "thrown": 5267,
      "insp": 5268,
      "innov": 5269,
      "theory": 5270,
      "thedaily": 5271,
      "reck": 5272,
      "repair": 5273,
      "eric": 5274,
      "enix": 5275,
      "enhan": 5276,
      "enberg": 5277,
      "oumen": 5278,
      "arms": 5279,
      "itis": 5280,
      "itage": 5281,
      "eso": 5282,
      "escal": 5283,
      "escape": 5284,
      "asing": 5285,
      "aside": 5286,
      "aspect": 5287,
      "ican": 5288,
      "leak": 5289,
      "semit": 5290,
      "seats": 5291,
      "seized": 5292,
      "herent": 5293,
      "ilit": 5294,
      "roles": 5295,
      "rolling": 5296,
      "chu": 5297,
      "deau": 5298,
      "loom": 5299,
      "usions": 5300,
      "imm": 5301,
      "implic": 5302,
      "olaf": 5303,
      "unlike": 5304,
      "unless": 5305,
      "construction": 5306,
      "agan": 5307,
      "agent": 5308,
      "uration": 5309,
      "withdraw": 5310,
      "abs": 5311,
      "abused": 5312,
      "abusive": 5313,
      "mental": 5314,
      "projects": 5315,
      "sured": 5316,
      "opm": 5317,
      "opol": 5318,
      "gered": 5319,
      "fest": 5320,
      "exem": 5321,
      "exports": 5322,
      "button": 5323,
      "hasn": 5324,
      "ploumen": 5325,
      "clash": 5326,
      "quiet": 5327,
      "emic": 5328,
      "blind": 5329,
      "grade": 5330,
      "tsy": 5331,
      "marri": 5332,
      "inet": 5333,
      "somebody": 5334,
      "heritage": 5335,
      "mining": 5336,
      "strange": 5337,
      "awards": 5338,
      "ishi": 5339,
      "prepar": 5340,
      "accus": 5341,
      "worker": 5342,
      "forever": 5343,
      "flash": 5344,
      "epa": 5345,
      "compat": 5346,
      "ministers": 5347,
      "interference": 5348,
      "headlines": 5349,
      "incor": 5350,
      "worldwide": 5351,
      "cert": 5352,
      "vised": 5353,
      "everybody": 5354,
      "relatives": 5355,
      "ios": 5356,
      "pontiff": 5357,
      "surface": 5358,
      "laid": 5359,
      "phr": 5360,
      "pleased": 5361,
      "jean": 5362,
      "logic": 5363,
      "logist": 5364,
      "invited": 5365,
      "stands": 5366,
      "closing": 5367,
      "helping": 5368,
      "helpful": 5369,
      "capable": 5370,
      "departments": 5371,
      "founders": 5372,
      "missions": 5373,
      "investigations": 5374,
      "2001": 5375,
      "2003": 5376,
      "write": 5377,
      "movements": 5378,
      "prominent": 5379,
      "trudeau": 5380,
      "topic": 5381,
      "chronic": 5382,
      "questioned": 5383,
      "questioning": 5384,
      "occas": 5385,
      "denies": 5386,
      "analy": 5387,
      "solar": 5388,
      "limits": 5389,
      "sitting": 5390,
      "watching": 5391,
      "nazi": 5392,
      "threatening": 5393,
      "requires": 5394,
      "etc": 5395,
      "stopped": 5396,
      "commentary": 5397,
      "younger": 5398,
      "phoenix": 5399,
      "involving": 5400,
      "spectr": 5401,
      "satis": 5402,
      "reasonable": 5403,
      "maryland": 5404,
      "volun": 5405,
      "employee": 5406,
      "recovered": 5407,
      "deadly": 5408,
      "liberty": 5409,
      "revel": 5410,
      "regulator": 5411,
      "regulatory": 5412,
      "speaks": 5413,
      "ruling": 5414,
      "conviction": 5415,
      "walking": 5416,
      "awareness": 5417,
      "vaccines": 5418,
      "double": 5419,
      "established": 5420,
      "platini": 5421,
      "commissioner": 5422,
      "multi": 5423,
      "trop": 5424,
      "practices": 5425,
      "concluded": 5426,
      "floor": 5427,
      "flood": 5428,
      "feature": 5429,
      "resignation": 5430,
      "recognition": 5431,
      "girls": 5432,
      "spreading": 5433,
      "crowley": 5434,
      "documented": 5435,
      "bonds": 5436,
      "manufacturer": 5437,
      "afghans": 5438,
      "patriot": 5439,
      "criticised": 5440,
      "collapsed": 5441,
      "madison": 5442,
      "strauss": 5443,
      "mercedeskirkel": 5444,
      "witnesses": 5445,
      "advocate": 5446,
      "advocates": 5447,
      "islamic": 5448,
      "ucky": 5449,
      "apparently": 5450,
      "highlights": 5451,
      "suspicion": 5452,
      "triggered": 5453,
      "chaos": 5454,
      "structive": 5455,
      "shopping": 5456,
      "traditional": 5457,
      "originally": 5458,
      "thompson": 5459,
      "sweden": 5460,
      "thood": 5461,
      "alert": 5462,
      "trouble": 5463,
      "quantum": 5464,
      "surrounding": 5465,
      "duty": 5466,
      "symbol": 5467,
      "segment": 5468,
      "surgeon": 5469,
      "surprising": 5470,
      "deficit": 5471,
      "ignore": 5472,
      "desperate": 5473,
      "struggling": 5474,
      "items": 5475,
      "punish": 5476,
      "enemy": 5477,
      "literally": 5478,
      "fundamental": 5479,
      "macedonia": 5480,
      "shtfplan": 5481,
      "random": 5482,
      "deeper": 5483,
      "permanent": 5484,
      "shepherd": 5485,
      "lucky": 5486,
      "vulgarity": 5487,
      "reputation": 5488,
      "agricult": 5489,
      "spanish": 5490,
      "pregnant": 5491,
      "palestin": 5492,
      "mangione": 5493,
      "overwhelming": 5494,
      "avalanche": 5495,
      "virginia": 5496,
      "bongino": 5497,
      "cctv": 5498,
      "kentucky": 5499,
      "thedailysheeple": 5500,
      ".--": 5501,
      "41": 5502,
      "53": 5503,
      "62": 5504,
      "?”": 5505,
      "bia": 5506,
      "bought": 5507,
      "cm": 5508,
      "cens": 5509,
      "cable": 5510,
      "cade": 5511,
      "dar": 5512,
      "dad": 5513,
      "dress": 5514,
      "dling": 5515,
      "eat": 5516,
      "egg": 5517,
      "emotions": 5518,
      "fd": 5519,
      "fought": 5520,
      "gor": 5521,
      "gro": 5522,
      "kman": 5523,
      "lend": 5524,
      "laugh": 5525,
      "mou": 5526,
      "morgan": 5527,
      "phe": 5528,
      "pap": 5529,
      "pine": 5530,
      "rou": 5531,
      "ses": 5532,
      "slo": 5533,
      "sess": 5534,
      "session": 5535,
      "tw": 5536,
      "tan": 5537,
      "tort": 5538,
      "tts": 5539,
      "tail": 5540,
      "tates": 5541,
      "tik": 5542,
      "ule": 5543,
      "vies": 5544,
      "wan": 5545,
      "zos": 5546,
      "ána": 5547,
      "throw": 5548,
      "inev": 5549,
      "inations": 5550,
      "instruction": 5551,
      "anor": 5552,
      "anne": 5553,
      "rep": 5554,
      "recover": 5555,
      "atmo": 5556,
      "enger": 5557,
      "alf": 5558,
      "island": 5559,
      "tok": 5560,
      "arity": 5561,
      "icop": 5562,
      "icting": 5563,
      "sem": 5564,
      "enty": 5565,
      "entional": 5566,
      "bear": 5567,
      "iled": 5568,
      "chose": 5569,
      "dea": 5570,
      "dean": 5571,
      "weight": 5572,
      "wearing": 5573,
      "versy": 5574,
      "tribut": 5575,
      "irt": 5576,
      "context": 5577,
      "consult": 5578,
      "agrees": 5579,
      "uran": 5580,
      "kevin": 5581,
      "pocke": 5582,
      "proposed": 5583,
      "opponents": 5584,
      "alled": 5585,
      "gown": 5586,
      "dot": 5587,
      "dodi": 5588,
      "ifying": 5589,
      "melt": 5590,
      "merely": 5591,
      "pron": 5592,
      "pricing": 5593,
      "plenty": 5594,
      "acts": 5595,
      "clark": 5596,
      "20th": 5597,
      "craz": 5598,
      "endors": 5599,
      "portion": 5600,
      "portug": 5601,
      "hot": 5602,
      "ques": 5603,
      "ause": 5604,
      "eline": 5605,
      "eval": 5606,
      "parton": 5607,
      "newly": 5608,
      "marine": 5609,
      "spain": 5610,
      "sphere": 5611,
      "permission": 5612,
      "bright": 5613,
      "anybody": 5614,
      "disput": 5615,
      "asser": 5616,
      "scar": 5617,
      "formed": 5618,
      "ibed": 5619,
      "ibers": 5620,
      "intention": 5621,
      "myth": 5622,
      "donors": 5623,
      "aviation": 5624,
      "flour": 5625,
      "object": 5626,
      "dry": 5627,
      "nationally": 5628,
      "adequ": 5629,
      "channels": 5630,
      "supports": 5631,
      "choices": 5632,
      "raids": 5633,
      "carn": 5634,
      "carter": 5635,
      "politically": 5636,
      "bubble": 5637,
      "signal": 5638,
      "define": 5639,
      "personally": 5640,
      "owner": 5641,
      "followers": 5642,
      "tonight": 5643,
      "consent": 5644,
      "diaries": 5645,
      "departure": 5646,
      "insight": 5647,
      "insider": 5648,
      "valid": 5649,
      "missiles": 5650,
      "mitig": 5651,
      "starts": 5652,
      "deals": 5653,
      "starred": 5654,
      "numerous": 5655,
      "aimed": 5656,
      "begins": 5657,
      "vene": 5658,
      "harsh": 5659,
      "rug": 5660,
      "rubio": 5661,
      "stell": 5662,
      "controversy": 5663,
      "violation": 5664,
      "affil": 5665,
      "viruses": 5666,
      "barrel": 5667,
      "barbar": 5668,
      "findings": 5669,
      "privile": 5670,
      "golden": 5671,
      "critics": 5672,
      "passing": 5673,
      "patient": 5674,
      "mainstream": 5675,
      "stephen": 5676,
      "kov": 5677,
      "depth": 5678,
      "technological": 5679,
      "classic": 5680,
      "commenting": 5681,
      "grew": 5682,
      "holes": 5683,
      "approxim": 5684,
      "collision": 5685,
      "grounds": 5686,
      "accountable": 5687,
      "discussions": 5688,
      "civilians": 5689,
      "hitler": 5690,
      "domin": 5691,
      "recovery": 5692,
      "locate": 5693,
      "locations": 5694,
      "interviewed": 5695,
      "lined": 5696,
      "conventional": 5697,
      "advisor": 5698,
      "advisory": 5699,
      "continuing": 5700,
      "emerging": 5701,
      "skies": 5702,
      "entertain": 5703,
      "respectful": 5704,
      "journalism": 5705,
      "damaged": 5706,
      "physic": 5707,
      "historic": 5708,
      "friendly": 5709,
      "80s": 5710,
      "painful": 5711,
      "1990": 5712,
      "necessarily": 5713,
      "conclave": 5714,
      "conclusion": 5715,
      "communication": 5716,
      "digest": 5717,
      "training": 5718,
      "popularity": 5719,
      "boots": 5720,
      "argue": 5721,
      "features": 5722,
      "featured": 5723,
      "referred": 5724,
      "checking": 5725,
      "mobility": 5726,
      "clinical": 5727,
      "partnership": 5728,
      "experiencing": 5729,
      "candidates": 5730,
      "cardinal": 5731,
      "mascul": 5732,
      "hanging": 5733,
      "worthy": 5734,
      "trips": 5735,
      "empire": 5736,
      "affordable": 5737,
      "survival": 5738,
      "1989": 5739,
      "negotiating": 5740,
      "integrated": 5741,
      "hurt": 5742,
      "vulner": 5743,
      "oscar": 5744,
      "accepted": 5745,
      "libyan": 5746,
      "deployment": 5747,
      "trigger": 5748,
      "pilot": 5749,
      "sample": 5750,
      "frequently": 5751,
      "hiro": 5752,
      "proceedings": 5753,
      "estimates": 5754,
      "========": 5755,
      "rapidly": 5756,
      "thomas": 5757,
      "acknowledge": 5758,
      "briskman": 5759,
      "swedish": 5760,
      "evolution": 5761,
      "collective": 5762,
      "participate": 5763,
      "behaviour": 5764,
      "gallery": 5765,
      "inspectors": 5766,
      "models": 5767,
      "copyright": 5768,
      "yawning": 5769,
      "preserve": 5770,
      "diagnosed": 5771,
      "cycling": 5772,
      "plastic": 5773,
      "registering": 5774,
      "consequences": 5775,
      "opioid": 5776,
      "broadcaster": 5777,
      "isolated": 5778,
      "subsequent": 5779,
      "motivated": 5780,
      "precisely": 5781,
      "circumstances": 5782,
      "catalyst": 5783,
      "therapy": 5784,
      "discrimination": 5785,
      "phase": 5786,
      "sabot": 5787,
      "astronom": 5788,
      "nutrition": 5789,
      "narrative": 5790,
      "commodities": 5791,
      "perspective": 5792,
      "magazine": 5793,
      "satanic": 5794,
      "semitism": 5795,
      "immune": 5796,
      "compatible": 5797,
      "tiktok": 5798,
      "inevit": 5799,
      "dodik": 5800,
      "portugal": 5801,
      "approximately": 5802,
      "\"[": 5803,
      ".’": 5804,
      "600": 5805,
      "700": 5806,
      "83": 5807,
      "aqu": 5808,
      "bin": 5809,
      "bing": 5810,
      "bes": 5811,
      "buk": 5812,
      "brow": 5813,
      "bino": 5814,
      "cb": 5815,
      "cad": 5816,
      "catch": 5817,
      "df": 5818,
      "doug": 5819,
      "eld": 5820,
      "gan": 5821,
      "hr": 5822,
      "hide": 5823,
      "jen": 5824,
      "jac": 5825,
      "jay": 5826,
      "kne": 5827,
      "krist": 5828,
      "lare": 5829,
      "ligh": 5830,
      "mail": 5831,
      "nar": 5832,
      "nick": 5833,
      "ost": 5834,
      "oreg": 5835,
      "rout": 5836,
      "rip": 5837,
      "rail": 5838,
      "sion": 5839,
      "slog": 5840,
      "tack": 5841,
      "uct": 5842,
      "uous": 5843,
      "ugu": 5844,
      "vation": 5845,
      "wis": 5846,
      "wid": 5847,
      "za": 5848,
      "zok": 5849,
      "inaug": 5850,
      "thetic": 5851,
      "ano": 5852,
      "recalled": 5853,
      "ener": 5854,
      "enab": 5855,
      "enko": 5856,
      "enomen": 5857,
      "stag": 5858,
      "ali": 5859,
      "alco": 5860,
      "editor": 5861,
      "asset": 5862,
      "lee": 5863,
      "seat": 5864,
      "seas": 5865,
      "sept": 5866,
      "entre": 5867,
      "acles": 5868,
      "bezos": 5869,
      "iling": 5870,
      "veget": 5871,
      "ada": 5872,
      "rosen": 5873,
      "roths": 5874,
      "chi": 5875,
      "ching": 5876,
      "chris": 5877,
      "champ": 5878,
      "defeat": 5879,
      "debris": 5880,
      "usd": 5881,
      "imper": 5882,
      "iments": 5883,
      "imprison": 5884,
      "verify": 5885,
      "vermont": 5886,
      "traged": 5887,
      "unusual": 5888,
      "uted": 5889,
      "resil": 5890,
      "resident": 5891,
      "arest": 5892,
      "agious": 5893,
      "urban": 5894,
      "wik": 5895,
      "comfor": 5896,
      "compe": 5897,
      "complic": 5898,
      "comfort": 5899,
      "compromise": 5900,
      "compreh": 5901,
      "umin": 5902,
      "abad": 5903,
      "abroad": 5904,
      "hai": 5905,
      "hair": 5906,
      "powell": 5907,
      "sures": 5908,
      "oph": 5909,
      "opted": 5910,
      "gear": 5911,
      "fewer": 5912,
      "excer": 5913,
      "excess": 5914,
      "goals": 5915,
      "htenberg": 5916,
      "saved": 5917,
      "ifts": 5918,
      "shang": 5919,
      "megh": 5920,
      "artific": 5921,
      "prize": 5922,
      "manner": 5923,
      "managed": 5924,
      "antly": 5925,
      "ivity": 5926,
      "crony": 5927,
      "crises": 5928,
      "covery": 5929,
      "cooperation": 5930,
      "portugu": 5931,
      "acking": 5932,
      "holy": 5933,
      "lla": 5934,
      "cann": 5935,
      "auction": 5936,
      "cked": 5937,
      "indict": 5938,
      "blamed": 5939,
      "fool": 5940,
      "grid": 5941,
      "grants": 5942,
      "identify": 5943,
      "marie": 5944,
      "married": 5945,
      "spaces": 5946,
      "persec": 5947,
      "bron": 5948,
      "brings": 5949,
      "berger": 5950,
      "answers": 5951,
      "strict": 5952,
      "strzok": 5953,
      "anywhere": 5954,
      "diseas": 5955,
      "discovery": 5956,
      "rainfall": 5957,
      "contagious": 5958,
      "centres": 5959,
      "prefer": 5960,
      "ached": 5961,
      "warner": 5962,
      "iban": 5963,
      "governance": 5964,
      "thanked": 5965,
      "aved": 5966,
      "underground": 5967,
      "undermine": 5968,
      "backs": 5969,
      "europeans": 5970,
      "legit": 5971,
      "interactions": 5972,
      "searched": 5973,
      "incar": 5974,
      "desc": 5975,
      "versus": 5976,
      "thinks": 5977,
      "talked": 5978,
      "max": 5979,
      "mahon": 5980,
      "supportive": 5981,
      "merkel": 5982,
      "investor": 5983,
      "anna": 5984,
      "anny": 5985,
      "courage": 5986,
      "chosen": 5987,
      "raising": 5988,
      "carpet": 5989,
      "phenomen": 5990,
      "intel": 5991,
      "intest": 5992,
      "jewish": 5993,
      "folks": 5994,
      "signing": 5995,
      "defending": 5996,
      "gesture": 5997,
      "baltic": 5998,
      "producers": 5999,
      "securities": 6000,
      "broken": 6001,
      "tenance": 6002,
      "farms": 6003,
      "taran": 6004,
      "lessly": 6005,
      "lessons": 6006,
      "risen": 6007,
      "risks": 6008,
      "founded": 6009,
      "substant": 6010,
      "subsid": 6011,
      "dealing": 6012,
      "fermented": 6013,
      "excell": 6014,
      "2007": 6015,
      "2009": 6016,
      "corner": 6017,
      "correspond": 6018,
      "communist": 6019,
      "transition": 6020,
      "transgender": 6021,
      "transatlantic": 6022,
      "authoritarian": 6023,
      "rosslare": 6024,
      "magick": 6025,
      "prompted": 6026,
      "ranking": 6027,
      "contrary": 6028,
      "begun": 6029,
      "simpson": 6030,
      "livestock": 6031,
      "listed": 6032,
      "seconds": 6033,
      "spacecraft": 6034,
      "bars": 6035,
      "payments": 6036,
      "programmes": 6037,
      "congressman": 6038,
      "traders": 6039,
      "solutions": 6040,
      "christie": 6041,
      "christians": 6042,
      "facilit": 6043,
      "passenger": 6044,
      "plaintiff": 6045,
      "mainly": 6046,
      "maintenance": 6047,
      "threatened": 6048,
      "donegal": 6049,
      "destabil": 6050,
      "breakthrough": 6051,
      "recording": 6052,
      "strongly": 6053,
      "describe": 6054,
      "drove": 6055,
      "turkey": 6056,
      "parenthood": 6057,
      "johnson": 6058,
      "johnston": 6059,
      "discussed": 6060,
      "suffic": 6061,
      "responses": 6062,
      "180": 6063,
      "2598": 6064,
      "journey": 6065,
      "richard": 6066,
      "rooms": 6067,
      "representing": 6068,
      "representatives": 6069,
      "regulations": 6070,
      "confirms": 6071,
      "prisoner": 6072,
      "declaring": 6073,
      "declined": 6074,
      "reserved": 6075,
      "arrests": 6076,
      "contacted": 6077,
      "earthquake": 6078,
      "salary": 6079,
      "wealthiest": 6080,
      "doub": 6081,
      "flows": 6082,
      "flowing": 6083,
      "coastal": 6084,
      "raped": 6085,
      "michel": 6086,
      "protesters": 6087,
      "combined": 6088,
      "strategic": 6089,
      "strategies": 6090,
      "broader": 6091,
      "broadly": 6092,
      "demanded": 6093,
      "trained": 6094,
      "hoped": 6095,
      "typical": 6096,
      "contains": 6097,
      "burning": 6098,
      "revenues": 6099,
      "colleagues": 6100,
      "celebrate": 6101,
      "horr": 6102,
      "shape": 6103,
      "appearance": 6104,
      "documentary": 6105,
      "racist": 6106,
      "client": 6107,
      "definitely": 6108,
      "progressive": 6109,
      "pull": 6110,
      "languages": 6111,
      "platforms": 6112,
      "predictable": 6113,
      "warnings": 6114,
      "customer": 6115,
      "traffic": 6116,
      "competition": 6117,
      "competitive": 6118,
      "integration": 6119,
      "briefing": 6120,
      "assessment": 6121,
      "catastro": 6122,
      "rambuk": 6123,
      "accommod": 6124,
      "acquis": 6125,
      "implementation": 6126,
      "prophe": 6127,
      "opinions": 6128,
      "spokesman": 6129,
      "dimin": 6130,
      "animal": 6131,
      "columbia": 6132,
      "install": 6133,
      "efficient": 6134,
      "engineers": 6135,
      "consistently": 6136,
      "academy": 6137,
      "relief": 6138,
      "sustainable": 6139,
      "transformation": 6140,
      "labour": 6141,
      "urgent": 6142,
      "prescription": 6143,
      "bottom": 6144,
      "valuable": 6145,
      "pledged": 6146,
      "temperatures": 6147,
      "tensions": 6148,
      "mannheim": 6149,
      "satellite": 6150,
      "fiery": 6151,
      "infectious": 6152,
      "tools": 6153,
      "coordination": 6154,
      "screen": 6155,
      "collaboration": 6156,
      "slightly": 6157,
      "atomic": 6158,
      "trachtenberg": 6159,
      "pearl": 6160,
      "rescue": 6161,
      "achieved": 6162,
      "invaded": 6163,
      "kashmir": 6164,
      "praised": 6165,
      "restaurants": 6166,
      "farmers": 6167,
      "analysts": 6168,
      "influencers": 6169,
      "jersey": 6170,
      "taxpayers": 6171,
      "pattern": 6172,
      "rté": 6173,
      "marxist": 6174,
      "casualties": 6175,
      "etfs": 6176,
      "danielle": 6177,
      "exploring": 6178,
      "exercise": 6179,
      "extinction": 6180,
      "looming": 6181,
      "marriage": 6182,
      "spectrum": 6183,
      "mouth": 6184,
      "oregon": 6185,
      "alcohol": 6186,
      "rothschild": 6187,
      "shanghai": 6188,
      "meghan": 6189,
      "portuguese": 6190,
      "diseases": 6191,
      "sufficient": 6192,
      "rambukk": 6193,
      "!\"": 6194,
      "!”": 6195,
      "64": 6196,
      "74": 6197,
      "82": 6198,
      "athen": 6199,
      "bic": 6200,
      "bare": 6201,
      "bage": 6202,
      "bible": 6203,
      "batter": 6204,
      "dump": 6205,
      "estate": 6206,
      "eating": 6207,
      "fuk": 6208,
      "gno": 6209,
      "gop": 6210,
      "gary": 6211,
      "glad": 6212,
      "gbt": 6213,
      "golf": 6214,
      "iary": 6215,
      "jr": 6216,
      "jose": 6217,
      "jones": 6218,
      "kur": 6219,
      "lion": 6220,
      "lgbt": 6221,
      "mau": 6222,
      "nabil": 6223,
      "oy": 6224,
      "pand": 6225,
      "pier": 6226,
      "picked": 6227,
      "pension": 6228,
      "rhe": 6229,
      "rig": 6230,
      "rant": 6231,
      "rival": 6232,
      "sli": 6233,
      "sons": 6234,
      "snia": 6235,
      "smyth": 6236,
      "till": 6237,
      "tall": 6238,
      "tie": 6239,
      "tree": 6240,
      "tied": 6241,
      "tics": 6242,
      "ua": 6243,
      "uro": 6244,
      "vous": 6245,
      "xford": 6246,
      "ypt": 6247,
      "zen": 6248,
      "inches": 6249,
      "thes": 6250,
      "anth": 6251,
      "anony": 6252,
      "rein": 6253,
      "remy": 6254,
      "recall": 6255,
      "refin": 6256,
      "recess": 6257,
      "relying": 6258,
      "erik": 6259,
      "ati": 6260,
      "stability": 6261,
      "orbit": 6262,
      "alt": 6263,
      "alber": 6264,
      "alys": 6265,
      "iser": 6266,
      "toy": 6267,
      "tose": 6268,
      "toms": 6269,
      "itium": 6270,
      "sets": 6271,
      "sebi": 6272,
      "adjust": 6273,
      "admit": 6274,
      "idu": 6275,
      "cher": 6276,
      "forget": 6277,
      "whol": 6278,
      "deple": 6279,
      "loving": 6280,
      "ushim": 6281,
      "usda": 6282,
      "iger": 6283,
      "igue": 6284,
      "igration": 6285,
      "ambit": 6286,
      "implo": 6287,
      "immun": 6288,
      "tray": 6289,
      "tritium": 6290,
      "oland": 6291,
      "oline": 6292,
      "peak": 6293,
      "unle": 6294,
      "unemployment": 6295,
      "uting": 6296,
      "utter": 6297,
      "agu": 6298,
      "ura": 6299,
      "urged": 6300,
      "comed": 6301,
      "lith": 6302,
      "liers": 6303,
      "likes": 6304,
      "umer": 6305,
      "wash": 6306,
      "ours": 6307,
      "powered": 6308,
      "proto": 6309,
      "prosp": 6310,
      "proponents": 6311,
      "progno": 6312,
      "outs": 6313,
      "soil": 6314,
      "export": 6315,
      "aps": 6316,
      "apol": 6317,
      "noting": 6318,
      "shed": 6319,
      "shops": 6320,
      "ivo": 6321,
      "cow": 6322,
      "llen": 6323,
      "dayla": 6324,
      "upcoming": 6325,
      "bosnia": 6326,
      "blaz": 6327,
      "iana": 6328,
      "ardous": 6329,
      "grab": 6330,
      "spd": 6331,
      "spat": 6332,
      "inee": 6333,
      "somehow": 6334,
      "polling": 6335,
      "shel": 6336,
      "sheer": 6337,
      "mini": 6338,
      "strain": 6339,
      "awak": 6340,
      "ippi": 6341,
      "secured": 6342,
      "dissent": 6343,
      "disrespectful": 6344,
      "assur": 6345,
      "presidents": 6346,
      "ishing": 6347,
      "afterwards": 6348,
      "centers": 6349,
      "warming": 6350,
      "izes": 6351,
      "dub": 6352,
      "command": 6353,
      "estimate": 6354,
      "drama": 6355,
      "symp": 6356,
      "gue": 6357,
      "attending": 6358,
      "reads": 6359,
      "voting": 6360,
      "finland": 6361,
      "issippi": 6362,
      "seless": 6363,
      "blocks": 6364,
      "bannon": 6365,
      "lasted": 6366,
      "visited": 6367,
      "changing": 6368,
      "longs": 6369,
      "longing": 6370,
      "helicop": 6371,
      "courts": 6372,
      "coli": 6373,
      "color": 6374,
      "colour": 6375,
      "milk": 6376,
      "rah": 6377,
      "parks": 6378,
      "parole": 6379,
      "elect": 6380,
      "highs": 6381,
      "labe": 6382,
      "1970": 6383,
      "factor": 6384,
      "jeremy": 6385,
      "logically": 6386,
      "realized": 6387,
      "invent": 6388,
      "amazon": 6389,
      "producer": 6390,
      "engaged": 6391,
      "engagement": 6392,
      "bigger": 6393,
      "viewed": 6394,
      "chartered": 6395,
      "operate": 6396,
      "appearing": 6397,
      "appealed": 6398,
      "breach": 6399,
      "caution": 6400,
      "tarrio": 6401,
      "chest": 6402,
      "missouri": 6403,
      "mississippi": 6404,
      "posting": 6405,
      "2005": 6406,
      "extended": 6407,
      "testified": 6408,
      "terrace": 6409,
      "terrible": 6410,
      "territor": 6411,
      "harass": 6412,
      "harry": 6413,
      "stein": 6414,
      "topics": 6415,
      "violated": 6416,
      "informed": 6417,
      "campus": 6418,
      "winners": 6419,
      "firefighters": 6420,
      "handled": 6421,
      "handling": 6422,
      "player": 6423,
      "disturb": 6424,
      "matar": 6425,
      "cyc": 6426,
      "financially": 6427,
      "humanitarian": 6428,
      "singer": 6429,
      "detent": 6430,
      "facility": 6431,
      "goldman": 6432,
      "carefully": 6433,
      "organised": 6434,
      "organized": 6435,
      "naz": 6436,
      "sexually": 6437,
      "requiring": 6438,
      "devil": 6439,
      "suggesting": 6440,
      "classes": 6441,
      "succeed": 6442,
      "examples": 6443,
      "universal": 6444,
      "increases": 6445,
      "dropping": 6446,
      "analyses": 6447,
      "returns": 6448,
      "accessible": 6449,
      "petrole": 6450,
      "behalf": 6451,
      "differently": 6452,
      "attempts": 6453,
      "advice": 6454,
      "explaining": 6455,
      "fallen": 6456,
      "hitting": 6457,
      "criminals": 6458,
      "extremist": 6459,
      "vaccination": 6460,
      "vaccinated": 6461,
      "wordpress": 6462,
      "syrian": 6463,
      "coastguard": 6464,
      "raping": 6465,
      "environments": 6466,
      "thousand": 6467,
      "resulting": 6468,
      "elsewhere": 6469,
      "1992": 6470,
      "faster": 6471,
      "expressing": 6472,
      "combination": 6473,
      "ffy": 6474,
      "demanding": 6475,
      "precious": 6476,
      "resigned": 6477,
      "football": 6478,
      "iii": 6479,
      "falsehood": 6480,
      "properly": 6481,
      "properties": 6482,
      "observed": 6483,
      "clinics": 6484,
      "indicted": 6485,
      "deported": 6486,
      "fluid": 6487,
      "nominee": 6488,
      "restrain": 6489,
      "mounted": 6490,
      "wilkin": 6491,
      "joining": 6492,
      "naval": 6493,
      "weapon": 6494,
      "maintaining": 6495,
      "sorry": 6496,
      "iranian": 6497,
      "exciting": 6498,
      "drawing": 6499,
      "hurric": 6500,
      "miracle": 6501,
      "resolve": 6502,
      "african": 6503,
      "burns": 6504,
      "victor": 6505,
      "assem": 6506,
      "cryptocurrencies": 6507,
      "speeding": 6508,
      "refugee": 6509,
      "industries": 6510,
      "cameras": 6511,
      "planted": 6512,
      "suspicious": 6513,
      "pipe": 6514,
      "scenar": 6515,
      "accurately": 6516,
      "neighbours": 6517,
      "philos": 6518,
      "sacrif": 6519,
      "supplies": 6520,
      "motorcade": 6521,
      "applied": 6522,
      "delayed": 6523,
      "rocket": 6524,
      "memorial": 6525,
      "muslims": 6526,
      "behavior": 6527,
      "prescribed": 6528,
      "qualities": 6529,
      "granted": 6530,
      "citizenship": 6531,
      "fascism": 6532,
      "gmt": 6533,
      "temperature": 6534,
      "virtual": 6535,
      "satellites": 6536,
      "replacement": 6537,
      "cabinet": 6538,
      "minority": 6539,
      "retaliation": 6540,
      "alexander": 6541,
      "rescued": 6542,
      "extraordinary": 6543,
      "coordinate": 6544,
      "settled": 6545,
      "trauma": 6546,
      "length": 6547,
      "encryption": 6548,
      "veterans": 6549,
      "window": 6550,
      "constituents": 6551,
      "tusla": 6552,
      "outrage": 6553,
      "admits": 6554,
      "hazardous": 6555,
      "appreciate": 6556,
      "explosive": 6557,
      "hidden": 6558,
      "screaming": 6559,
      "maximum": 6560,
      "mortg": 6561,
      "inspired": 6562,
      "preparing": 6563,
      "phrase": 6564,
      "occasion": 6565,
      "satisf": 6566,
      "volunte": 6567,
      "flooding": 6568,
      "manufacturers": 6569,
      "cmsa": 6570,
      "lendman": 6571,
      "sessions": 6572,
      "twice": 6573,
      "anora": 6574,
      "uranium": 6575,
      "pronoun": 6576,
      "adequate": 6577,
      "sabotage": 6578,
      "cbd": 6579,
      "inauguration": 6580,
      "imprisonment": 6581,
      "cannab": 6582,
      "indictment": 6583,
      "intellect": 6584,
      "plaintiffs": 6585,
      "rambukkana": 6586,
      "fukushim": 6587,
      "nabila": 6588,
      "alberta": 6589,
      "prognosis": 6590,
      "symptoms": 6591,
      "petroleum": 6592,
      "sacrifice": 6593,
      "fukushima": 6594,
      "46": 6595,
      "54": 6596,
      "8m": 6597,
      "91": 6598,
      "ares": 6599,
      "aeda": 6600,
      "bat": 6601,
      "bold": 6602,
      "bread": 6603,
      "cin": 6604,
      "cort": 6605,
      "cree": 6606,
      "cence": 6607,
      "dur": 6608,
      "dirty": 6609,
      "fan": 6610,
      "fis": 6611,
      "fab": 6612,
      "fusion": 6613,
      "fda": 6614,
      "gus": 6615,
      "gut": 6616,
      "gers": 6617,
      "ggle": 6618,
      "gifts": 6619,
      "hes": 6620,
      "hong": 6621,
      "hike": 6622,
      "hedge": 6623,
      "iar": 6624,
      "kiev": 6625,
      "mchu": 6626,
      "nr": 6627,
      "nur": 6628,
      "nitude": 6629,
      "ow": 6630,
      "oth": 6631,
      "pin": 6632,
      "pou": 6633,
      "pas": 6634,
      "pill": 6635,
      "pard": 6636,
      "pending": 6637,
      "qe": 6638,
      "qaeda": 6639,
      "rom": 6640,
      "rus": 6641,
      "rab": 6642,
      "rink": 6643,
      "rivers": 6644,
      "riot": 6645,
      "smu": 6646,
      "skill": 6647,
      "scept": 6648,
      "tc": 6649,
      "tp": 6650,
      "tread": 6651,
      "trem": 6652,
      "twent": 6653,
      "uated": 6654,
      "uine": 6655,
      "vial": 6656,
      "vine": 6657,
      "vsun": 6658,
      "wk": 6659,
      "wol": 6660,
      "waves": 6661,
      "zo": 6662,
      "üller": 6663,
      "inne": 6664,
      "incent": 6665,
      "insecure": 6666,
      "injury": 6667,
      "inhab": 6668,
      "inherent": 6669,
      "theme": 6670,
      "rey": 6671,
      "rection": 6672,
      "reward": 6673,
      "recalls": 6674,
      "onium": 6675,
      "err": 6676,
      "orient": 6677,
      "alive": 6678,
      "alarm": 6679,
      "ingred": 6680,
      "toys": 6681,
      "arak": 6682,
      "itz": 6683,
      "itens": 6684,
      "itical": 6685,
      "itted": 6686,
      "icut": 6687,
      "omin": 6688,
      "sections": 6689,
      "sewage": 6690,
      "entle": 6691,
      "acid": 6692,
      "betsy": 6693,
      "vet": 6694,
      "ads": 6695,
      "adopt": 6696,
      "adults": 6697,
      "idering": 6698,
      "robo": 6699,
      "chap": 6700,
      "chlor": 6701,
      "charest": 6702,
      "forgiven": 6703,
      "lymp": 6704,
      "whca": 6705,
      "deem": 6706,
      "decess": 6707,
      "delight": 6708,
      "degre": 6709,
      "detained": 6710,
      "wegm": 6711,
      "aming": 6712,
      "imes": 6713,
      "impress": 6714,
      "ays": 6715,
      "verdict": 6716,
      "tri": 6717,
      "tristan": 6718,
      "pelos": 6719,
      "unde": 6720,
      "confront": 6721,
      "consul": 6722,
      "residence": 6723,
      "respected": 6724,
      "agging": 6725,
      "urge": 6726,
      "uries": 6727,
      "urally": 6728,
      "moso": 6729,
      "moore": 6730,
      "movies": 6731,
      "lia": 6732,
      "lived": 6733,
      "umes": 6734,
      "abund": 6735,
      "fracking": 6736,
      "provoc": 6737,
      "outed": 6738,
      "outgoing": 6739,
      "sula": 6740,
      "opedia": 6741,
      "gel": 6742,
      "sole": 6743,
      "sovsun": 6744,
      "sax": 6745,
      "apt": 6746,
      "apper": 6747,
      "apple": 6748,
      "notably": 6749,
      "noticed": 6750,
      "shire": 6751,
      "shrink": 6752,
      "mani": 6753,
      "iales": 6754,
      "actively": 6755,
      "astic": 6756,
      "cope": 6757,
      "cook": 6758,
      "affirm": 6759,
      "afflu": 6760,
      "affection": 6761,
      "yellow": 6762,
      "quit": 6763,
      "quinde": 6764,
      "embass": 6765,
      "derail": 6766,
      "upper": 6767,
      "evac": 6768,
      "aka": 6769,
      "timmerman": 6770,
      "bles": 6771,
      "blatter": 6772,
      "iano": 6773,
      "render": 6774,
      "marco": 6775,
      "marines": 6776,
      "perpet": 6777,
      "somewhat": 6778,
      "nowhere": 6779,
      "ensions": 6780,
      "hermoso": 6781,
      "counts": 6782,
      "odd": 6783,
      "odes": 6784,
      "udes": 6785,
      "ignoring": 6786,
      "strands": 6787,
      "oversight": 6788,
      "displaced": 6789,
      "dismissed": 6790,
      "contents": 6791,
      "formal": 6792,
      "serb": 6793,
      "predecess": 6794,
      "accord": 6795,
      "accusing": 6796,
      "medium": 6797,
      "justin": 6798,
      "woke": 6799,
      "gery": 6800,
      "posing": 6801,
      "governmental": 6802,
      "flaw": 6803,
      "obst": 6804,
      "draf": 6805,
      "retire": 6806,
      "compon": 6807,
      "attle": 6808,
      "shots": 6809,
      "legacy": 6810,
      "wanting": 6811,
      "sels": 6812,
      "inclusion": 6813,
      "cery": 6814,
      "taliban": 6815,
      "genuine": 6816,
      "everyday": 6817,
      "everywhere": 6818,
      "marketupdates": 6819,
      "lawless": 6820,
      "annigan": 6821,
      "decima": 6822,
      "choos": 6823,
      "colon": 6824,
      "surf": 6825,
      "element": 6826,
      "newsom": 6827,
      "memory": 6828,
      "calm": 6829,
      "buel": 6830,
      "bucharest": 6831,
      "stockopedia": 6832,
      "northeast": 6833,
      "realm": 6834,
      "balancing": 6835,
      "ifications": 6836,
      "ashing": 6837,
      "ashman": 6838,
      "shoulder": 6839,
      "considering": 6840,
      "operates": 6841,
      "breast": 6842,
      "tennes": 6843,
      "economies": 6844,
      "mitr": 6845,
      "profiles": 6846,
      "2002": 6847,
      "2004": 6848,
      "freely": 6849,
      "freeman": 6850,
      "struggle": 6851,
      "nervous": 6852,
      "tests": 6853,
      "tested": 6854,
      "transactions": 6855,
      "authorized": 6856,
      "magnetic": 6857,
      "magnitude": 6858,
      "rank": 6859,
      "ranging": 6860,
      "venka": 6861,
      "studied": 6862,
      "rude": 6863,
      "steep": 6864,
      "controls": 6865,
      "southeast": 6866,
      "violate": 6867,
      "violations": 6868,
      "possession": 6869,
      "nevertheless": 6870,
      "openly": 6871,
      "listening": 6872,
      "arenas": 6873,
      "legalize": 6874,
      "payback": 6875,
      "visiting": 6876,
      "privacy": 6877,
      "seemingly": 6878,
      "humanity": 6879,
      "books": 6880,
      "meetings": 6881,
      "smart": 6882,
      "midt": 6883,
      "midst": 6884,
      "passports": 6885,
      "greeks": 6886,
      "sentences": 6887,
      "sentiment": 6888,
      "hub": 6889,
      "naidu": 6890,
      "stepping": 6891,
      "alleging": 6892,
      "claiming": 6893,
      "understands": 6894,
      "filming": 6895,
      "destag": 6896,
      "schmidt": 6897,
      "judg": 6898,
      "processes": 6899,
      "examine": 6900,
      "failing": 6901,
      "greitens": 6902,
      "counterpart": 6903,
      "generations": 6904,
      "petro": 6905,
      "accounting": 6906,
      "demands": 6907,
      "confusion": 6908,
      "attempting": 6909,
      "billions": 6910,
      "volcan": 6911,
      "volume": 6912,
      "roads": 6913,
      "fundra": 6914,
      "falling": 6915,
      "murphy": 6916,
      "motive": 6917,
      "deadline": 6918,
      "liberals": 6919,
      "buildings": 6920,
      "crystal": 6921,
      "prisoners": 6922,
      "reservo": 6923,
      "emerged": 6924,
      "diplomat": 6925,
      "fairness": 6926,
      "conflicts": 6927,
      "contacts": 6928,
      "hopefully": 6929,
      "skin": 6930,
      "dependent": 6931,
      "60s": 6932,
      "aska": 6933,
      "familiar": 6934,
      "copper": 6935,
      "copblock": 6936,
      "swamp": 6937,
      "requested": 6938,
      "mothers": 6939,
      "historian": 6940,
      "addressed": 6941,
      "garbage": 6942,
      "activists": 6943,
      "influential": 6944,
      "independents": 6945,
      "expecting": 6946,
      "hostile": 6947,
      "negotiate": 6948,
      "explore": 6949,
      "exploit": 6950,
      "approached": 6951,
      "naturalnews": 6952,
      "recognised": 6953,
      "forecasts": 6954,
      "relationships": 6955,
      "priorities": 6956,
      "crowded": 6957,
      "bidding": 6958,
      "deportations": 6959,
      "willi": 6960,
      "defined": 6961,
      "definition": 6962,
      "crossed": 6963,
      "crossing": 6964,
      "hypo": 6965,
      "navy": 6966,
      "improvement": 6967,
      "neighbors": 6968,
      "surviv": 6969,
      "touched": 6970,
      "ridge": 6971,
      "stressed": 6972,
      "appointment": 6973,
      "chemist": 6974,
      "afraid": 6975,
      "burned": 6976,
      "implemented": 6977,
      "targeting": 6978,
      "cryptocurrency": 6979,
      "vehicles": 6980,
      "essentially": 6981,
      "tesla": 6982,
      "proposals": 6983,
      "fifa": 6984,
      "deployed": 6985,
      "beaches": 6986,
      "alkonium": 6987,
      "connecting": 6988,
      "connecticut": 6989,
      "sacred": 6990,
      "quarters": 6991,
      "holidays": 6992,
      "xxxxxxxxxxxxxxxxxxxxxxxxxxxxxxxx": 6993,
      "australian": 6994,
      "reviving": 6995,
      "robin": 6996,
      "robust": 6997,
      "liquidity": 6998,
      "captures": 6999,
      "limitations": 7000,
      "surrounded": 7001,
      "duties": 7002,
      "rolls": 7003,
      "ethnic": 7004,
      "cooperate": 7005,
      "regularly": 7006,
      "surprised": 7007,
      "eliminate": 7008,
      "jamming": 7009,
      "sailor": 7010,
      "sailing": 7011,
      "manipulation": 7012,
      "fierce": 7013,
      "ammoland": 7014,
      "coordinated": 7015,
      "minimum": 7016,
      "angelus": 7017,
      "navigation": 7018,
      "laboratory": 7019,
      "frustrated": 7020,
      "rubiales": 7021,
      "expanded": 7022,
      "photographs": 7023,
      "electricity": 7024,
      "procedures": 7025,
      "paralle": 7026,
      "instrument": 7027,
      "instruments": 7028,
      "innocent": 7029,
      "telescop": 7030,
      "contamination": 7031,
      "tyranny": 7032,
      "dynamics": 7033,
      "benzalkonium": 7034,
      "bundestag": 7035,
      "shadow": 7036,
      "360marketupdates": 7037,
      "beckons": 7038,
      "prohibition": 7039,
      "legionna": 7040,
      "fertil": 7041,
      "penalty": 7042,
      "sweeping": 7043,
      "automatically": 7044,
      "lactose": 7045,
      "exempt": 7046,
      "accusations": 7047,
      "tropical": 7048,
      "grocery": 7049,
      "tanks": 7050,
      "torture": 7051,
      "atmosphere": 7052,
      "pocket": 7053,
      "meltdown": 7054,
      "crazy": 7055,
      "stellar": 7056,
      "1990s": 7057,
      "masculine": 7058,
      "vulnerable": 7059,
      "slogan": 7060,
      "tackle": 7061,
      "vegetables": 7062,
      "rosenberg": 7063,
      "comfortable": 7064,
      "comprehensive": 7065,
      "intestinal": 7066,
      "accommodation": 7067,
      "athens": 7068,
      "pandemic": 7069,
      "rhetor": 7070,
      "recession": 7071,
      "alyssa": 7072,
      "lithuan": 7073,
      "assurance": 7074,
      "1970s": 7075,
      "hurricane": 7076,
      "mchugh": 7077,
      "smugg": 7078,
      "oriented": 7079,
      "ingredients": 7080,
      "arakawa": 7081,
      "chloride": 7082,
      "degrees": 7083,
      "wegmüller": 7084,
      "pelosi": 7085,
      "confrontation": 7086,
      "quindell": 7087,
      "embassy": 7088,
      "tennessee": 7089,
      "venkaiah": 7090,
      "/?": 7091,
      "03": 7092,
      "07": 7093,
      "120": 7094,
      "2m": 7095,
      "250": 7096,
      "4m": 7097,
      "59": 7098,
      "61": 7099,
      "67": 7100,
      "68": 7101,
      "85": 7102,
      "9m": 7103,
      "].": 7104,
      "aer": 7105,
      "bation": 7106,
      "bbo": 7107,
      "bail": 7108,
      "biz": 7109,
      "bunch": 7110,
      "bhat": 7111,
      "cc": 7112,
      "cs": 7113,
      "cof": 7114,
      "cain": 7115,
      "cord": 7116,
      "cited": 7117,
      "citing": 7118,
      "cider": 7119,
      "dum": 7120,
      "dial": 7121,
      "dust": 7122,
      "dating": 7123,
      "durn": 7124,
      "dale": 7125,
      "dinar": 7126,
      "dinner": 7127,
      "ere": 7128,
      "fa": 7129,
      "fro": 7130,
      "fault": 7131,
      "gaz": 7132,
      "gang": 7133,
      "gastro": 7134,
      "hire": 7135,
      "hence": 7136,
      "iro": 7137,
      "iques": 7138,
      "ji": 7139,
      "jup": 7140,
      "jail": 7141,
      "jason": 7142,
      "kal": 7143,
      "kid": 7144,
      "kim": 7145,
      "kong": 7146,
      "lur": 7147,
      "lau": 7148,
      "mcl": 7149,
      "mud": 7150,
      "mates": 7151,
      "mile": 7152,
      "nag": 7153,
      "pure": 7154,
      "pink": 7155,
      "plead": 7156,
      "pile": 7157,
      "punch": 7158,
      "pause": 7159,
      "raf": 7160,
      "ribut": 7161,
      "spl": 7162,
      "sink": 7163,
      "sided": 7164,
      "tu": 7165,
      "tun": 7166,
      "tab": 7167,
      "tend": 7168,
      "task": 7169,
      "upr": 7170,
      "upl": 7171,
      "va": 7172,
      "wl": 7173,
      "wright": 7174,
      "wins": 7175,
      "wages": 7176,
      "wides": 7177,
      "xl": 7178,
      "xit": 7179,
      "yach": 7180,
      "yuan": 7181,
      "zim": 7182,
      "zones": 7183,
      "ür": 7184,
      "thir": 7185,
      "thum": 7186,
      "thouse": 7187,
      "threw": 7188,
      "iner": 7189,
      "inity": 7190,
      "inary": 7191,
      "inser": 7192,
      "inating": 7193,
      "insult": 7194,
      "inadequate": 7195,
      "thed": 7196,
      "thening": 7197,
      "anch": 7198,
      "recon": 7199,
      "repu": 7200,
      "remark": 7201,
      "resettlement": 7202,
      "republish": 7203,
      "resem": 7204,
      "oned": 7205,
      "oning": 7206,
      "encoun": 7207,
      "enlight": 7208,
      "enzy": 7209,
      "station": 7210,
      "stake": 7211,
      "steven": 7212,
      "stuck": 7213,
      "alpine": 7214,
      "alaska": 7215,
      "issa": 7216,
      "isations": 7217,
      "isms": 7218,
      "toll": 7219,
      "toler": 7220,
      "arma": 7221,
      "arrog": 7222,
      "itt": 7223,
      "levin": 7224,
      "semin": 7225,
      "seeds": 7226,
      "entit": 7227,
      "entities": 7228,
      "acre": 7229,
      "aced": 7230,
      "acute": 7231,
      "accompan": 7232,
      "bered": 7233,
      "bearing": 7234,
      "heat": 7235,
      "heated": 7236,
      "illegally": 7237,
      "vegas": 7238,
      "rodr": 7239,
      "roying": 7240,
      "rotary": 7241,
      "robot": 7242,
      "chy": 7243,
      "chop": 7244,
      "chart": 7245,
      "charts": 7246,
      "chitis": 7247,
      "forcing": 7248,
      "debut": 7249,
      "depos": 7250,
      "depriv": 7251,
      "decept": 7252,
      "destructive": 7253,
      "loy": 7254,
      "usal": 7255,
      "wear": 7256,
      "weren": 7257,
      "weiss": 7258,
      "amble": 7259,
      "imf": 7260,
      "trace": 7261,
      "trib": 7262,
      "ational": 7263,
      "pel": 7264,
      "unpopular": 7265,
      "undocumented": 7266,
      "conspir": 7267,
      "uttar": 7268,
      "nev": 7269,
      "nell": 7270,
      "wire": 7271,
      "kefir": 7272,
      "compete": 7273,
      "mock": 7274,
      "modest": 7275,
      "mosher": 7276,
      "liant": 7277,
      "libr": 7278,
      "aband": 7279,
      "hawk": 7280,
      "poly": 7281,
      "projected": 7282,
      "probation": 7283,
      "outing": 7284,
      "ulating": 7285,
      "sored": 7286,
      "exit": 7287,
      "explan": 7288,
      "istribut": 7289,
      "dod": 7290,
      "doj": 7291,
      "doom": 7292,
      "doctr": 7293,
      "saving": 7294,
      "apers": 7295,
      "appl": 7296,
      "notices": 7297,
      "shif": 7298,
      "shima": 7299,
      "priest": 7300,
      "priced": 7301,
      "manager": 7302,
      "pling": 7303,
      "clar": 7304,
      "crative": 7305,
      "crude": 7306,
      "co2": 7307,
      "coach": 7308,
      "coins": 7309,
      "endous": 7310,
      "endless": 7311,
      "portions": 7312,
      "redistribut": 7313,
      "yeah": 7314,
      "quot": 7315,
      "elph": 7316,
      "boats": 7317,
      "bowen": 7318,
      "timeline": 7319,
      "blum": 7320,
      "wness": 7321,
      "grace": 7322,
      "identity": 7323,
      "ongering": 7324,
      "permitted": 7325,
      "somewhere": 7326,
      "ensity": 7327,
      "counsel": 7328,
      "bru": 7329,
      "brannigan": 7330,
      "odds": 7331,
      "answered": 7332,
      "string": 7333,
      "ipts": 7334,
      "securing": 7335,
      "overview": 7336,
      "overseas": 7337,
      "dish": 7338,
      "disorder": 7339,
      "discover": 7340,
      "disappeared": 7341,
      "disregard": 7342,
      "disrupt": 7343,
      "discount": 7344,
      "scared": 7345,
      "firing": 7346,
      "centuries": 7347,
      "pread": 7348,
      "prene": 7349,
      "monica": 7350,
      "achuse": 7351,
      "warns": 7352,
      "warrant": 7353,
      "meddling": 7354,
      "dual": 7355,
      "fulfill": 7356,
      "obtain": 7357,
      "drone": 7358,
      "retion": 7359,
      "puf": 7360,
      "comply": 7361,
      "compass": 7362,
      "regimes": 7363,
      "guards": 7364,
      "guides": 7365,
      "attached": 7366,
      "shoot": 7367,
      "voy": 7368,
      "voices": 7369,
      "fines": 7370,
      "finished": 7371,
      "descent": 7372,
      "blocked": 7373,
      "banning": 7374,
      "chances": 7375,
      "reluct": 7376,
      "pska": 7377,
      "joins": 7378,
      "provoked": 7379,
      "annul": 7380,
      "decor": 7381,
      "deciding": 7382,
      "cols": 7383,
      "parking": 7384,
      "elector": 7385,
      "laura": 7386,
      "curb": 7387,
      "phones": 7388,
      "pharma": 7389,
      "newsweek": 7390,
      "buzz": 7391,
      "factory": 7392,
      "norm": 7393,
      "norway": 7394,
      "logging": 7395,
      "folk": 7396,
      "defying": 7397,
      "realise": 7398,
      "invitation": 7399,
      "ificate": 7400,
      "clothing": 7401,
      "vibr": 7402,
      "senators": 7403,
      "dias": 7404,
      "diary": 7405,
      "cairo": 7406,
      "economists": 7407,
      "cheaper": 7408,
      "homegrown": 7409,
      "insists": 7410,
      "mitsub": 7411,
      "posterity": 7412,
      "profound": 7413,
      "ferry": 7414,
      "globe": 7415,
      "exception": 7416,
      "correction": 7417,
      "directive": 7418,
      "freezing": 7419,
      "extension": 7420,
      "canadians": 7421,
      "atched": 7422,
      "socie": 7423,
      "busy": 7424,
      "magic": 7425,
      "harder": 7426,
      "ruin": 7427,
      "steel": 7428,
      "stealth": 7429,
      "possibilities": 7430,
      "prevention": 7431,
      "taxi": 7432,
      "crew": 7433,
      "distance": 7434,
      "otic": 7435,
      "deny": 7436,
      "summary": 7437,
      "remaining": 7438,
      "limiting": 7439,
      "luther": 7440,
      "lubbo": 7441,
      "lucrative": 7442,
      "30s": 7443,
      "runs": 7444,
      "bankrupt": 7445,
      "passage": 7446,
      "audit": 7447,
      "furious": 7448,
      "hua": 7449,
      "messaging": 7450,
      "inflamm": 7451,
      "massachuse": 7452,
      "announces": 7453,
      "importantly": 7454,
      "destroying": 7455,
      "protected": 7456,
      "breakfast": 7457,
      "agreeing": 7458,
      "aides": 7459,
      "judges": 7460,
      "commented": 7461,
      "177": 7462,
      "mortem": 7463,
      "moritz": 7464,
      "badly": 7465,
      "hardware": 7466,
      "approve": 7467,
      "positioning": 7468,
      "turns": 7469,
      "provider": 7470,
      "collusion": 7471,
      "analysed": 7472,
      "turbul": 7473,
      "116": 7474,
      "measured": 7475,
      "equival": 7476,
      "treating": 7477,
      "differences": 7478,
      "maker": 7479,
      "placing": 7480,
      "futures": 7481,
      "hackers": 7482,
      "silent": 7483,
      "aires": 7484,
      "scope": 7485,
      "volat": 7486,
      "responding": 7487,
      "photograp": 7488,
      "koreans": 7489,
      "locally": 7490,
      "revealing": 7491,
      "represented": 7492,
      "chiefs": 7493,
      "speakers": 7494,
      "hearts": 7495,
      "advised": 7496,
      "advisors": 7497,
      "travelled": 7498,
      "writes": 7499,
      "writers": 7500,
      "distrust": 7501,
      "beneficial": 7502,
      "variety": 7503,
      "tours": 7504,
      "salman": 7505,
      "totalitarian": 7506,
      "difficulties": 7507,
      "cultural": 7508,
      "scientist": 7509,
      "additionally": 7510,
      "physically": 7511,
      "ladies": 7512,
      "sanction": 7513,
      "painting": 7514,
      "painted": 7515,
      "ringham": 7516,
      "lasers": 7517,
      "expression": 7518,
      "aughlin": 7519,
      "impacted": 7520,
      "pathy": 7521,
      "leyen": 7522,
      "repeat": 7523,
      "statistics": 7524,
      "hosted": 7525,
      "bullet": 7526,
      "bullion": 7527,
      "palau": 7528,
      "arguing": 7529,
      "aggressor": 7530,
      "disastrous": 7531,
      "contained": 7532,
      "recognise": 7533,
      "recognized": 7534,
      "index": 7535,
      "forecasting": 7536,
      "psychic": 7537,
      "leavitt": 7538,
      "collected": 7539,
      "celebrities": 7540,
      "celebrating": 7541,
      "horror": 7542,
      "custod": 7543,
      "gained": 7544,
      "hills": 7545,
      "indicate": 7546,
      "shocking": 7547,
      "strengthening": 7548,
      "cliff": 7549,
      "conversations": 7550,
      "legislature": 7551,
      "japanese": 7552,
      "promoting": 7553,
      "israeli": 7554,
      "buyer": 7555,
      "superior": 7556,
      "affects": 7557,
      "empty": 7558,
      "politician": 7559,
      "itational": 7560,
      "computers": 7561,
      "survived": 7562,
      "excited": 7563,
      "integrity": 7564,
      "lung": 7565,
      "ridicul": 7566,
      "sorts": 7567,
      "detected": 7568,
      "synago": 7569,
      "electrical": 7570,
      "islamabad": 7571,
      "acceptable": 7572,
      "principle": 7573,
      "faithful": 7574,
      "federation": 7575,
      "animals": 7576,
      "severely": 7577,
      "delivering": 7578,
      "bacterial": 7579,
      "slowly": 7580,
      "winnings": 7581,
      "pursue": 7582,
      "pursuit": 7583,
      "neighbouring": 7584,
      "structural": 7585,
      "favour": 7586,
      "machines": 7587,
      "sandringham": 7588,
      "attribut": 7589,
      "attracted": 7590,
      "suppliers": 7591,
      "correctness": 7592,
      "schedule": 7593,
      "emotionally": 7594,
      "fishguard": 7595,
      "pieces": 7596,
      "iveness": 7597,
      "consistent": 7598,
      "academia": 7599,
      "egypt": 7600,
      "sadly": 7601,
      "sights": 7602,
      "episodes": 7603,
      "enjoyed": 7604,
      "opposing": 7605,
      "strikes": 7606,
      "reminder": 7607,
      "mountains": 7608,
      "smooth": 7609,
      "segments": 7610,
      "constantly": 7611,
      "exclusive": 7612,
      "plastics": 7613,
      "performed": 7614,
      "confirmation": 7615,
      "geography": 7616,
      "flipping": 7617,
      "mistake": 7618,
      "srpska": 7619,
      "renewed": 7620,
      "unfolded": 7621,
      "opioids": 7622,
      "exceptional": 7623,
      "********": 7624,
      "louisiana": 7625,
      "lapd": 7626,
      "terminations": 7627,
      "gravity": 7628,
      "gravitational": 7629,
      "expertise": 7630,
      "confidential": 7631,
      "recommendations": 7632,
      "recruit": 7633,
      "recruited": 7634,
      "coordinating": 7635,
      "margins": 7636,
      "database": 7637,
      "databridge": 7638,
      "hatred": 7639,
      "rushed": 7640,
      "stunning": 7641,
      "heightened": 7642,
      "telescope": 7643,
      "contaminated": 7644,
      "mysteries": 7645,
      "reflects": 7646,
      "detective": 7647,
      "accomplishments": 7648,
      "blika": 7649,
      "crops": 7650,
      "nifer": 7651,
      "village": 7652,
      "shellfish": 7653,
      "jeff": 7654,
      "stabbed": 7655,
      "resentencing": 7656,
      "mechanical": 7657,
      "comparison": 7658,
      "incredibly": 7659,
      "carolina": 7660,
      "solidarity": 7661,
      "acknowledged": 7662,
      "kilome": 7663,
      "master": 7664,
      "innovative": 7665,
      "revelation": 7666,
      "agriculture": 7667,
      "palestinian": 7668,
      "route": 7669,
      "slowness": 7670,
      "annex": 7671,
      "tribute": 7672,
      "entertainment": 7673,
      "hiroshima": 7674,
      "astronomers": 7675,
      "gangs": 7676,
      "jennifer": 7677,
      "lighthouse": 7678,
      "entreprene": 7679,
      "champion": 7680,
      "tragedy": 7681,
      "persecution": 7682,
      "bronchitis": 7683,
      "legitimate": 7684,
      "incarn": 7685,
      "phenomenon": 7686,
      "recordings": 7687,
      "doubts": 7688,
      "michelle": 7689,
      "barely": 7690,
      "batteries": 7691,
      "tillerson": 7692,
      "anthony": 7693,
      "anonymous": 7694,
      "wholes": 7695,
      "protocols": 7696,
      "cowboy": 7697,
      "detente": 7698,
      "volunteers": 7699,
      "intellectual": 7700,
      "fiscal": 7701,
      "tremendous": 7702,
      "twenty": 7703,
      "vinegar": 7704,
      "wolff": 7705,
      "incentive": 7706,
      "survivors": 7707,
      "telescopes": 7708,
      "legionnaires": 7709,
      "rhetoric": 7710,
      "coffee": 7711,
      "durnin": 7712,
      "frozen": 7713,
      "jupiter": 7714,
      "mclaughlin": 7715,
      "pleaded": 7716,
      "upland": 7717,
      "widespread": 7718,
      "yachats": 7719,
      "zimmerman": 7720,
      "republika": 7721,
      "accompanied": 7722,
      "probationary": 7723,
      "explanation": 7724,
      "mitsubishi": 7725,
      "lubbock": 7726,
      "inflammation": 7727,
      "massachusetts": 7728,
      "equivalent": 7729,
      "ridiculous": 7730,
      "databridgemarketresearch": 7731,
      ",’": 7732,
      "110": 7733,
      "223": 7734,
      "6bn": 7735,
      "73": 7736,
      "??": 7737,
      "]:": 7738,
      "abe": 7739,
      "bby": 7740,
      "bind": 7741,
      "bish": 7742,
      "bav": 7743,
      "bands": 7744,
      "bids": 7745,
      "cite": 7746,
      "cpac": 7747,
      "db": 7748,
      "dil": 7749,
      "dun": 7750,
      "ders": 7751,
      "echo": 7752,
      "eager": 7753,
      "fé": 7754,
      "fing": 7755,
      "fant": 7756,
      "fibers": 7757,
      "gate": 7758,
      "gust": 7759,
      "gated": 7760,
      "games": 7761,
      "gafford": 7762,
      "gentle": 7763,
      "hiv": 7764,
      "hunt": 7765,
      "hiding": 7766,
      "ias": 7767,
      "iates": 7768,
      "ique": 7769,
      "jw": 7770,
      "jed": 7771,
      "jol": 7772,
      "jain": 7773,
      "jord": 7774,
      "lis": 7775,
      "lact": 7776,
      "lace": 7777,
      "linc": 7778,
      "loman": 7779,
      "linton": 7780,
      "latter": 7781,
      "md": 7782,
      "mich": 7783,
      "mish": 7784,
      "mue": 7785,
      "mps": 7786,
      "mask": 7787,
      "nit": 7788,
      "ngo": 7789,
      "nsa": 7790,
      "nts": 7791,
      "nano": 7792,
      "och": 7793,
      "osh": 7794,
      "ostar": 7795,
      "oste": 7796,
      "othy": 7797,
      "oxford": 7798,
      "pc": 7799,
      "pic": 7800,
      "pav": 7801,
      "pione": 7802,
      "rh": 7803,
      "rit": 7804,
      "ria": 7805,
      "rnr": 7806,
      "swi": 7807,
      "sack": 7808,
      "sits": 7809,
      "swee": 7810,
      "sque": 7811,
      "td": 7812,
      "tz": 7813,
      "tay": 7814,
      "tum": 7815,
      "tends": 7816,
      "tasked": 7817,
      "tension": 7818,
      "touted": 7819,
      "uit": 7820,
      "vas": 7821,
      "vention": 7822,
      "yan": 7823,
      "yon": 7824,
      "yam": 7825,
      "yank": 7826,
      "zuel": 7827,
      "thal": 7828,
      "intim": 7829,
      "inspir": 7830,
      "invisible": 7831,
      "thenew": 7832,
      "react": 7833,
      "reign": 7834,
      "recap": 7835,
      "reiter": 7836,
      "restore": 7837,
      "reagan": 7838,
      "ongest": 7839,
      "ontar": 7840,
      "onboard": 7841,
      "ato": 7842,
      "enable": 7843,
      "encounter": 7844,
      "enforced": 7845,
      "enthal": 7846,
      "sta": 7847,
      "stom": 7848,
      "stro": 7849,
      "stol": 7850,
      "stating": 7851,
      "stiff": 7852,
      "stages": 7853,
      "stakes": 7854,
      "orm": 7855,
      "orse": 7856,
      "ales": 7857,
      "aligned": 7858,
      "algor": 7859,
      "isy": 7860,
      "isive": 7861,
      "isades": 7862,
      "isthenew": 7863,
      "tops": 7864,
      "tower": 7865,
      "arise": 7866,
      "arran": 7867,
      "eses": 7868,
      "asp": 7869,
      "aser": 7870,
      "assured": 7871,
      "icon": 7872,
      "icious": 7873,
      "leban": 7874,
      "omag": 7875,
      "sean": 7876,
      "seize": 7877,
      "sealed": 7878,
      "enters": 7879,
      "aca": 7880,
      "acres": 7881,
      "ilo": 7882,
      "ilater": 7883,
      "adult": 7884,
      "advers": 7885,
      "adopted": 7886,
      "adelph": 7887,
      "idi": 7888,
      "idorm": 7889,
      "rod": 7890,
      "roland": 7891,
      "rocks": 7892,
      "chen": 7893,
      "forgotten": 7894,
      "lyle": 7895,
      "lyloman": 7896,
      "deliber": 7897,
      "detox": 7898,
      "lowest": 7899,
      "ussels": 7900,
      "igarch": 7901,
      "nod": 7902,
      "impression": 7903,
      "tran": 7904,
      "trav": 7905,
      "traction": 7906,
      "oln": 7907,
      "oligarch": 7908,
      "irl": 7909,
      "irts": 7910,
      "peach": 7911,
      "units": 7912,
      "uncovered": 7913,
      "unlimited": 7914,
      "unpredictable": 7915,
      "concent": 7916,
      "condem": 7917,
      "reson": 7918,
      "aret": 7919,
      "nest": 7920,
      "neys": 7921,
      "neuro": 7922,
      "agers": 7923,
      "ursula": 7924,
      "abusing": 7925,
      "frail": 7926,
      "fraser": 7927,
      "tel": 7928,
      "tears": 7929,
      "mentions": 7930,
      "poison": 7931,
      "probe": 7932,
      "prostit": 7933,
      "probio": 7934,
      "proxy": 7935,
      "proclaimed": 7936,
      "provision": 7937,
      "prospect": 7938,
      "output": 7939,
      "outspoken": 7940,
      "suv": 7941,
      "suite": 7942,
      "geopol": 7943,
      "feb": 7944,
      "fec": 7945,
      "fever": 7946,
      "feared": 7947,
      "illard": 7948,
      "illusion": 7949,
      "ull": 7950,
      "ulus": 7951,
      "expon": 7952,
      "expose": 7953,
      "exchanged": 7954,
      "dogs": 7955,
      "doses": 7956,
      "sake": 7957,
      "apor": 7958,
      "apply": 7959,
      "notable": 7960,
      "notified": 7961,
      "sham": 7962,
      "shirt": 7963,
      "metr": 7964,
      "melan": 7965,
      "artists": 7966,
      "managing": 7967,
      "pledge": 7968,
      "cles": 7969,
      "clapper": 7970,
      "asts": 7971,
      "presumed": 7972,
      "covers": 7973,
      "cohes": 7974,
      "enders": 7975,
      "afer": 7976,
      "portfol": 7977,
      "reduc": 7978,
      "hoch": 7979,
      "llers": 7980,
      "empower": 7981,
      "autho": 7982,
      "indi": 7983,
      "indu": 7984,
      "elines": 7985,
      "upwards": 7986,
      "evangel": 7987,
      "partly": 7988,
      "bob": 7989,
      "boards": 7990,
      "bosn": 7991,
      "bogus": 7992,
      "timing": 7993,
      "blat": 7994,
      "blast": 7995,
      "blank": 7996,
      "grat": 7997,
      "grass": 7998,
      "grave": 7999,
      "grah": 8000,
      "rence": 8001,
      "tsk": 8002,
      "margin": 8003,
      "spy": 8004,
      "spon": 8005,
      "spike": 8006,
      "spark": 8007,
      "perm": 8008,
      "perce": 8009,
      "perry": 8010,
      "performer": 8011,
      "percept": 8012,
      "thereafter": 8013,
      "lows": 8014,
      "ensional": 8015,
      "offensive": 8016,
      "counties": 8017,
      "bry": 8018,
      "bril": 8019,
      "brussels": 8020,
      "ignor": 8021,
      "strongest": 8022,
      "iptions": 8023,
      "overcome": 8024,
      "disp": 8025,
      "disman": 8026,
      "disadvantages": 8027,
      "disgust": 8028,
      "scary": 8029,
      "forming": 8030,
      "formally": 8031,
      "mond": 8032,
      "accuse": 8033,
      "izers": 8034,
      "justification": 8035,
      "amery": 8036,
      "2019": 8037,
      "aven": 8038,
      "supporter": 8039,
      "addy": 8040,
      "underwent": 8041,
      "underlying": 8042,
      "eurozone": 8043,
      "gues": 8044,
      "guys": 8045,
      "readily": 8046,
      "archive": 8047,
      "intoler": 8048,
      "getic": 8049,
      "intercourse": 8050,
      "intervent": 8051,
      "intervention": 8052,
      "vowed": 8053,
      "serves": 8054,
      "lasts": 8055,
      "downside": 8056,
      "visits": 8057,
      "rational": 8058,
      "rationale": 8059,
      "relating": 8060,
      "maillard": 8061,
      "landing": 8062,
      "nationalist": 8063,
      "proved": 8064,
      "offices": 8065,
      "persu": 8066,
      "decides": 8067,
      "raid": 8068,
      "surrender": 8069,
      "carbon": 8070,
      "carthy": 8071,
      "highway": 8072,
      "curtail": 8073,
      "politico": 8074,
      "1980s": 8075,
      "1960s": 8076,
      "buffy": 8077,
      "earned": 8078,
      "defensive": 8079,
      "invite": 8080,
      "invade": 8081,
      "balgar": 8082,
      "clothes": 8083,
      "pressing": 8084,
      "sincere": 8085,
      "engers": 8086,
      "engaging": 8087,
      "vik": 8088,
      "viable": 8089,
      "lifestyle": 8090,
      "broker": 8091,
      "capit": 8092,
      "italian": 8093,
      "mri": 8094,
      "tarmac": 8095,
      "chester": 8096,
      "checks": 8097,
      "cheese": 8098,
      "cheeses": 8099,
      "valent": 8100,
      "foundations": 8101,
      "substit": 8102,
      "subcommittee": 8103,
      "submitted": 8104,
      "showcase": 8105,
      "investigated": 8106,
      "porosh": 8107,
      "coral": 8108,
      "letters": 8109,
      "extensive": 8110,
      "transl": 8111,
      "imported": 8112,
      "aims": 8113,
      "vendet": 8114,
      "harvest": 8115,
      "courtroom": 8116,
      "lighting": 8117,
      "issuance": 8118,
      "gotland": 8119,
      "athy": 8120,
      "possess": 8121,
      "possibly": 8122,
      "sung": 8123,
      "viral": 8124,
      "greatly": 8125,
      "arena": 8126,
      "handed": 8127,
      "handle": 8128,
      "creamery": 8129,
      "distant": 8130,
      "keeps": 8131,
      "programming": 8132,
      "congressmen": 8133,
      "solved": 8134,
      "constitutes": 8135,
      "banker": 8136,
      "singing": 8137,
      "releasing": 8138,
      "netfli": 8139,
      "benidorm": 8140,
      "careful": 8141,
      "passion": 8142,
      "passengers": 8143,
      "organic": 8144,
      "organize": 8145,
      "debates": 8146,
      "plains": 8147,
      "fury": 8148,
      "threaten": 8149,
      "cascad": 8150,
      "completed": 8151,
      "suscept": 8152,
      "donetsk": 8153,
      "concerning": 8154,
      "crimo": 8155,
      "breaks": 8156,
      "breakdown": 8157,
      "holders": 8158,
      "schafer": 8159,
      "agreements": 8160,
      "suggestions": 8161,
      "examiner": 8162,
      "gardai": 8163,
      "morris": 8164,
      "hardship": 8165,
      "campaigns": 8166,
      "kened": 8167,
      "kenney": 8168,
      "providers": 8169,
      "vicious": 8170,
      "speculation": 8171,
      "equally": 8172,
      "treatments": 8173,
      "generic": 8174,
      "makow": 8175,
      "civic": 8176,
      "popul": 8177,
      "renched": 8178,
      "lecture": 8179,
      "yeshua": 8180,
      "confess": 8181,
      "mills": 8182,
      "credible": 8183,
      "advent": 8184,
      "advances": 8185,
      "civilization": 8186,
      "funny": 8187,
      "dominate": 8188,
      "liberties": 8189,
      "reveals": 8190,
      "arriving": 8191,
      "arrival": 8192,
      "regulators": 8193,
      "halt": 8194,
      "removing": 8195,
      "convention": 8196,
      "advisers": 8197,
      "travelling": 8198,
      "spiral": 8199,
      "writings": 8200,
      "40s": 8201,
      "consuming": 8202,
      "vari": 8203,
      "ahman": 8204,
      "ahmad": 8205,
      "pushes": 8206,
      "tourist": 8207,
      "walked": 8208,
      "waltz": 8209,
      "novel": 8210,
      "contracted": 8211,
      "graphs": 8212,
      "wrongdoing": 8213,
      "historically": 8214,
      "addressing": 8215,
      "predomin": 8216,
      "prayed": 8217,
      "avoiding": 8218,
      "miche": 8219,
      "stayed": 8220,
      "1993": 8221,
      "1998": 8222,
      "creditors": 8223,
      "beds": 8224,
      "bedroom": 8225,
      "impacts": 8226,
      "applicable": 8227,
      "conclusions": 8228,
      "expectation": 8229,
      "welcomed": 8230,
      "occurs": 8231,
      "exploding": 8232,
      "specialist": 8233,
      "approaching": 8234,
      "approaches": 8235,
      "palisades": 8236,
      "argues": 8237,
      "separately": 8238,
      "aggressively": 8239,
      "indefin": 8240,
      "queen": 8241,
      "ikers": 8242,
      "leaves": 8243,
      "aboard": 8244,
      "religions": 8245,
      "collection": 8246,
      "silveristhenew": 8247,
      "celebration": 8248,
      "celebrated": 8249,
      "shaking": 8250,
      "priorit": 8251,
      "gains": 8252,
      "observatory": 8253,
      "indicated": 8254,
      "experiences": 8255,
      "circul": 8256,
      "culmin": 8257,
      "creator": 8258,
      "streamers": 8259,
      "telegraph": 8260,
      "telephone": 8261,
      "television": 8262,
      "televised": 8263,
      "productive": 8264,
      "clip": 8265,
      "clients": 8266,
      "wiseman": 8267,
      "legislative": 8268,
      "wilder": 8269,
      "willyloman": 8270,
      "aneously": 8271,
      "uniform": 8272,
      "maintains": 8273,
      "techniques": 8274,
      "husse": 8275,
      "shameful": 8276,
      "customs": 8277,
      "honey": 8278,
      "drilled": 8279,
      "competitors": 8280,
      "witnessing": 8281,
      "announcements": 8282,
      "lunar": 8283,
      "sorting": 8284,
      "vulto": 8285,
      "wildfires": 8286,
      "anxious": 8287,
      "stressful": 8288,
      "moderate": 8289,
      "synthetic": 8290,
      "domains": 8291,
      "girlfriend": 8292,
      "newspapers": 8293,
      "thankful": 8294,
      "dimensional": 8295,
      "guidelines": 8296,
      "fifty": 8297,
      "introduce": 8298,
      "characteristics": 8299,
      "!!!!": 8300,
      "namescon": 8301,
      "fixed": 8302,
      "hunter": 8303,
      "maps": 8304,
      "samples": 8305,
      "lynn": 8306,
      "crackdown": 8307,
      "philip": 8308,
      "philadelph": 8309,
      "frequent": 8310,
      "frequency": 8311,
      "kerry": 8312,
      "demonstrate": 8313,
      "encouraging": 8314,
      "administrative": 8315,
      "psychological": 8316,
      "battlefield": 8317,
      "glory": 8318,
      "rarely": 8319,
      "inquire": 8320,
      "automobile": 8321,
      "delays": 8322,
      "ohio": 8323,
      "rawal": 8324,
      "sadness": 8325,
      "reliable": 8326,
      "alerts": 8327,
      "rockefell": 8328,
      "troubling": 8329,
      "lifted": 8330,
      "reminds": 8331,
      "settings": 8332,
      "inspector": 8333,
      "advertise": 8334,
      "trails": 8335,
      "valuations": 8336,
      "citizenry": 8337,
      "fascist": 8338,
      "erupted": 8339,
      "excluded": 8340,
      "govt": 8341,
      "preservation": 8342,
      "warmongering": 8343,
      "struggled": 8344,
      "rifle": 8345,
      "resorts": 8346,
      "performing": 8347,
      "registered": 8348,
      "distributed": 8349,
      "geographically": 8350,
      "karl": 8351,
      "mistakes": 8352,
      "enemies": 8353,
      "fracturing": 8354,
      "deserve": 8355,
      "navigate": 8356,
      "zoning": 8357,
      "stretch": 8358,
      "stretched": 8359,
      "rosary": 8360,
      "rescind": 8361,
      "frustration": 8362,
      "blessings": 8363,
      "awarded": 8364,
      "monitoring": 8365,
      "retali": 8366,
      "subsequently": 8367,
      "remotely": 8368,
      "consciousness": 8369,
      "scans": 8370,
      "improving": 8371,
      "illnesses": 8372,
      "quoted": 8373,
      "restaurant": 8374,
      "transferred": 8375,
      "influencer": 8376,
      "apolog": 8377,
      "fleet": 8378,
      "tactical": 8379,
      "tactics": 8380,
      "veteran": 8381,
      "uncertainty": 8382,
      "neutral": 8383,
      "neutrality": 8384,
      "teenage": 8385,
      "mysterious": 8386,
      "drinking": 8387,
      "windows": 8388,
      "bureaucracy": 8389,
      "watersh": 8390,
      "villages": 8391,
      "referendum": 8392,
      "complained": 8393,
      "plunge": 8394,
      "plunging": 8395,
      "premium": 8396,
      "transcript": 8397,
      "jumped": 8398,
      "ideology": 8399,
      "incredible": 8400,
      "emphasis": 8401,
      "________________": 8402,
      "reckless": 8403,
      "enhanced": 8404,
      "leaked": 8405,
      "incorpor": 8406,
      "incorrect": 8407,
      "certificate": 8408,
      "analyzed": 8409,
      "punishment": 8410,
      "morganlinton": 8411,
      "endorsed": 8412,
      "venezuel": 8413,
      "affiliated": 8414,
      "barrels": 8415,
      "inevitable": 8416,
      "aqua": 8417,
      "narrow": 8418,
      "routine": 8419,
      "resilience": 8420,
      "competing": 8421,
      "excessive": 8422,
      "artificial": 8423,
      "correspondent": 8424,
      "catastrophe": 8425,
      "acquisitions": 8426,
      "diminished": 8427,
      "joseph": 8428,
      "oyster": 8429,
      "pierre": 8430,
      "iguez": 8431,
      "ambitions": 8432,
      "trayvon": 8433,
      "prosperity": 8434,
      "awakening": 8435,
      "dubious": 8436,
      "labelled": 8437,
      "inventory": 8438,
      "scenario": 8439,
      "pronounced": 8440,
      "sceptic": 8441,
      "forgiveness": 8442,
      "consulting": 8443,
      "saxony": 8444,
      "manifest": 8445,
      "timmermans": 8446,
      "obstacles": 8447,
      "retirement": 8448,
      "choosing": 8449,
      "buelahman": 8450,
      "reservoir": 8451,
      "chemistry": 8452,
      "remarkable": 8453,
      "rodriguez": 8454,
      "nevada": 8455,
      "mockus": 8456,
      "library": 8457,
      "blumenthal": 8458,
      "reluctant": 8459,
      "recruitment": 8460,
      "jordan": 8461,
      "lincoln": 8462,
      "mueller": 8463,
      "ostara": 8464,
      "rnrmarketresearch": 8465,
      "swift": 8466,
      "taylor": 8467,
      "ontario": 8468,
      "algorith": 8469,
      "arranged": 8470,
      "omagnetic": 8471,
      "ilaterally": 8472,
      "geopolitical": 8473,
      "exponential": 8474,
      "reducing": 8475,
      "authored": 8476,
      "evangelical": 8477,
      "graham": 8478,
      "interventions": 8479,
      "poroshenko": 8480,
      "netflix": 8481,
      "susceptible": 8482,
      "philadelphia": 8483,
      "rockefeller": 8484,
      "!)": 8485,
      "(@": 8486,
      "):": 8487,
      ");": 8488,
      "2bn": 8489,
      "350": 8490,
      "5m": 8491,
      "77": 8492,
      "79": 8493,
      "84": 8494,
      "93": 8495,
      "ais": 8496,
      "bly": 8497,
      "bust": 8498,
      "bally": 8499,
      "bath": 8500,
      "brent": 8501,
      "cz": 8502,
      "cé": 8503,
      "cim": 8504,
      "cous": 8505,
      "cave": 8506,
      "dm": 8507,
      "dor": 8508,
      "dio": 8509,
      "dles": 8510,
      "dune": 8511,
      "dhs": 8512,
      "daddy": 8513,
      "ek": 8514,
      "ean": 8515,
      "eing": 8516,
      "ethere": 8517,
      "evers": 8518,
      "egreg": 8519,
      "fom": 8520,
      "fits": 8521,
      "fue": 8522,
      "für": 8523,
      "gig": 8524,
      "hof": 8525,
      "hies": 8526,
      "hits": 8527,
      "hiz": 8528,
      "hatt": 8529,
      "hang": 8530,
      "hikers": 8531,
      "iant": 8532,
      "jpl": 8533,
      "ki": 8534,
      "kom": 8535,
      "karen": 8536,
      "kicked": 8537,
      "kni": 8538,
      "len": 8539,
      "lut": 8540,
      "lain": 8541,
      "lions": 8542,
      "lpa": 8543,
      "lund": 8544,
      "laud": 8545,
      "lvan": 8546,
      "mm": 8547,
      "mto": 8548,
      "mum": 8549,
      "mph": 8550,
      "mency": 8551,
      "ng": 8552,
      "nun": 8553,
      "nut": 8554,
      "npl": 8555,
      "nsy": 8556,
      "nreports": 8557,
      "oon": 8558,
      "ored": 8559,
      "ota": 8560,
      "obey": 8561,
      "opoly": 8562,
      "py": 8563,
      "pit": 8564,
      "pes": 8565,
      "pace": 8566,
      "pound": 8567,
      "phosp": 8568,
      "picking": 8569,
      "pagan": 8570,
      "pdf": 8571,
      "rs": 8572,
      "rho": 8573,
      "rice": 8574,
      "rass": 8575,
      "rss": 8576,
      "sar": 8577,
      "ske": 8578,
      "sop": 8579,
      "sport": 8580,
      "sach": 8581,
      "sins": 8582,
      "sfer": 8583,
      "sier": 8584,
      "sberg": 8585,
      "sports": 8586,
      "tver": 8587,
      "tres": 8588,
      "twi": 8589,
      "tast": 8590,
      "tong": 8591,
      "toug": 8592,
      "tany": 8593,
      "tite": 8594,
      "tána": 8595,
      "uished": 8596,
      "ulia": 8597,
      "vom": 8598,
      "vac": 8599,
      "vary": 8600,
      "vian": 8601,
      "vard": 8602,
      "vann": 8603,
      "wic": 8604,
      "wag": 8605,
      "wider": 8606,
      "wolf": 8607,
      "xual": 8608,
      "yale": 8609,
      "yang": 8610,
      "yulia": 8611,
      "zur": 8612,
      "ál": 8613,
      "ón": 8614,
      "övp": 8615,
      "’,": 8616,
      "thre": 8617,
      "thors": 8618,
      "thuring": 8619,
      "thiev": 8620,
      "thirty": 8621,
      "intr": 8622,
      "inct": 8623,
      "insure": 8624,
      "infamous": 8625,
      "incompatible": 8626,
      "thew": 8627,
      "theat": 8628,
      "anno": 8629,
      "ancy": 8630,
      "reid": 8631,
      "refr": 8632,
      "rell": 8633,
      "reich": 8634,
      "reass": 8635,
      "remem": 8636,
      "reset": 8637,
      "replic": 8638,
      "rejects": 8639,
      "onian": 8640,
      "onine": 8641,
      "eri": 8642,
      "atu": 8643,
      "aty": 8644,
      "atro": 8645,
      "envoy": 8646,
      "sts": 8647,
      "stre": 8648,
      "sted": 8649,
      "stena": 8650,
      "stalled": 8651,
      "oration": 8652,
      "orship": 8653,
      "oros": 8654,
      "alia": 8655,
      "edly": 8656,
      "oule": 8657,
      "oured": 8658,
      "isc": 8659,
      "isil": 8660,
      "ispr": 8661,
      "isdict": 8662,
      "ingen": 8663,
      "toile": 8664,
      "tobac": 8665,
      "aro": 8666,
      "arde": 8667,
      "arsen": 8668,
      "arron": 8669,
      "arrange": 8670,
      "itus": 8671,
      "itate": 8672,
      "itated": 8673,
      "iture": 8674,
      "itative": 8675,
      "escort": 8676,
      "icate": 8677,
      "iconic": 8678,
      "iciary": 8679,
      "lever": 8680,
      "leah": 8681,
      "league": 8682,
      "levy": 8683,
      "omb": 8684,
      "seed": 8685,
      "segreg": 8686,
      "entr": 8687,
      "entry": 8688,
      "beac": 8689,
      "bever": 8690,
      "behave": 8691,
      "hem": 8692,
      "ils": 8693,
      "ilation": 8694,
      "ilant": 8695,
      "ilian": 8696,
      "ilton": 8697,
      "ilica": 8698,
      "rol": 8699,
      "rolled": 8700,
      "cht": 8701,
      "chase": 8702,
      "chick": 8703,
      "dear": 8704,
      "detr": 8705,
      "deli": 8706,
      "decent": 8707,
      "della": 8708,
      "loop": 8709,
      "loret": 8710,
      "lovers": 8711,
      "loca": 8712,
      "lobby": 8713,
      "weigh": 8714,
      "wels": 8715,
      "igible": 8716,
      "nosfer": 8717,
      "ami": 8718,
      "amic": 8719,
      "amended": 8720,
      "amond": 8721,
      "immen": 8722,
      "imaging": 8723,
      "impeach": 8724,
      "verty": 8725,
      "trun": 8726,
      "trick": 8727,
      "triple": 8728,
      "olta": 8729,
      "oldest": 8730,
      "iron": 8731,
      "pees": 8732,
      "petr": 8733,
      "unk": 8734,
      "uning": 8735,
      "unseen": 8736,
      "unrelated": 8737,
      "unaware": 8738,
      "unsuccessful": 8739,
      "unbear": 8740,
      "unconventional": 8741,
      "unilaterally": 8742,
      "concess": 8743,
      "conven": 8744,
      "confron": 8745,
      "constructive": 8746,
      "resume": 8747,
      "resumed": 8748,
      "neo": 8749,
      "nered": 8750,
      "neos": 8751,
      "negle": 8752,
      "nebul": 8753,
      "agrap": 8754,
      "urry": 8755,
      "wield": 8756,
      "kee": 8757,
      "compromises": 8758,
      "moil": 8759,
      "ctic": 8760,
      "abled": 8761,
      "absor": 8762,
      "abiding": 8763,
      "hawa": 8764,
      "frag": 8765,
      "framed": 8766,
      "teens": 8767,
      "ateful": 8768,
      "popu": 8769,
      "pointe": 8770,
      "poverty": 8771,
      "proxim": 8772,
      "outlet": 8773,
      "outlined": 8774,
      "sued": 8775,
      "opher": 8776,
      "oporos": 8777,
      "geomagnetic": 8778,
      "feas": 8779,
      "felon": 8780,
      "exists": 8781,
      "excit": 8782,
      "exhib": 8783,
      "exposing": 8784,
      "iste": 8785,
      "allas": 8786,
      "gore": 8787,
      "gospe": 8788,
      "goss": 8789,
      "dose": 8790,
      "appointe": 8791,
      "shu": 8792,
      "mere": 8793,
      "meier": 8794,
      "melon": 8795,
      "artist": 8796,
      "essence": 8797,
      "youth": 8798,
      "anton": 8799,
      "antis": 8800,
      "iaf": 8801,
      "clue": 8802,
      "20s": 8803,
      "ivf": 8804,
      "ivals": 8805,
      "cram": 8806,
      "crush": 8807,
      "crying": 8808,
      "cruel": 8809,
      "crispr": 8810,
      "coinc": 8811,
      "endure": 8812,
      "worries": 8813,
      "redstate": 8814,
      "yemen": 8815,
      "yellen": 8816,
      "holoca": 8817,
      "emen": 8818,
      "authen": 8819,
      "authors": 8820,
      "daytime": 8821,
      "indif": 8822,
      "indire": 8823,
      "els": 8824,
      "ellos": 8825,
      "elabor": 8826,
      "deriv": 8827,
      "ups": 8828,
      "boom": 8829,
      "boston": 8830,
      "boku": 8831,
      "akin": 8832,
      "akhand": 8833,
      "blance": 8834,
      "iance": 8835,
      "foss": 8836,
      "grain": 8837,
      "grief": 8838,
      "grateful": 8839,
      "renal": 8840,
      "spi": 8841,
      "spared": 8842,
      "spons": 8843,
      "peru": 8844,
      "permit": 8845,
      "perpetr": 8846,
      "ensus": 8847,
      "enssberg": 8848,
      "offs": 8849,
      "offenders": 8850,
      "counted": 8851,
      "sheet": 8852,
      "brake": 8853,
      "braking": 8854,
      "brave": 8855,
      "brands": 8856,
      "mines": 8857,
      "minus": 8858,
      "minors": 8859,
      "ideal": 8860,
      "likewise": 8861,
      "striving": 8862,
      "strang": 8863,
      "awake": 8864,
      "awful": 8865,
      "awarde": 8866,
      "ipped": 8867,
      "ipedia": 8868,
      "discer": 8869,
      "dismiss": 8870,
      "disinformation": 8871,
      "disclosed": 8872,
      "disappear": 8873,
      "disappointed": 8874,
      "disabled": 8875,
      "assume": 8876,
      "oking": 8877,
      "ishly": 8878,
      "itement": 8879,
      "firings": 8880,
      "formation": 8881,
      "oughly": 8882,
      "monopol": 8883,
      "monopoly": 8884,
      "warn": 8885,
      "intends": 8886,
      "intense": 8887,
      "mystic": 8888,
      "governed": 8889,
      "donor": 8890,
      "donations": 8891,
      "donbass": 8892,
      "fulfilled": 8893,
      "spear": 8894,
      "flurry": 8895,
      "observe": 8896,
      "drag": 8897,
      "asement": 8898,
      "undercut": 8899,
      "euros": 8900,
      "europol": 8901,
      "epic": 8902,
      "compens": 8903,
      "compound": 8904,
      "compliance": 8905,
      "backstop": 8906,
      "backpack": 8907,
      "regener": 8908,
      "nationwide": 8909,
      "synon": 8910,
      "guided": 8911,
      "attn": 8912,
      "attends": 8913,
      "attende": 8914,
      "howling": 8915,
      "ighter": 8916,
      "airspace": 8917,
      "airlines": 8918,
      "comet": 8919,
      "legend": 8920,
      "interpre": 8921,
      "interrup": 8922,
      "internationally": 8923,
      "headquarters": 8924,
      "voke": 8925,
      "inces": 8926,
      "osexual": 8927,
      "fined": 8928,
      "finish": 8929,
      "stored": 8930,
      "banner": 8931,
      "downing": 8932,
      "talent": 8933,
      "visions": 8934,
      "genet": 8935,
      "relax": 8936,
      "joke": 8937,
      "josh": 8938,
      "jovian": 8939,
      "nationals": 8940,
      "ppd": 8941,
      "rowing": 8942,
      "iots": 8943,
      "investing": 8944,
      "investments": 8945,
      "province": 8946,
      "provinces": 8947,
      "clemency": 8948,
      "decrease": 8949,
      "parade": 8950,
      "paragrap": 8951,
      "rests": 8952,
      "surged": 8953,
      "surgery": 8954,
      "carl": 8955,
      "carr": 8956,
      "caring": 8957,
      "phd": 8958,
      "kings": 8959,
      "kingdom": 8960,
      "remigration": 8961,
      "1937": 8962,
      "bitcoins": 8963,
      "bucks": 8964,
      "bucha": 8965,
      "earning": 8966,
      "stockrank": 8967,
      "logists": 8968,
      "logistics": 8969,
      "signatures": 8970,
      "defences": 8971,
      "realistic": 8972,
      "makeup": 8973,
      "unders": 8974,
      "producing": 8975,
      "england": 8976,
      "engines": 8977,
      "dying": 8978,
      "vii": 8979,
      "tons": 8980,
      "consensus": 8981,
      "viewers": 8982,
      "household": 8983,
      "charlot": 8984,
      "appearan": 8985,
      "appetite": 8986,
      "diver": 8987,
      "diamond": 8988,
      "lifetime": 8989,
      "tape": 8990,
      "tenure": 8991,
      "vessel": 8992,
      "chet": 8993,
      "rises": 8994,
      "basilica": 8995,
      "founding": 8996,
      "tempi": 8997,
      "attackers": 8998,
      "naturally": 8999,
      "subst": 9000,
      "investigative": 9001,
      "systematic": 9002,
      "secretaries": 9003,
      "thoroughly": 9004,
      "porn": 9005,
      "corinne": 9006,
      "directions": 9007,
      "directors": 9008,
      "freeze": 9009,
      "101": 9010,
      "currence": 9011,
      "transaction": 9012,
      "transfers": 9013,
      "steria": 9014,
      "sterling": 9015,
      "promising": 9016,
      "truck": 9017,
      "experiments": 9018,
      "studying": 9019,
      "ruth": 9020,
      "rupees": 9021,
      "steal": 9022,
      "lightning": 9023,
      "simon": 9024,
      "simult": 9025,
      "spots": 9026,
      "listic": 9027,
      "menu": 9028,
      "secondary": 9029,
      "presenting": 9030,
      "clintons": 9031,
      "nights": 9032,
      "developments": 9033,
      "firearms": 9034,
      "barcl": 9035,
      "bardella": 9036,
      "crete": 9037,
      "distan": 9038,
      "matthew": 9039,
      "formerly": 9040,
      "commitments": 9041,
      "denial": 9042,
      "denmark": 9043,
      "summ": 9044,
      "solic": 9045,
      "lingering": 9046,
      "lugg": 9047,
      "smith": 9048,
      "singh": 9049,
      "networks": 9050,
      "midwest": 9051,
      "maine": 9052,
      "messiah": 9053,
      "purdue": 9054,
      "longest": 9055,
      "northwestern": 9056,
      "depending": 9057,
      "employs": 9058,
      "files": 9059,
      "easter": 9060,
      "holdings": 9061,
      "schland": 9062,
      "schumer": 9063,
      "recip": 9064,
      "classrooms": 9065,
      "judiciary": 9066,
      "processed": 9067,
      "processing": 9068,
      "examined": 9069,
      "discretion": 9070,
      "stops": 9071,
      "fails": 9072,
      "failures": 9073,
      "gardens": 9074,
      "holder": 9075,
      "morality": 9076,
      "youngest": 9077,
      "figaro": 9078,
      "hardly": 9079,
      "omena": 9080,
      "radar": 9081,
      "counterparts": 9082,
      "educated": 9083,
      "macmahon": 9084,
      "turmoil": 9085,
      "reportsnreports": 9086,
      "echop": 9087,
      "species": 9088,
      "equities": 9089,
      "generous": 9090,
      "accessed": 9091,
      "brittany": 9092,
      "namely": 9093,
      "expenses": 9094,
      "problematic": 9095,
      "hacking": 9096,
      "conservation": 9097,
      "grappling": 9098,
      "angela": 9099,
      "demise": 9100,
      "suffers": 9101,
      "credits": 9102,
      "richmond": 9103,
      "volumes": 9104,
      "believing": 9105,
      "institution": 9106,
      "libertar": 9107,
      "reaching": 9108,
      "arrive": 9109,
      "arrives": 9110,
      "associate": 9111,
      "regulated": 9112,
      "difficul": 9113,
      "lane": 9114,
      "convictions": 9115,
      "metro": 9116,
      "closely": 9117,
      "staffing": 9118,
      "advising": 9119,
      "travellers": 9120,
      "distracted": 9121,
      "slv": 9122,
      "slam": 9123,
      "slide": 9124,
      "script": 9125,
      "yorker": 9126,
      "males": 9127,
      "wales": 9128,
      "walker": 9129,
      "salaries": 9130,
      "availability": 9131,
      "billionaires": 9132,
      "existential": 9133,
      "cops": 9134,
      "doubled": 9135,
      "flowers": 9136,
      "gasoline": 9137,
      "requests": 9138,
      "altering": 9139,
      "historians": 9140,
      "friendships": 9141,
      "bolster": 9142,
      "divide": 9143,
      "division": 9144,
      "divisions": 9145,
      "garian": 9146,
      "garza": 9147,
      "predicted": 9148,
      "pointing": 9149,
      "willingness": 9150,
      "turnings": 9151,
      "borhood": 9152,
      "fastest": 9153,
      "gregory": 9154,
      "angible": 9155,
      "contributing": 9156,
      "statue": 9157,
      "welcoming": 9158,
      "hosts": 9159,
      "nyc": 9160,
      "booth": 9161,
      "precision": 9162,
      "percentage": 9163,
      "infrared": 9164,
      "recognize": 9165,
      "indecent": 9166,
      "referral": 9167,
      "deterrent": 9168,
      "medications": 9169,
      "medicines": 9170,
      "colleague": 9171,
      "momentum": 9172,
      "btc": 9173,
      "mcmahon": 9174,
      "texts": 9175,
      "observing": 9176,
      "observations": 9177,
      "gunshot": 9178,
      "planners": 9179,
      "indicating": 9180,
      "documenting": 9181,
      "circu": 9182,
      "creative": 9183,
      "creators": 9184,
      "racial": 9185,
      "neighborhood": 9186,
      "clips": 9187,
      "henomena": 9188,
      "restricted": 9189,
      "defendant": 9190,
      "bandwid": 9191,
      "argent": 9192,
      "definitions": 9193,
      "feeding": 9194,
      "coup": 9195,
      "darker": 9196,
      "pulse": 9197,
      "pulled": 9198,
      "pulling": 9199,
      "grandson": 9200,
      "incidentally": 9201,
      "buyers": 9202,
      "spotlight": 9203,
      "maintained": 9204,
      "pennsy": 9205,
      "shutting": 9206,
      "shutdown": 9207,
      "technically": 9208,
      "reviewed": 9209,
      "affecting": 9210,
      "flagship": 9211,
      "davis": 9212,
      "survive": 9213,
      "subscribers": 9214,
      "linkedin": 9215,
      "witnessed": 9216,
      "hurdles": 9217,
      "wildly": 9218,
      "wildfire": 9219,
      "detectors": 9220,
      "assessments": 9221,
      "dinghies": 9222,
      "hamilton": 9223,
      "acquired": 9224,
      "tracking": 9225,
      "targets": 9226,
      "spokeswoman": 9227,
      "requirement": 9228,
      "panic": 9229,
      "panel": 9230,
      "toxins": 9231,
      "loaded": 9232,
      "novak": 9233,
[...]
