{
  "version": "1.0",
  "truncation": null,
  "padding": null,
  "added_tokens": [],
  "normalizer": {
    "type": "Lowercase"
  },
  "pre_tokenizer": {
    "type": "Whitespace"
  },
  "post_processor": null,
  "decoder": null,
  "model": {
    "type": "BPE",
    "dropout": null,
    "unk_token": null,
    "continuing_subword_prefix": null,
    "end_of_word_suffix": null,
    "fuse_unk": false,
    "byte_fallback": false,
    "ignore_merges": false,
    "vocab": {
      "!": 0,
      "\"": 1,
      "#": 2,
      "$": 3,
      "%": 4,
      "&": 5,
      "'": 6,
      "(": 7,
      ")": 8,
      "*": 9,
      "+": 10,
      ",": 11,
      "-": 12,
      ".": 13,
      "/": 14,
      "0": 15,
      "1": 16,
      "2": 17,
      "3": 18,
      "4": 19,
      "5": 20,
      "6": 21,
      "7": 22,
      "8": 23,
      "9": 24,
      ":": 25,
      ";": 26,
      "<": 27,
      "=": 28,
      ">": 29,
      "?": 30,
      "@": 31,
      "[": 32,
      "\\": 33,
      "]": 34,
      "^": 35,
      "_": 36,
      "`": 37,
      "a": 38,
      "b": 39,
      "c": 40,
      "d": 41,
      "e": 42,
      "f": 43,
      "g": 44,
      "h": 45,
      "i": 46,
      "j": 47,
      "k": 48,
      "l": 49,
      "m": 50,
      "n": 51,
      "o": 52,
      "p": 53,
      "q": 54,
      "r": 55,
      "s": 56,
      "t": 57,
      "u": 58,
      "v": 59,
      "w": 60,
      "x": 61,
      "y": 62,
      "z": 63,
      "{": 64,
      "|": 65,
      "}": 66,
      "~": 67,
      "": 68,
      "": 69,
      "": 70,
      "": 71,
      "": 72,
      "": 73,
      "": 74,
      "": 75,
      "": 76,
      "": 77,
      "": 78,
      "¡": 79,
      "¢": 80,
      "£": 81,
      "¥": 82,
      "§": 83,
      "¨": 84,
      "©": 85,
      "«": 86,
      "­": 87,
      "®": 88,
      "°": 89,
      "±": 90,
      "´": 91,
      "µ": 92,
      "¶": 93,
      "·": 94,
      "¸": 95,
      "¹": 96,
      "»": 97,
      "¼": 98,
      "½": 99,
      "¾": 100,
      "¿": 101,
      "×": 102,
      "ß": 103,
      "à": 104,
      "á": 105,
      "â": 106,
      "ã": 107,
      "ä": 108,
      "å": 109,
      "æ": 110,
      "ç": 111,
      "è": 112,
      "é": 113,
      "ê": 114,
      "ë": 115,
      "ì": 116,
      "í": 117,
      "î": 118,
      "ï": 119,
      "ð": 120,
      "ñ": 121,
      "ò": 122,
      "ó": 123,
      "ô": 124,
      "ö": 125,
      "ø": 126,
      "ù": 127,
      "ú": 128,
      "û": 129,
      "ü": 130,
      "ý": 131,
      "ā": 132,
      "ă": 133,
      "ć": 134,
      "č": 135,
      "đ": 136,
      "ė": 137,
      "ğ": 138,
      "ı": 139,
      "ł": 140,
      "ń": 141,
      "ś": 142,
      "ş": 143,
      "ž": 144,
      "ơ": 145,
      "ư": 146,
      "ǎ": 147,
      "̇": 148,
      "ΐ": 149,
      "ά": 150,
      "έ": 151,
      "ή": 152,
      "ί": 153,
      "α": 154,
      "β": 155,
      "γ": 156,
      "δ": 157,
      "ε": 158,
      "ζ": 159,
      "η": 160,
      "θ": 161,
      "ι": 162,
      "κ": 163,
      "λ": 164,
      "μ": 165,
      "ν": 166,
      "ξ": 167,
      "ο": 168,
      "π": 169,
      "ρ": 170,
      "ς": 171,
      "σ": 172,
      "τ": 173,
      "υ": 174,
      "φ": 175,
      "χ": 176,
      "ψ": 177,
      "ω": 178,
      "ϊ": 179,
      "ϋ": 180,
      "ό": 181,
      "ύ": 182,
      "ώ": 183,
      "а": 184,
      "б": 185,
      "в": 186,
      "г": 187,
      "д": 188,
      "е": 189,
      "ж": 190,
      "з": 191,
      "и": 192,
      "й": 193,
      "к": 194,
      "л": 195,
      "м": 196,
      "н": 197,
      "о": 198,
      "п": 199,
      "р": 200,
      "с": 201,
      "т": 202,
      "у": 203,
      "ф": 204,
      "х": 205,
      "ц": 206,
      "ч": 207,
      "ш": 208,
      "щ": 209,
      "ъ": 210,
      "ы": 211,
      "ь": 212,
      "э": 213,
      "ю": 214,
      "я": 215,
      "ё": 216,
      "ј": 217,
      "،": 218,
      "؟": 219,
      "ء": 220,
      "آ": 221,
      "أ": 222,
      "ؤ": 223,
      "إ": 224,
      "ئ": 225,
      "ا": 226,
      "ب": 227,
      "ة": 228,
      "ت": 229,
      "ث": 230,
      "ج": 231,
      "ح": 232,
      "خ": 233,
      "د": 234,
      "ذ": 235,
      "ر": 236,
      "ز": 237,
      "س": 238,
      "ش": 239,
      "ص": 240,
      "ض": 241,
      "ط": 242,
      "ظ": 243,
      "ع": 244,
      "غ": 245,
      "ـ": 246,
      "ف": 247,
      "ق": 248,
      "ك": 249,
      "ل": 250,
      "م": 251,
      "ن": 252,
      "ه": 253,
      "و": 254,
      "ى": 255,
      "ي": 256,
      "ً": 257,
      "ّ": 258,
      "۞": 259,
      "۩": 260,
      "ஜ": 261,
      "ṣ": 262,
      "ạ": 263,
      "ả": 264,
      "ấ": 265,
      "ầ": 266,
      "ẩ": 267,
      "ậ": 268,
      "ắ": 269,
      "ẳ": 270,
      "ặ": 271,
      "ế": 272,
      "ề": 273,
      "ể": 274,
      "ễ": 275,
      "ệ": 276,
      "ỉ": 277,
      "ị": 278,
      "ọ": 279,
      "ỏ": 280,
      "ố": 281,
      "ồ": 282,
      "ổ": 283,
      "ộ": 284,
      "ớ": 285,
      "ờ": 286,
      "ở": 287,
      "ợ": 288,
      "ụ": 289,
      "ủ": 290,
      "ứ": 291,
      "ừ": 292,
      "ử": 293,
      "ữ": 294,
      "ự": 295,
      "ỳ": 296,
      "​": 297,
      "‎": 298,
      "‐": 299,
      "‑": 300,
      "–": 301,
      "—": 302,
      "―": 303,
      "‘": 304,
      "’": 305,
      "“": 306,
      "”": 307,
      "„": 308,
      "†": 309,
      "‡": 310,
      "•": 311,
      "…": 312,
      "′": 313,
      "″": 314,
      "‼": 315,
      "₂": 316,
      "€": 317,
      "№": 318,
      "™": 319,
      "⅓": 320,
      "→": 321,
      "≠": 322,
      "■": 323,
      "▪": 324,
      "▬": 325,
      "▲": 326,
      "▶": 327,
      "▼": 328,
      "◆": 329,
      "●": 330,
      "★": 331,
      "☕": 332,
      "☦": 333,
      "♔": 334,
      "♞": 335,
      "♥": 336,
      "✊": 337,
      "❤": 338,
      "❮": 339,
      "➡": 340,
      "一": 341,
      "东": 342,
      "传": 343,
      "体": 344,
      "光": 345,
      "公": 346,
      "凤": 347,
      "击": 348,
      "反": 349,
      "受": 350,
      "因": 351,
      "娇": 352,
      "媒": 353,
      "宁": 354,
      "宣": 355,
      "工": 356,
      "平": 357,
      "形": 358,
      "控": 359,
      "明": 360,
      "李": 361,
      "某": 362,
      "江": 363,
      "生": 364,
      "申": 365,
      "监": 366,
      "程": 367,
      "管": 368,
      "维": 369,
      "者": 370,
      "耿": 371,
      "舆": 372,
      "蔡": 373,
      "行": 374,
      "论": 375,
      "象": 376,
      "贿": 377,
      "辰": 378,
      "部": 379,
      "长": 380,
      "闫": 381,
      "魏": 382,
      "": 383,
      "": 384,
      "ﷺ": 385,
      "️": 386,
      "﻿": 387,
      "￼": 388,
      "�": 389,
      "🇦": 390,
      "🇧": 391,
      "🇨": 392,
      "🇬": 393,
      "🇸": 394,
      "🇺": 395,
      "🍂": 396,
      "🍕": 397,
      "🏻": 398,
      "🏽": 399,
      "🐝": 400,
      "🐸": 401,
      "👊": 402,
      "👌": 403,
      "💘": 404,
      "📰": 405,
      "📺": 406,
      "🔥": 407,
      "😉": 408,
      "😭": 409,
      "😳": 410,
      "🙁": 411,
      "🙂": 412,
      "🚨": 413,
      "🤔": 414,
      "🤘": 415,
      "🥄": 416,
      "🥛": 417,
      "th": 418,
      "in": 419,
      "the": 420,
      "an": 421,
      "re": 422,
      "on": 423,
      "er": 424,
      "at": 425,
      "en": 426,
      "or": 427,
      "st": 428,
      "al": 429,
      "ed": 430,
      "ou": 431,
      "is": 432,
      "to": 433,
      "ing": 434,
      "ar": 435,
      "it": 436,
      "of": 437,
      "es": 438,
      "and": 439,
      "as": 440,
      "ic": 441,
      "le": 442,
      "ion": 443,
      "om": 444,
      "se": 445,
      "ent": 446,
      "il": 447,
      "ac": 448,
      "ad": 449,
      "be": 450,
      "ve": 451,
      "id": 452,
      "am": 453,
      "he": 454,
      "ro": 455,
      "for": 456,
      "ch": 457,
      "ly": 458,
      "that": 459,
      "wh": 460,
      "no": 461,
      "ol": 462,
      "im": 463,
      "we": 464,
      "ig": 465,
      "ay": 466,
      "ir": 467,
      "de": 468,
      "un": 469,
      "ver": 470,
      "ne": 471,
      "con": 472,
      "su": 473,
      "lo": 474,
      "ation": 475,
      "ut": 476,
      "are": 477,
      "ag": 478,
      "ce": 479,
      "ter": 480,
      "us": 481,
      "pe": 482,
      "tr": 483,
      "mo": 484,
      "ur": 485,
      "li": 486,
      "ab": 487,
      "com": 488,
      "wi": 489,
      "ct": 490,
      "res": 491,
      "ill": 492,
      "te": 493,
      "ha": 494,
      "you": 495,
      "with": 496,
      "ke": 497,
      "ate": 498,
      "op": 499,
      "pro": 500,
      "fr": 501,
      "ment": 502,
      "ld": 503,
      "ers": 504,
      "ist": 505,
      "ge": 506,
      "po": 507,
      "all": 508,
      "was": 509,
      "out": 510,
      "ain": 511,
      "by": 512,
      "ul": 513,
      "ap": 514,
      "sh": 515,
      "fe": 516,
      "do": 517,
      "not": 518,
      "so": 519,
      "go": 520,
      "ts": 521,
      "ex": 522,
      "one": 523,
      "if": 524,
      "ther": 525,
      "this": 526,
      "oun": 527,
      "our": 528,
      "igh": 529,
      "me": 530,
      "pl": 531,
      "have": 532,
      "sa": 533,
      "new": 534,
      "from": 535,
      "art": 536,
      "man": 537,
      "ity": 538,
      "la": 539,
      "ould": 540,
      "ess": 541,
      "ri": 542,
      "but": 543,
      "ies": 544,
      "they": 545,
      "has": 546,
      "ive": 547,
      "up": 548,
      "qu": 549,
      "wor": 550,
      "ie": 551,
      "red": 552,
      "um": 553,
      "end": 554,
      "ho": 555,
      "por": 556,
      "his": 557,
      "act": 558,
      "ial": 559,
      "ant": 560,
      "20": 561,
      "bo": 562,
      "co": 563,
      "em": 564,
      "per": 565,
      "ust": 566,
      "ll": 567,
      "bl": 568,
      "who": 569,
      "gr": 570,
      "cl": 571,
      "ack": 572,
      "gh": 573,
      "ak": 574,
      "pr": 575,
      "ome": 576,
      "ye": 577,
      "pres": 578,
      "ight": 579,
      "ans": 580,
      "said": 581,
      "au": 582,
      "will": 583,
      "now": 584,
      "fo": 585,
      "iv": 586,
      "cr": 587,
      "af": 588,
      "tim": 589,
      "ard": 590,
      "day": 591,
      "can": 592,
      "ia": 593,
      "der": 594,
      "their": 595,
      "ich": 596,
      "ally": 597,
      "ren": 598,
      "ber": 599,
      "ast": 600,
      "ary": 601,
      "ev": 602,
      "ous": 603,
      "ud": 604,
      "wn": 605,
      "more": 606,
      "ind": 607,
      "off": 608,
      "ough": 609,
      "ide": 610,
      "br": 611,
      "ice": 612,
      "ob": 613,
      "pre": 614,
      "ine": 615,
      "ign": 616,
      "port": 617,
      "ian": 618,
      "age": 619,
      "pol": 620,
      "other": 621,
      "..": 622,
      ".”": 623,
      "about": 624,
      "some": 625,
      "ions": 626,
      "ass": 627,
      "ail": 628,
      "year": 629,
      "ok": 630,
      "ue": 631,
      "iz": 632,
      "its": 633,
      "od": 634,
      "ound": 635,
      "ree": 636,
      "had": 637,
      "sp": 638,
      "part": 639,
      "pu": 640,
      "cent": 641,
      "which": 642,
      "would": 643,
      "what": 644,
      "there": 645,
      "ated": 646,
      "mar": 647,
      "ong": 648,
      "00": 649,
      "ser": 650,
      "peop": 651,
      "any": 652,
      "publ": 653,
      "cont": 654,
      "her": 655,
      "people": 656,
      "than": 657,
      "av": 658,
      "sc": 659,
      "ple": 660,
      "dis": 661,
      "here": 662,
      "been": 663,
      "low": 664,
      "ident": 665,
      "like": 666,
      "ire": 667,
      "min": 668,
      "eric": 669,
      "ty": 670,
      "ck": 671,
      "ace": 672,
      "ra": 673,
      "el": 674,
      "were": 675,
      "over": 676,
      "ite": 677,
      "form": 678,
      "ure": 679,
      "way": 680,
      "thing": 681,
      "201": 682,
      "when": 683,
      "very": 684,
      "ory": 685,
      "ations": 686,
      "ates": 687,
      "ame": 688,
      "--": 689,
      "coun": 690,
      "ase": 691,
      "ting": 692,
      "she": 693,
      "americ": 694,
      "comm": 695,
      "ake": 696,
      "public": 697,
      "sy": 698,
      "ence": 699,
      "ish": 700,
      "my": 701,
      "int": 702,
      "read": 703,
      "just": 704,
      "ical": 705,
      "ip": 706,
      "able": 707,
      "spe": 708,
      "work": 709,
      "cor": 710,
      "get": 711,
      "pos": 712,
      "news": 713,
      "fore": 714,
      "med": 715,
      "cre": 716,
      "ach": 717,
      "ance": 718,
      "str": 719,
      "your": 720,
      "state": 721,
      "cur": 722,
      "them": 723,
      "old": 724,
      "tw": 725,
      "inter": 726,
      "fir": 727,
      "ile": 728,
      "don": 729,
      "att": 730,
      "ib": 731,
      "after": 732,
      "iran": 733,
      "mon": 734,
      "''": 735,
      ",”": 736,
      "sho": 737,
      "pt": 738,
      "time": 739,
      "nation": 740,
      "war": 741,
      "ump": 742,
      "ink": 743,
      "also": 744,
      "cial": 745,
      "ction": 746,
      "ama": 747,
      "most": 748,
      "tur": 749,
      "ors": 750,
      "ick": 751,
      "uc": 752,
      "19": 753,
      "know": 754,
      "say": 755,
      "ens": 756,
      "again": 757,
      "ang": 758,
      "vo": 759,
      "president": 760,
      "col": 761,
      "vern": 762,
      "ef": 763,
      "ade": 764,
      "govern": 765,
      "ition": 766,
      "cau": 767,
      "pa": 768,
      "sub": 769,
      "est": 770,
      "add": 771,
      "try": 772,
      "into": 773,
      "ious": 774,
      "comp": 775,
      "mr": 776,
      "jo": 777,
      "ress": 778,
      "him": 779,
      "back": 780,
      "may": 781,
      "even": 782,
      "how": 783,
      "ater": 784,
      "let": 785,
      "vie": 786,
      "enc": 787,
      "ild": 788,
      "only": 789,
      "reg": 790,
      "ted": 791,
      "ful": 792,
      "ep": 793,
      "cause": 794,
      "ning": 795,
      "uss": 796,
      "sel": 797,
      "dr": 798,
      "under": 799,
      "serv": 800,
      "ise": 801,
      "trump": 802,
      "sen": 803,
      "obama": 804,
      "fl": 805,
      "lear": 806,
      "ose": 807,
      "tt": 808,
      "leg": 809,
      "could": 810,
      "je": 811,
      "ments": 812,
      "sup": 813,
      "see": 814,
      "many": 815,
      "fin": 816,
      "main": 817,
      "ph": 818,
      "call": 819,
      "ited": 820,
      "ry": 821,
      "two": 822,
      "first": 823,
      "law": 824,
      "ks": 825,
      "use": 826,
      "ating": 827,
      "come": 828,
      "vers": 829,
      "des": 830,
      "alth": 831,
      "mis": 832,
      "lead": 833,
      "world": 834,
      "par": 835,
      "these": 836,
      "car": 837,
      "cess": 838,
      "because": 839,
      "where": 840,
      "years": 841,
      "bu": 842,
      "government": 843,
      "did": 844,
      "gu": 845,
      "rest": 846,
      "ms": 847,
      "ict": 848,
      "du": 849,
      "vis": 850,
      "gen": 851,
      "every": 852,
      "view": 853,
      "then": 854,
      "...": 855,
      "ons": 856,
      "last": 857,
      "contin": 858,
      "cho": 859,
      "polit": 860,
      "hel": 861,
      "200": 862,
      "reat": 863,
      "air": 864,
      "down": 865,
      "minist": 866,
      "tal": 867,
      "sur": 868,
      "rel": 869,
      "think": 870,
      "ters": 871,
      "bet": 872,
      "thr": 873,
      "right": 874,
      "wee": 875,
      "ele": 876,
      "national": 877,
      "well": 878,
      "cer": 879,
      "mu": 880,
      "gy": 881,
      "ving": 882,
      "before": 883,
      "being": 884,
      "bro": 885,
      "isl": 886,
      "those": 887,
      "ma": 888,
      "ative": 889,
      "ities": 890,
      "io": 891,
      "ann": 892,
      "ps": 893,
      "ents": 894,
      "sign": 895,
      "times": 896,
      "while": 897,
      "incl": 898,
      "through": 899,
      "illion": 900,
      "own": 901,
      "ics": 902,
      "against": 903,
      "republic": 904,
      "american": 905,
      "ied": 906,
      "russ": 907,
      "bus": 908,
      "ces": 909,
      "ism": 910,
      "dec": 911,
      "ton": 912,
      "less": 913,
      "cour": 914,
      "ual": 915,
      "wr": 916,
      "eral": 917,
      "long": 918,
      "lar": 919,
      "offic": 920,
      "hou": 921,
      "ved": 922,
      "play": 923,
      "report": 924,
      "hu": 925,
      "ss": 926,
      "need": 927,
      "states": 928,
      "ange": 929,
      "stud": 930,
      "ves": 931,
      "cord": 932,
      "cam": 933,
      "ст": 934,
      "mil": 935,
      "used": 936,
      "look": 937,
      "should": 938,
      "does": 939,
      "story": 940,
      "king": 941,
      "oc": 942,
      "rent": 943,
      "demo": 944,
      "cted": 945,
      "inte": 946,
      "und": 947,
      "ban": 948,
      "aking": 949,
      "ork": 950,
      "ble": 951,
      "tain": 952,
      "wer": 953,
      "pp": 954,
      "put": 955,
      "york": 956,
      "ear": 957,
      "make": 958,
      "ists": 959,
      "want": 960,
      "gan": 961,
      "high": 962,
      "press": 963,
      "mber": 964,
      "house": 965,
      "cal": 966,
      "show": 967,
      "democr": 968,
      "cut": 969,
      "char": 970,
      "ific": 971,
      "che": 972,
      "ince": 973,
      "stand": 974,
      "ult": 975,
      "head": 976,
      "row": 977,
      "stem": 978,
      "uring": 979,
      "health": 980,
      "self": 981,
      "led": 982,
      "ys": 983,
      "going": 984,
      "land": 985,
      "ins": 986,
      "10": 987,
      "econ": 988,
      "ath": 989,
      "such": 990,
      "ily": 991,
      "econom": 992,
      "real": 993,
      "os": 994,
      "much": 995,
      "system": 996,
      "def": 997,
      "fact": 998,
      "arch": 999,
      "pers": 1000,
      "turn": 1001,
      "nor": 1002,
      "gress": 1003,
      "made": 1004,
      "ward": 1005,
      "val": 1006,
      "clo": 1007,
      "ta": 1008,
      "ger": 1009,
      "ave": 1010,
      "wom": 1011,
      ".\"": 1012,
      "bor": 1013,
      "ional": 1014,
      "includ": 1015,
      "bar": 1016,
      "child": 1017,
      "fam": 1018,
      "cts": 1019,
      "blo": 1020,
      "ci": 1021,
      "fol": 1022,
      "ices": 1023,
      "les": 1024,
      "ration": 1025,
      "vest": 1026,
      "miss": 1027,
      "ven": 1028,
      "mor": 1029,
      "grou": 1030,
      "cond": 1031,
      "inst": 1032,
      "good": 1033,
      "ls": 1034,
      "life": 1035,
      "ased": 1036,
      "az": 1037,
      "united": 1038,
      "take": 1039,
      "issu": 1040,
      "post": 1041,
      "то": 1042,
      "ible": 1043,
      "democrat": 1044,
      "cap": 1045,
      "et": 1046,
      "sure": 1047,
      "ah": 1048,
      "line": 1049,
      "bal": 1050,
      "during": 1051,
      "но": 1052,
      "book": 1053,
      "ror": 1054,
      "fed": 1055,
      "pri": 1056,
      "mat": 1057,
      "plan": 1058,
      "help": 1059,
      "di": 1060,
      "test": 1061,
      "als": 1062,
      "quest": 1063,
      "found": 1064,
      "invest": 1065,
      "cons": 1066,
      "ings": 1067,
      "net": 1068,
      "week": 1069,
      "continue": 1070,
      "beli": 1071,
      "point": 1072,
      "ten": 1073,
      "vi": 1074,
      "uni": 1075,
      "eng": 1076,
      "since": 1077,
      "ster": 1078,
      "ра": 1079,
      "cla": 1080,
      "eu": 1081,
      "ced": 1082,
      "ot": 1083,
      "iranian": 1084,
      "ency": 1085,
      "000": 1086,
      "на": 1087,
      "cu": 1088,
      "ко": 1089,
      "og": 1090,
      "ро": 1091,
      "though": 1092,
      "inform": 1093,
      "xt": 1094,
      "country": 1095,
      "please": 1096,
      "big": 1097,
      "son": 1098,
      "chr": 1099,
      "plo": 1100,
      "bre": 1101,
      "lim": 1102,
      "resp": 1103,
      "milit": 1104,
      "ason": 1105,
      "dire": 1106,
      "ants": 1107,
      "commun": 1108,
      "ira": 1109,
      "ort": 1110,
      "ни": 1111,
      "dif": 1112,
      "still": 1113,
      "gram": 1114,
      "home": 1115,
      "rec": 1116,
      "ility": 1117,
      "islam": 1118,
      "ket": 1119,
      "vol": 1120,
      "win": 1121,
      "по": 1122,
      ").": 1123,
      "white": 1124,
      "ular": 1125,
      "why": 1126,
      "sul": 1127,
      "oper": 1128,
      "produ": 1129,
      "far": 1130,
      "ash": 1131,
      "care": 1132,
      "follow": 1133,
      "happ": 1134,
      "itut": 1135,
      "----": 1136,
      "run": 1137,
      "another": 1138,
      "stru": 1139,
      "support": 1140,
      "attack": 1141,
      "aren": 1142,
      "ner": 1143,
      "america": 1144,
      "pho": 1145,
      "sm": 1146,
      "claim": 1147,
      "iraq": 1148,
      "ines": 1149,
      "sou": 1150,
      "official": 1151,
      "ww": 1152,
      "power": 1153,
      "num": 1154,
      "trans": 1155,
      "percent": 1156,
      "lit": 1157,
      "vide": 1158,
      "program": 1159,
      "fer": 1160,
      "),": 1161,
      "mus": 1162,
      "11": 1163,
      "sim": 1164,
      "month": 1165,
      "person": 1166,
      "same": 1167,
      "vert": 1168,
      "hand": 1169,
      "million": 1170,
      "chool": 1171,
      "ft": 1172,
      "coming": 1173,
      "ask": 1174,
      "search": 1175,
      "set": 1176,
      "media": 1177,
      "reading": 1178,
      "three": 1179,
      "ca": 1180,
      "ru": 1181,
      "start": 1182,
      "appe": 1183,
      "political": 1184,
      "dy": 1185,
      "top": 1186,
      "free": 1187,
      "artic": 1188,
      "har": 1189,
      "school": 1190,
      "pat": 1191,
      "ris": 1192,
      "ween": 1193,
      "polic": 1194,
      "nuc": 1195,
      "gest": 1196,
      "must": 1197,
      ",\"": 1198,
      "$$": 1199,
      "mer": 1200,
      "kill": 1201,
      "called": 1202,
      "contro": 1203,
      "place": 1204,
      "between": 1205,
      "ject": 1206,
      "hing": 1207,
      "human": 1208,
      "nuclear": 1209,
      "prof": 1210,
      "ds": 1211,
      "photo": 1212,
      "den": 1213,
      "ital": 1214,
      "ives": 1215,
      "writ": 1216,
      "vir": 1217,
      "accord": 1218,
      "including": 1219,
      "side": 1220,
      "too": 1221,
      "ared": 1222,
      "never": 1223,
      "both": 1224,
      "iness": 1225,
      "campa": 1226,
      "rece": 1227,
      "vent": 1228,
      "nat": 1229,
      "contr": 1230,
      "campaign": 1231,
      "hn": 1232,
      "ians": 1233,
      "acy": 1234,
      "recent": 1235,
      "dist": 1236,
      "interest": 1237,
      "tail": 1238,
      "sto": 1239,
      "thor": 1240,
      "ctor": 1241,
      "recs": 1242,
      "pay": 1243,
      "secur": 1244,
      "ually": 1245,
      "military": 1246,
      "around": 1247,
      "today": 1248,
      "ically": 1249,
      "find": 1250,
      "city": 1251,
      "mone": 1252,
      "gre": 1253,
      "told": 1254,
      "ights": 1255,
      "ures": 1256,
      "jor": 1257,
      "party": 1258,
      "bur": 1259,
      "bers": 1260,
      "ues": 1261,
      "list": 1262,
      "ized": 1263,
      "univers": 1264,
      "akes": 1265,
      "crim": 1266,
      "according": 1267,
      "women": 1268,
      "face": 1269,
      "ames": 1270,
      "ben": 1271,
      "chang": 1272,
      "prom": 1273,
      "pass": 1274,
      "aff": 1275,
      "john": 1276,
      "ient": 1277,
      "really": 1278,
      "ina": 1279,
      "ways": 1280,
      "exper": 1281,
      "open": 1282,
      "present": 1283,
      "advert": 1284,
      "ре": 1285,
      "cept": 1286,
      "ship": 1287,
      "cas": 1288,
      "ped": 1289,
      "euro": 1290,
      "russia": 1291,
      "children": 1292,
      "ness": 1293,
      "organ": 1294,
      "bill": 1295,
      "pop": 1296,
      "former": 1297,
      "got": 1298,
      "foreign": 1299,
      "change": 1300,
      "fund": 1301,
      "tax": 1302,
      "fect": 1303,
      "ham": 1304,
      "newslet": 1305,
      "ports": 1306,
      "pur": 1307,
      "federal": 1308,
      "12": 1309,
      "administ": 1310,
      "ages": 1311,
      "ense": 1312,
      "seem": 1313,
      "requ": 1314,
      "mal": 1315,
      "without": 1316,
      "security": 1317,
      "ready": 1318,
      "christ": 1319,
      "police": 1320,
      "ko": 1321,
      "eve": 1322,
      "fire": 1323,
      "tem": 1324,
      "atch": 1325,
      "won": 1326,
      "hist": 1327,
      "ix": 1328,
      "ago": 1329,
      "sol": 1330,
      "poss": 1331,
      "sum": 1332,
      "group": 1333,
      "ned": 1334,
      "incre": 1335,
      "author": 1336,
      "social": 1337,
      "move": 1338,
      "business": 1339,
      "ли": 1340,
      "next": 1341,
      "hol": 1342,
      "money": 1343,
      "50": 1344,
      "cy": 1345,
      "acc": 1346,
      "keep": 1347,
      "ross": 1348,
      "came": 1349,
      "congress": 1350,
      "men": 1351,
      "tle": 1352,
      "current": 1353,
      "//": 1354,
      "fa": 1355,
      "terror": 1356,
      "few": 1357,
      "18": 1358,
      "не": 1359,
      "fac": 1360,
      "left": 1361,
      "islamic": 1362,
      "sing": 1363,
      "later": 1364,
      "://": 1365,
      "agree": 1366,
      "ize": 1367,
      "ug": 1368,
      "ref": 1369,
      "clint": 1370,
      "htt": 1371,
      "30": 1372,
      "case": 1373,
      "sex": 1374,
      "great": 1375,
      "giv": 1376,
      "major": 1377,
      "court": 1378,
      "tell": 1379,
      "proble": 1380,
      "ator": 1381,
      "commit": 1382,
      "family": 1383,
      "washing": 1384,
      "order": 1385,
      "scri": 1386,
      "mit": 1387,
      "things": 1388,
      "sour": 1389,
      "article": 1390,
      "appro": 1391,
      "lect": 1392,
      "unt": 1393,
      "ney": 1394,
      "secre": 1395,
      "fil": 1396,
      "ling": 1397,
      "might": 1398,
      "lot": 1399,
      "sal": 1400,
      "го": 1401,
      "using": 1402,
      "ization": 1403,
      "hard": 1404,
      "market": 1405,
      "tre": 1406,
      "second": 1407,
      "ever": 1408,
      "depart": 1409,
      "clinton": 1410,
      "washington": 1411,
      "ending": 1412,
      "ping": 1413,
      "leader": 1414,
      "pot": 1415,
      "wa": 1416,
      "clear": 1417,
      "glo": 1418,
      "ju": 1419,
      "inc": 1420,
      "fri": 1421,
      "tor": 1422,
      "wal": 1423,
      "diffe": 1424,
      "says": 1425,
      "something": 1426,
      "liber": 1427,
      "resul": 1428,
      "policy": 1429,
      "black": 1430,
      "ider": 1431,
      "sk": 1432,
      "const": 1433,
      "build": 1434,
      "sch": 1435,
      "four": 1436,
      "ond": 1437,
      "force": 1438,
      "ished": 1439,
      "friend": 1440,
      "minister": 1441,
      "ately": 1442,
      "bs": 1443,
      "light": 1444,
      "imm": 1445,
      "hal": 1446,
      "ри": 1447,
      "ience": 1448,
      "days": 1449,
      "special": 1450,
      "hold": 1451,
      "howe": 1452,
      "whe": 1453,
      "во": 1454,
      "legal": 1455,
      "administration": 1456,
      "company": 1457,
      "paren": 1458,
      "mem": 1459,
      "hill": 1460,
      "syri": 1461,
      "velo": 1462,
      "ided": 1463,
      "information": 1464,
      "mid": 1465,
      "ired": 1466,
      "least": 1467,
      "republican": 1468,
      "ка": 1469,
      "tech": 1470,
      "prote": 1471,
      "email": 1472,
      "fort": 1473,
      "ground": 1474,
      "bi": 1475,
      "however": 1476,
      "plain": 1477,
      "little": 1478,
      "ify": 1479,
      "best": 1480,
      "viol": 1481,
      "stree": 1482,
      "secret": 1483,
      "deb": 1484,
      "dep": 1485,
      "near": 1486,
      "expe": 1487,
      "allow": 1488,
      "food": 1489,
      "tru": 1490,
      "election": 1491,
      "pet": 1492,
      "15": 1493,
      "sun": 1494,
      "isra": 1495,
      "advertise": 1496,
      "ply": 1497,
      "ran": 1498,
      "ral": 1499,
      "jud": 1500,
      "services": 1501,
      "ief": 1502,
      "body": 1503,
      "ars": 1504,
      "europe": 1505,
      "partic": 1506,
      "sit": 1507,
      "ended": 1508,
      "cit": 1509,
      "job": 1510,
      "develo": 1511,
      "comes": 1512,
      "americans": 1513,
      "__": 1514,
      "ik": 1515,
      "office": 1516,
      "subscri": 1517,
      "past": 1518,
      "reed": 1519,
      "import": 1520,
      "ener": 1521,
      "ier": 1522,
      "vel": 1523,
      "chief": 1524,
      "mc": 1525,
      "grow": 1526,
      "death": 1527,
      "prov": 1528,
      "stop": 1529,
      "research": 1530,
      "class": 1531,
      "ude": 1532,
      "ali": 1533,
      "gin": 1534,
      "exp": 1535,
      "ald": 1536,
      "supre": 1537,
      "san": 1538,
      "ва": 1539,
      "investig": 1540,
      "night": 1541,
      "key": 1542,
      "action": 1543,
      "team": 1544,
      "happen": 1545,
      "2016": 1546,
      "ste": 1547,
      "comple": 1548,
      "posed": 1549,
      "late": 1550,
      "vious": 1551,
      "те": 1552,
      "become": 1553,
      "rele": 1554,
      "та": 1555,
      "deal": 1556,
      "enter": 1557,
      "uary": 1558,
      "gn": 1559,
      "que": 1560,
      "live": 1561,
      "ged": 1562,
      "soci": 1563,
      "number": 1564,
      "russian": 1565,
      "agency": 1566,
      "feel": 1567,
      "rad": 1568,
      "each": 1569,
      "spec": 1570,
      "mean": 1571,
      "advertisement": 1572,
      "wo": 1573,
      "ones": 1574,
      "mand": 1575,
      "iss": 1576,
      "gun": 1577,
      "16": 1578,
      "25": 1579,
      "issue": 1580,
      "17": 1581,
      "university": 1582,
      "199": 1583,
      "away": 1584,
      "cri": 1585,
      "ential": 1586,
      "ution": 1587,
      "share": 1588,
      "making": 1589,
      "ides": 1590,
      "finan": 1591,
      "ны": 1592,
      "uk": 1593,
      "ably": 1594,
      "reported": 1595,
      "watch": 1596,
      "cost": 1597,
      "iday": 1598,
      "yet": 1599,
      "ont": 1600,
      "upd": 1601,
      "supreme": 1602,
      "bed": 1603,
      "mass": 1604,
      "believe": 1605,
      "rights": 1606,
      "room": 1607,
      "bing": 1608,
      "cand": 1609,
      "already": 1610,
      "priv": 1611,
      "pris": 1612,
      "better": 1613,
      "question": 1614,
      "де": 1615,
      "international": 1616,
      "north": 1617,
      "sco": 1618,
      "bank": 1619,
      "concer": 1620,
      "department": 1621,
      "dav": 1622,
      "conserv": 1623,
      "non": 1624,
      "idence": 1625,
      "cover": 1626,
      "based": 1627,
      "spir": 1628,
      "rence": 1629,
      "associ": 1630,
      "economic": 1631,
      "once": 1632,
      "ought": 1633,
      "whether": 1634,
      "fur": 1635,
      "give": 1636,
      "mic": 1637,
      "nal": 1638,
      "une": 1639,
      "video": 1640,
      "east": 1641,
      "ield": 1642,
      "position": 1643,
      "known": 1644,
      "iety": 1645,
      "west": 1646,
      "http": 1647,
      "civ": 1648,
      "ль": 1649,
      "itor": 1650,
      "name": 1651,
      "bush": 1652,
      "exe": 1653,
      "ior": 1654,
      "among": 1655,
      "ctions": 1656,
      "hy": 1657,
      "mind": 1658,
      "emplo": 1659,
      "bas": 1660,
      "ле": 1661,
      "duc": 1662,
      "trad": 1663,
      "exam": 1664,
      "control": 1665,
      "general": 1666,
      "didn": 1667,
      "inal": 1668,
      "members": 1669,
      "energy": 1670,
      "fail": 1671,
      "brit": 1672,
      "global": 1673,
      "record": 1674,
      "step": 1675,
      "del": 1676,
      "unch": 1677,
      "ric": 1678,
      "soc": 1679,
      "donald": 1680,
      "aring": 1681,
      "defense": 1682,
      "newsletter": 1683,
      "wed": 1684,
      "execut": 1685,
      "cle": 1686,
      "small": 1687,
      "always": 1688,
      "isis": 1689,
      "aged": 1690,
      "equ": 1691,
      "address": 1692,
      "crit": 1693,
      "kes": 1694,
      "full": 1695,
      "street": 1696,
      "threat": 1697,
      "ony": 1698,
      "hor": 1699,
      "ith": 1700,
      "suc": 1701,
      "ury": 1702,
      "large": 1703,
      ",''": 1704,
      "course": 1705,
      "lin": 1706,
      "ified": 1707,
      "na": 1708,
      "constitut": 1709,
      "dol": 1710,
      "ord": 1711,
      "others": 1712,
      "bit": 1713,
      "drug": 1714,
      "liam": 1715,
      "youn": 1716,
      "candid": 1717,
      "civil": 1718,
      "fight": 1719,
      "gl": 1720,
      "olog": 1721,
      "important": 1722,
      "south": 1723,
      "enough": 1724,
      "likely": 1725,
      "pal": 1726,
      "certain": 1727,
      "cast": 1728,
      "да": 1729,
      "ither": 1730,
      "reason": 1731,
      "until": 1732,
      "immig": 1733,
      "star": 1734,
      "ability": 1735,
      "vote": 1736,
      "tar": 1737,
      "talk": 1738,
      "water": 1739,
      "gold": 1740,
      "member": 1741,
      "anger": 1742,
      "hour": 1743,
      "13": 1744,
      "fav": 1745,
      "ny": 1746,
      "sug": 1747,
      "colle": 1748,
      "officials": 1749,
      "aken": 1750,
      "history": 1751,
      "indust": 1752,
      "conne": 1753,
      "fut": 1754,
      "sever": 1755,
      "tails": 1756,
      "prim": 1757,
      "ank": 1758,
      "ision": 1759,
      "doing": 1760,
      "remain": 1761,
      "ns": 1762,
      "itions": 1763,
      "leaders": 1764,
      "wil": 1765,
      "local": 1766,
      "cks": 1767,
      "speak": 1768,
      "added": 1769,
      "ler": 1770,
      "ural": 1771,
      "kind": 1772,
      "activ": 1773,
      "ла": 1774,
      "different": 1775,
      "pie": 1776,
      "mission": 1777,
      "eas": 1778,
      "anti": 1779,
      "sent": 1780,
      "consider": 1781,
      "dri": 1782,
      "tro": 1783,
      "source": 1784,
      "spo": 1785,
      "process": 1786,
      "economy": 1787,
      "hillary": 1788,
      "sat": 1789,
      "toge": 1790,
      "half": 1791,
      "ids": 1792,
      "democratic": 1793,
      "asked": 1794,
      "bad": 1795,
      "having": 1796,
      "conf": 1797,
      ".,": 1798,
      "tion": 1799,
      "tee": 1800,
      "14": 1801,
      "disc": 1802,
      "count": 1803,
      "together": 1804,
      "addition": 1805,
      "ве": 1806,
      "stor": 1807,
      "ley": 1808,
      "2017": 1809,
      "ff": 1810,
      "center": 1811,
      "nes": 1812,
      "muslim": 1813,
      "risk": 1814,
      "aw": 1815,
      "mark": 1816,
      "adv": 1817,
      "several": 1818,
      "invol": 1819,
      "ird": 1820,
      "ulation": 1821,
      "close": 1822,
      "weap": 1823,
      "shop": 1824,
      "rich": 1825,
      "за": 1826,
      "nothing": 1827,
      "decl": 1828,
      "docu": 1829,
      "24": 1830,
      "announ": 1831,
      "love": 1832,
      "financial": 1833,
      "jan": 1834,
      "director": 1835,
      "www": 1836,
      "ки": 1837,
      "makes": 1838,
      "republicans": 1839,
      "fall": 1840,
      "possible": 1841,
      "done": 1842,
      "jour": 1843,
      "depend": 1844,
      "dail": 1845,
      "mur": 1846,
      "grap": 1847,
      "ws": 1848,
      "dest": 1849,
      "daily": 1850,
      "gir": 1851,
      "ush": 1852,
      "given": 1853,
      "nam": 1854,
      "took": 1855,
      "israel": 1856,
      "oil": 1857,
      "anal": 1858,
      "short": 1859,
      "five": 1860,
      "uses": 1861,
      "game": 1862,
      "round": 1863,
      "vic": 1864,
      "dan": 1865,
      "educ": 1866,
      "--------": 1867,
      "front": 1868,
      "changes": 1869,
      "safe": 1870,
      "rac": 1871,
      "relig": 1872,
      "turned": 1873,
      "ream": 1874,
      "compan": 1875,
      "ators": 1876,
      "democrats": 1877,
      "god": 1878,
      "dat": 1879,
      "citiz": 1880,
      "seen": 1881,
      "box": 1882,
      "study": 1883,
      "rul": 1884,
      "ination": 1885,
      "working": 1886,
      "hit": 1887,
      "var": 1888,
      "actually": 1889,
      "roy": 1890,
      "months": 1891,
      "products": 1892,
      "billion": 1893,
      "infl": 1894,
      "justice": 1895,
      "ме": 1896,
      "doesn": 1897,
      "super": 1898,
      "gener": 1899,
      "stat": 1900,
      "ges": 1901,
      "ised": 1902,
      "selves": 1903,
      "chur": 1904,
      "buy": 1905,
      "future": 1906,
      "23": 1907,
      "ball": 1908,
      "scient": 1909,
      "saying": 1910,
      "ло": 1911,
      "occur": 1912,
      "ть": 1913,
      "soon": 1914,
      "ards": 1915,
      "mom": 1916,
      "click": 1917,
      "dollar": 1918,
      "dou": 1919,
      "tries": 1920,
      "bot": 1921,
      "fun": 1922,
      "plic": 1923,
      "ken": 1924,
      "term": 1925,
      "ibut": 1926,
      "senate": 1927,
      "town": 1928,
      "understand": 1929,
      "along": 1930,
      "society": 1931,
      "cul": 1932,
      "profess": 1933,
      "bom": 1934,
      "sl": 1935,
      "represent": 1936,
      "young": 1937,
      "church": 1938,
      ".''": 1939,
      "often": 1940,
      "thought": 1941,
      "suggest": 1942,
      "cult": 1943,
      "ми": 1944,
      "field": 1945,
      "proper": 1946,
      "march": 1947,
      "effect": 1948,
      "mag": 1949,
      "strong": 1950,
      "problem": 1951,
      "**": 1952,
      "dro": 1953,
      "yes": 1954,
      "itter": 1955,
      "following": 1956,
      "plac": 1957,
      "benef": 1958,
      "discuss": 1959,
      "22": 1960,
      "abo": 1961,
      "within": 1962,
      "pose": 1963,
      "corpor": 1964,
      "envir": 1965,
      "lies": 1966,
      "ived": 1967,
      "mee": 1968,
      "means": 1969,
      "produc": 1970,
      "environ": 1971,
      "mad": 1972,
      "ivid": 1973,
      "offers": 1974,
      "evidence": 1975,
      "almost": 1976,
      "fully": 1977,
      "itch": 1978,
      "assist": 1979,
      "success": 1980,
      "sha": 1981,
      "chan": 1982,
      "event": 1983,
      "taken": 1984,
      "orig": 1985,
      "geor": 1986,
      "freed": 1987,
      "fel": 1988,
      "anything": 1989,
      "mi": 1990,
      "mess": 1991,
      "ret": 1992,
      "cop": 1993,
      "inste": 1994,
      "internet": 1995,
      "pan": 1996,
      "ze": 1997,
      "politics": 1998,
      "syria": 1999
    },
    "merges": [
      [
        "t",
        "h"
      ],
      [
        "i",
        "n"
      ],
      [
        "th",
        "e"
      ],
      [
        "a",
        "n"
      ],
      [
        "r",
        "e"
      ],
      [
        "o",
        "n"
      ],
      [
        "e",
        "r"
      ],
      [
        "a",
        "t"
      ],
      [
        "e",
        "n"
      ],
      [
        "o",
        "r"
      ],
      [
        "s",
        "t"
      ],
      [
        "a",
        "l"
      ],
      [
        "e",
        "d"
      ],
      [
        "o",
        "u"
      ],
      [
        "i",
        "s"
      ],
      [
        "t",
        "o"
      ],
      [
        "in",
        "g"
      ],
      [
        "a",
        "r"
      ],
      [
        "i",
        "t"
      ],
      [
        "o",
        "f"
      ],
      [
        "e",
        "s"
      ],
      [
        "an",
        "d"
      ],
      [
        "a",
        "s"
      ],
      [
        "i",
        "c"
      ],
      [
        "l",
        "e"
      ],
      [
        "i",
        "on"
      ],
      [
        "o",
        "m"
      ],
      [
        "s",
        "e"
      ],
      [
        "en",
        "t"
      ],
      [
        "i",
        "l"
      ],
      [
        "a",
        "c"
      ],
      [
        "a",
        "d"
      ],
      [
        "b",
        "e"
      ],
      [
        "v",
        "e"
      ],
      [
        "i",
        "d"
      ],
      [
        "a",
        "m"
      ],
      [
        "h",
        "e"
      ],
      [
        "r",
        "o"
      ],
      [
        "f",
        "or"
      ],
      [
        "c",
        "h"
      ],
      [
        "l",
        "y"
      ],
      [
        "th",
        "at"
      ],
      [
        "w",
        "h"
      ],
      [
        "n",
        "o"
      ],
      [
        "o",
        "l"
      ],
      [
        "i",
        "m"
      ],
      [
        "w",
        "e"
      ],
      [
        "i",
        "g"
      ],
      [
        "a",
        "y"
      ],
      [
        "i",
        "r"
      ],
      [
        "d",
        "e"
      ],
      [
        "u",
        "n"
      ],
      [
        "v",
        "er"
      ],
      [
        "n",
        "e"
      ],
      [
        "c",
        "on"
      ],
      [
        "s",
        "u"
      ],
      [
        "l",
        "o"
      ],
      [
        "at",
        "ion"
      ],
      [
        "u",
        "t"
      ],
      [
        "a",
        "re"
      ],
      [
        "a",
        "g"
      ],
      [
        "c",
        "e"
      ],
      [
        "t",
        "er"
      ],
      [
        "u",
        "s"
      ],
      [
        "p",
        "e"
      ],
      [
        "t",
        "r"
      ],
      [
        "m",
        "o"
      ],
      [
        "u",
        "r"
      ],
      [
        "l",
        "i"
      ],
      [
        "a",
        "b"
      ],
      [
        "c",
        "om"
      ],
      [
        "w",
        "i"
      ],
      [
        "c",
        "t"
      ],
      [
        "re",
        "s"
      ],
      [
        "il",
        "l"
      ],
      [
        "t",
        "e"
      ],
      [
        "h",
        "a"
      ],
      [
        "y",
        "ou"
      ],
      [
        "wi",
        "th"
      ],
      [
        "k",
        "e"
      ],
      [
        "at",
        "e"
      ],
      [
        "o",
        "p"
      ],
      [
        "p",
        "ro"
      ],
      [
        "f",
        "r"
      ],
      [
        "m",
        "ent"
      ],
      [
        "l",
        "d"
      ],
      [
        "er",
        "s"
      ],
      [
        "i",
        "st"
      ],
      [
        "g",
        "e"
      ],
      [
        "p",
        "o"
      ],
      [
        "al",
        "l"
      ],
      [
        "w",
        "as"
      ],
      [
        "ou",
        "t"
      ],
      [
        "a",
        "in"
      ],
      [
        "b",
        "y"
      ],
      [
        "u",
        "l"
      ],
      [
        "a",
        "p"
      ],
      [
        "s",
        "h"
      ],
      [
        "f",
        "e"
      ],
      [
        "d",
        "o"
      ],
      [
        "no",
        "t"
      ],
      [
        "s",
        "o"
      ],
      [
        "g",
        "o"
      ],
      [
        "t",
        "s"
      ],
      [
        "e",
        "x"
      ],
      [
        "on",
        "e"
      ],
      [
        "i",
        "f"
      ],
      [
        "the",
        "r"
      ],
      [
        "th",
        "is"
      ],
      [
        "ou",
        "n"
      ],
      [
        "ou",
        "r"
      ],
      [
        "ig",
        "h"
      ],
      [
        "m",
        "e"
      ],
      [
        "p",
        "l"
      ],
      [
        "ha",
        "ve"
      ],
      [
        "s",
        "a"
      ],
      [
        "ne",
        "w"
      ],
      [
        "fr",
        "om"
      ],
      [
        "ar",
        "t"
      ],
      [
        "m",
        "an"
      ],
      [
        "it",
        "y"
      ],
      [
        "l",
        "a"
      ],
      [
        "ou",
        "ld"
      ],
      [
        "es",
        "s"
      ],
      [
        "r",
        "i"
      ],
      [
        "b",
        "ut"
      ],
      [
        "i",
        "es"
      ],
      [
        "the",
        "y"
      ],
      [
        "h",
        "as"
      ],
      [
        "i",
        "ve"
      ],
      [
        "u",
        "p"
      ],
      [
        "q",
        "u"
      ],
      [
        "w",
        "or"
      ],
      [
        "i",
        "e"
      ],
      [
        "re",
        "d"
      ],
      [
        "u",
        "m"
      ],
      [
        "en",
        "d"
      ],
      [
        "h",
        "o"
      ],
      [
        "p",
        "or"
      ],
      [
        "h",
        "is"
      ],
      [
        "ac",
        "t"
      ],
      [
        "i",
        "al"
      ],
      [
        "an",
        "t"
      ],
      [
        "2",
        "0"
      ],
      [
        "b",
        "o"
      ],
      [
        "c",
        "o"
      ],
      [
        "e",
        "m"
      ],
      [
        "p",
        "er"
      ],
      [
        "u",
        "st"
      ],
      [
        "l",
        "l"
      ],
      [
        "b",
        "l"
      ],
      [
        "wh",
        "o"
      ],
      [
        "g",
        "r"
      ],
      [
        "c",
        "l"
      ],
      [
        "ac",
        "k"
      ],
      [
        "g",
        "h"
      ],
      [
        "a",
        "k"
      ],
      [
        "p",
        "r"
      ],
      [
        "om",
        "e"
      ],
      [
        "y",
        "e"
      ],
      [
        "p",
        "res"
      ],
      [
        "igh",
        "t"
      ],
      [
        "an",
        "s"
      ],
      [
        "sa",
        "id"
      ],
      [
        "a",
        "u"
      ],
      [
        "w",
        "ill"
      ],
      [
        "no",
        "w"
      ],
      [
        "f",
        "o"
      ],
      [
        "i",
        "v"
      ],
      [
        "c",
        "r"
      ],
      [
        "a",
        "f"
      ],
      [
        "t",
        "im"
      ],
      [
        "ar",
        "d"
      ],
      [
        "d",
        "ay"
      ],
      [
        "c",
        "an"
      ],
      [
        "i",
        "a"
      ],
      [
        "d",
        "er"
      ],
      [
        "the",
        "ir"
      ],
      [
        "ic",
        "h"
      ],
      [
        "al",
        "ly"
      ],
      [
        "re",
        "n"
      ],
      [
        "b",
        "er"
      ],
      [
        "a",
        "st"
      ],
      [
        "ar",
        "y"
      ],
      [
        "e",
        "v"
      ],
      [
        "ou",
        "s"
      ],
      [
        "u",
        "d"
      ],
      [
        "w",
        "n"
      ],
      [
        "mo",
        "re"
      ],
      [
        "in",
        "d"
      ],
      [
        "of",
        "f"
      ],
      [
        "ou",
        "gh"
      ],
      [
        "id",
        "e"
      ],
      [
        "b",
        "r"
      ],
      [
        "ic",
        "e"
      ],
      [
        "o",
        "b"
      ],
      [
        "p",
        "re"
      ],
      [
        "in",
        "e"
      ],
      [
        "ig",
        "n"
      ],
      [
        "por",
        "t"
      ],
      [
        "i",
        "an"
      ],
      [
        "ag",
        "e"
      ],
      [
        "p",
        "ol"
      ],
      [
        "o",
        "ther"
      ],
      [
        ".",
        "."
      ],
      [
        ".",
        "”"
      ],
      [
        "ab",
        "out"
      ],
      [
        "s",
        "ome"
      ],
      [
        "ion",
        "s"
      ],
      [
        "as",
        "s"
      ],
      [
        "a",
        "il"
      ],
      [
        "ye",
        "ar"
      ],
      [
        "o",
        "k"
      ],
      [
        "u",
        "e"
      ],
      [
        "i",
        "z"
      ],
      [
        "it",
        "s"
      ],
      [
        "o",
        "d"
      ],
      [
        "oun",
        "d"
      ],
      [
        "re",
        "e"
      ],
      [
        "h",
        "ad"
      ],
      [
        "s",
        "p"
      ],
      [
        "p",
        "art"
      ],
      [
        "p",
        "u"
      ],
      [
        "c",
        "ent"
      ],
      [
        "wh",
        "ich"
      ],
      [
        "w",
        "ould"
      ],
      [
        "wh",
        "at"
      ],
      [
        "the",
        "re"
      ],
      [
        "at",
        "ed"
      ],
      [
        "m",
        "ar"
      ],
      [
        "on",
        "g"
      ],
      [
        "0",
        "0"
      ],
      [
        "s",
        "er"
      ],
      [
        "pe",
        "op"
      ],
      [
        "an",
        "y"
      ],
      [
        "pu",
        "bl"
      ],
      [
        "con",
        "t"
      ],
      [
        "h",
        "er"
      ],
      [
        "peop",
        "le"
      ],
      [
        "th",
        "an"
      ],
      [
        "a",
        "v"
      ],
      [
        "s",
        "c"
      ],
      [
        "p",
        "le"
      ],
      [
        "d",
        "is"
      ],
      [
        "he",
        "re"
      ],
      [
        "be",
        "en"
      ],
      [
        "lo",
        "w"
      ],
      [
        "id",
        "ent"
      ],
      [
        "li",
        "ke"
      ],
      [
        "i",
        "re"
      ],
      [
        "m",
        "in"
      ],
      [
        "er",
        "ic"
      ],
      [
        "t",
        "y"
      ],
      [
        "c",
        "k"
      ],
      [
        "ac",
        "e"
      ],
      [
        "r",
        "a"
      ],
      [
        "e",
        "l"
      ],
      [
        "we",
        "re"
      ],
      [
        "o",
        "ver"
      ],
      [
        "it",
        "e"
      ],
      [
        "for",
        "m"
      ],
      [
        "u",
        "re"
      ],
      [
        "w",
        "ay"
      ],
      [
        "th",
        "ing"
      ],
      [
        "20",
        "1"
      ],
      [
        "wh",
        "en"
      ],
      [
        "ver",
        "y"
      ],
      [
        "or",
        "y"
      ],
      [
        "ation",
        "s"
      ],
      [
        "at",
        "es"
      ],
      [
        "am",
        "e"
      ],
      [
        "-",
        "-"
      ],
      [
        "c",
        "oun"
      ],
      [
        "as",
        "e"
      ],
      [
        "t",
        "ing"
      ],
      [
        "s",
        "he"
      ],
      [
        "am",
        "eric"
      ],
      [
        "com",
        "m"
      ],
      [
        "a",
        "ke"
      ],
      [
        "publ",
        "ic"
      ],
      [
        "s",
        "y"
      ],
      [
        "en",
        "ce"
      ],
      [
        "is",
        "h"
      ],
      [
        "m",
        "y"
      ],
      [
        "in",
        "t"
      ],
      [
        "re",
        "ad"
      ],
      [
        "j",
        "ust"
      ],
      [
        "ic",
        "al"
      ],
      [
        "i",
        "p"
      ],
      [
        "ab",
        "le"
      ],
      [
        "s",
        "pe"
      ],
      [
        "wor",
        "k"
      ],
      [
        "c",
        "or"
      ],
      [
        "ge",
        "t"
      ],
      [
        "po",
        "s"
      ],
      [
        "new",
        "s"
      ],
      [
        "fo",
        "re"
      ],
      [
        "m",
        "ed"
      ],
      [
        "c",
        "re"
      ],
      [
        "ac",
        "h"
      ],
      [
        "an",
        "ce"
      ],
      [
        "st",
        "r"
      ],
      [
        "you",
        "r"
      ],
      [
        "st",
        "ate"
      ],
      [
        "c",
        "ur"
      ],
      [
        "the",
        "m"
      ],
      [
        "ol",
        "d"
      ],
      [
        "t",
        "w"
      ],
      [
        "in",
        "ter"
      ],
      [
        "f",
        "ir"
      ],
      [
        "i",
        "le"
      ],
      [
        "d",
        "on"
      ],
      [
        "at",
        "t"
      ],
      [
        "i",
        "b"
      ],
      [
        "af",
        "ter"
      ],
      [
        "ir",
        "an"
      ],
      [
        "m",
        "on"
      ],
      [
        "'",
        "'"
      ],
      [
        ",",
        "”"
      ],
      [
        "sh",
        "o"
      ],
      [
        "p",
        "t"
      ],
      [
        "tim",
        "e"
      ],
      [
        "n",
        "ation"
      ],
      [
        "w",
        "ar"
      ],
      [
        "um",
        "p"
      ],
      [
        "in",
        "k"
      ],
      [
        "al",
        "so"
      ],
      [
        "c",
        "ial"
      ],
      [
        "ct",
        "ion"
      ],
      [
        "am",
        "a"
      ],
      [
        "mo",
        "st"
      ],
      [
        "t",
        "ur"
      ],
      [
        "or",
        "s"
      ],
      [
        "ic",
        "k"
      ],
      [
        "u",
        "c"
      ],
      [
        "1",
        "9"
      ],
      [
        "k",
        "now"
      ],
      [
        "s",
        "ay"
      ],
      [
        "en",
        "s"
      ],
      [
        "ag",
        "ain"
      ],
      [
        "an",
        "g"
      ],
      [
        "v",
        "o"
      ],
      [
        "pres",
        "ident"
      ],
      [
        "c",
        "ol"
      ],
      [
        "ver",
        "n"
      ],
      [
        "e",
        "f"
      ],
      [
        "ad",
        "e"
      ],
      [
        "go",
        "vern"
      ],
      [
        "it",
        "ion"
      ],
      [
        "c",
        "au"
      ],
      [
        "p",
        "a"
      ],
      [
        "su",
        "b"
      ],
      [
        "e",
        "st"
      ],
      [
        "ad",
        "d"
      ],
      [
        "tr",
        "y"
      ],
      [
        "in",
        "to"
      ],
      [
        "i",
        "ous"
      ],
      [
        "com",
        "p"
      ],
      [
        "m",
        "r"
      ],
      [
        "j",
        "o"
      ],
      [
        "res",
        "s"
      ],
      [
        "h",
        "im"
      ],
      [
        "b",
        "ack"
      ],
      [
        "m",
        "ay"
      ],
      [
        "ev",
        "en"
      ],
      [
        "ho",
        "w"
      ],
      [
        "at",
        "er"
      ],
      [
        "le",
        "t"
      ],
      [
        "v",
        "ie"
      ],
      [
        "en",
        "c"
      ],
      [
        "il",
        "d"
      ],
      [
        "on",
        "ly"
      ],
      [
        "re",
        "g"
      ],
      [
        "t",
        "ed"
      ],
      [
        "f",
        "ul"
      ],
      [
        "e",
        "p"
      ],
      [
        "cau",
        "se"
      ],
      [
        "n",
        "ing"
      ],
      [
        "us",
        "s"
      ],
      [
        "se",
        "l"
      ],
      [
        "d",
        "r"
      ],
      [
        "un",
        "der"
      ],
      [
        "ser",
        "v"
      ],
      [
        "is",
        "e"
      ],
      [
        "tr",
        "ump"
      ],
      [
        "s",
        "en"
      ],
      [
        "ob",
        "ama"
      ],
      [
        "f",
        "l"
      ],
      [
        "le",
        "ar"
      ],
      [
        "o",
        "se"
      ],
      [
        "t",
        "t"
      ],
      [
        "le",
        "g"
      ],
      [
        "c",
        "ould"
      ],
      [
        "j",
        "e"
      ],
      [
        "ment",
        "s"
      ],
      [
        "su",
        "p"
      ],
      [
        "se",
        "e"
      ],
      [
        "man",
        "y"
      ],
      [
        "f",
        "in"
      ],
      [
        "m",
        "ain"
      ],
      [
        "p",
        "h"
      ],
      [
        "c",
        "all"
      ],
      [
        "it",
        "ed"
      ],
      [
        "r",
        "y"
      ],
      [
        "tw",
        "o"
      ],
      [
        "fir",
        "st"
      ],
      [
        "la",
        "w"
      ],
      [
        "k",
        "s"
      ],
      [
        "u",
        "se"
      ],
      [
        "at",
        "ing"
      ],
      [
        "com",
        "e"
      ],
      [
        "ver",
        "s"
      ],
      [
        "d",
        "es"
      ],
      [
        "al",
        "th"
      ],
      [
        "m",
        "is"
      ],
      [
        "le",
        "ad"
      ],
      [
        "wor",
        "ld"
      ],
      [
        "p",
        "ar"
      ],
      [
        "the",
        "se"
      ],
      [
        "c",
        "ar"
      ],
      [
        "c",
        "ess"
      ],
      [
        "be",
        "cause"
      ],
      [
        "w",
        "here"
      ],
      [
        "year",
        "s"
      ],
      [
        "b",
        "u"
      ],
      [
        "govern",
        "ment"
      ],
      [
        "d",
        "id"
      ],
      [
        "g",
        "u"
      ],
      [
        "re",
        "st"
      ],
      [
        "m",
        "s"
      ],
      [
        "ic",
        "t"
      ],
      [
        "d",
        "u"
      ],
      [
        "v",
        "is"
      ],
      [
        "g",
        "en"
      ],
      [
        "e",
        "very"
      ],
      [
        "vie",
        "w"
      ],
      [
        "the",
        "n"
      ],
      [
        "..",
        "."
      ],
      [
        "on",
        "s"
      ],
      [
        "la",
        "st"
      ],
      [
        "cont",
        "in"
      ],
      [
        "ch",
        "o"
      ],
      [
        "pol",
        "it"
      ],
      [
        "he",
        "l"
      ],
      [
        "20",
        "0"
      ],
      [
        "re",
        "at"
      ],
      [
        "a",
        "ir"
      ],
      [
        "do",
        "wn"
      ],
      [
        "min",
        "ist"
      ],
      [
        "t",
        "al"
      ],
      [
        "su",
        "r"
      ],
      [
        "re",
        "l"
      ],
      [
        "th",
        "ink"
      ],
      [
        "ter",
        "s"
      ],
      [
        "be",
        "t"
      ],
      [
        "th",
        "r"
      ],
      [
        "r",
        "ight"
      ],
      [
        "we",
        "e"
      ],
      [
        "e",
        "le"
      ],
      [
        "nation",
        "al"
      ],
      [
        "we",
        "ll"
      ],
      [
        "c",
        "er"
      ],
      [
        "m",
        "u"
      ],
      [
        "g",
        "y"
      ],
      [
        "v",
        "ing"
      ],
      [
        "be",
        "fore"
      ],
      [
        "be",
        "ing"
      ],
      [
        "b",
        "ro"
      ],
      [
        "is",
        "l"
      ],
      [
        "th",
        "ose"
      ],
      [
        "m",
        "a"
      ],
      [
        "at",
        "ive"
      ],
      [
        "it",
        "ies"
      ],
      [
        "i",
        "o"
      ],
      [
        "an",
        "n"
      ],
      [
        "p",
        "s"
      ],
      [
        "ent",
        "s"
      ],
      [
        "s",
        "ign"
      ],
      [
        "tim",
        "es"
      ],
      [
        "wh",
        "ile"
      ],
      [
        "in",
        "cl"
      ],
      [
        "thr",
        "ough"
      ],
      [
        "ill",
        "ion"
      ],
      [
        "o",
        "wn"
      ],
      [
        "ic",
        "s"
      ],
      [
        "again",
        "st"
      ],
      [
        "re",
        "public"
      ],
      [
        "americ",
        "an"
      ],
      [
        "i",
        "ed"
      ],
      [
        "r",
        "uss"
      ],
      [
        "b",
        "us"
      ],
      [
        "c",
        "es"
      ],
      [
        "is",
        "m"
      ],
      [
        "de",
        "c"
      ],
      [
        "t",
        "on"
      ],
      [
        "l",
        "ess"
      ],
      [
        "c",
        "our"
      ],
      [
        "u",
        "al"
      ],
      [
        "w",
        "r"
      ],
      [
        "er",
        "al"
      ],
      [
        "l",
        "ong"
      ],
      [
        "l",
        "ar"
      ],
      [
        "off",
        "ic"
      ],
      [
        "h",
        "ou"
      ],
      [
        "v",
        "ed"
      ],
      [
        "pl",
        "ay"
      ],
      [
        "re",
        "port"
      ],
      [
        "h",
        "u"
      ],
      [
        "s",
        "s"
      ],
      [
        "ne",
        "ed"
      ],
      [
        "st",
        "ates"
      ],
      [
        "an",
        "ge"
      ],
      [
        "st",
        "ud"
      ],
      [
        "v",
        "es"
      ],
      [
        "cor",
        "d"
      ],
      [
        "c",
        "am"
      ],
      [
        "с",
        "т"
      ],
      [
        "m",
        "il"
      ],
      [
        "us",
        "ed"
      ],
      [
        "lo",
        "ok"
      ],
      [
        "sh",
        "ould"
      ],
      [
        "do",
        "es"
      ],
      [
        "st",
        "ory"
      ],
      [
        "k",
        "ing"
      ],
      [
        "o",
        "c"
      ],
      [
        "ren",
        "t"
      ],
      [
        "de",
        "mo"
      ],
      [
        "ct",
        "ed"
      ],
      [
        "in",
        "te"
      ],
      [
        "un",
        "d"
      ],
      [
        "b",
        "an"
      ],
      [
        "ak",
        "ing"
      ],
      [
        "or",
        "k"
      ],
      [
        "b",
        "le"
      ],
      [
        "t",
        "ain"
      ],
      [
        "w",
        "er"
      ],
      [
        "p",
        "p"
      ],
      [
        "p",
        "ut"
      ],
      [
        "y",
        "ork"
      ],
      [
        "e",
        "ar"
      ],
      [
        "m",
        "ake"
      ],
      [
        "ist",
        "s"
      ],
      [
        "w",
        "ant"
      ],
      [
        "g",
        "an"
      ],
      [
        "h",
        "igh"
      ],
      [
        "pres",
        "s"
      ],
      [
        "m",
        "ber"
      ],
      [
        "hou",
        "se"
      ],
      [
        "c",
        "al"
      ],
      [
        "sho",
        "w"
      ],
      [
        "demo",
        "cr"
      ],
      [
        "c",
        "ut"
      ],
      [
        "ch",
        "ar"
      ],
      [
        "if",
        "ic"
      ],
      [
        "c",
        "he"
      ],
      [
        "in",
        "ce"
      ],
      [
        "st",
        "and"
      ],
      [
        "ul",
        "t"
      ],
      [
        "he",
        "ad"
      ],
      [
        "ro",
        "w"
      ],
      [
        "st",
        "em"
      ],
      [
        "ur",
        "ing"
      ],
      [
        "he",
        "alth"
      ],
      [
        "sel",
        "f"
      ],
      [
        "l",
        "ed"
      ],
      [
        "y",
        "s"
      ],
      [
        "go",
        "ing"
      ],
      [
        "l",
        "and"
      ],
      [
        "in",
        "s"
      ],
      [
        "1",
        "0"
      ],
      [
        "e",
        "con"
      ],
      [
        "a",
        "th"
      ],
      [
        "su",
        "ch"
      ],
      [
        "il",
        "y"
      ],
      [
        "econ",
        "om"
      ],
      [
        "re",
        "al"
      ],
      [
        "o",
        "s"
      ],
      [
        "mu",
        "ch"
      ],
      [
        "sy",
        "stem"
      ],
      [
        "de",
        "f"
      ],
      [
        "f",
        "act"
      ],
      [
        "ar",
        "ch"
      ],
      [
        "p",
        "ers"
      ],
      [
        "tur",
        "n"
      ],
      [
        "n",
        "or"
      ],
      [
        "g",
        "ress"
      ],
      [
        "m",
        "ade"
      ],
      [
        "w",
        "ard"
      ],
      [
        "v",
        "al"
      ],
      [
        "c",
        "lo"
      ],
      [
        "t",
        "a"
      ],
      [
        "g",
        "er"
      ],
      [
        "a",
        "ve"
      ],
      [
        "w",
        "om"
      ],
      [
        ".",
        "\""
      ],
      [
        "b",
        "or"
      ],
      [
        "ion",
        "al"
      ],
      [
        "incl",
        "ud"
      ],
      [
        "b",
        "ar"
      ],
      [
        "ch",
        "ild"
      ],
      [
        "f",
        "am"
      ],
      [
        "ct",
        "s"
      ],
      [
        "b",
        "lo"
      ],
      [
        "c",
        "i"
      ],
      [
        "f",
        "ol"
      ],
      [
        "ic",
        "es"
      ],
      [
        "l",
        "es"
      ],
      [
        "r",
        "ation"
      ],
      [
        "ve",
        "st"
      ],
      [
        "mis",
        "s"
      ],
      [
        "v",
        "en"
      ],
      [
        "m",
        "or"
      ],
      [
        "gr",
        "ou"
      ],
      [
        "con",
        "d"
      ],
      [
        "in",
        "st"
      ],
      [
        "go",
        "od"
      ],
      [
        "l",
        "s"
      ],
      [
        "li",
        "fe"
      ],
      [
        "as",
        "ed"
      ],
      [
        "a",
        "z"
      ],
      [
        "un",
        "ited"
      ],
      [
        "t",
        "ake"
      ],
      [
        "is",
        "su"
      ],
      [
        "po",
        "st"
      ],
      [
        "т",
        "о"
      ],
      [
        "ib",
        "le"
      ],
      [
        "democr",
        "at"
      ],
      [
        "c",
        "ap"
      ],
      [
        "e",
        "t"
      ],
      [
        "su",
        "re"
      ],
      [
        "a",
        "h"
      ],
      [
        "l",
        "ine"
      ],
      [
        "b",
        "al"
      ],
      [
        "d",
        "uring"
      ],
      [
        "н",
        "о"
      ],
      [
        "bo",
        "ok"
      ],
      [
        "r",
        "or"
      ],
      [
        "f",
        "ed"
      ],
      [
        "p",
        "ri"
      ],
      [
        "m",
        "at"
      ],
      [
        "pl",
        "an"
      ],
      [
        "hel",
        "p"
      ],
      [
        "d",
        "i"
      ],
      [
        "te",
        "st"
      ],
      [
        "al",
        "s"
      ],
      [
        "qu",
        "est"
      ],
      [
        "f",
        "ound"
      ],
      [
        "in",
        "vest"
      ],
      [
        "con",
        "s"
      ],
      [
        "ing",
        "s"
      ],
      [
        "ne",
        "t"
      ],
      [
        "wee",
        "k"
      ],
      [
        "contin",
        "ue"
      ],
      [
        "be",
        "li"
      ],
      [
        "po",
        "int"
      ],
      [
        "t",
        "en"
      ],
      [
        "v",
        "i"
      ],
      [
        "un",
        "i"
      ],
      [
        "en",
        "g"
      ],
      [
        "s",
        "ince"
      ],
      [
        "st",
        "er"
      ],
      [
        "р",
        "а"
      ],
      [
        "c",
        "la"
      ],
      [
        "e",
        "u"
      ],
      [
        "c",
        "ed"
      ],
      [
        "o",
        "t"
      ],
      [
        "iran",
        "ian"
      ],
      [
        "enc",
        "y"
      ],
      [
        "00",
        "0"
      ],
      [
        "н",
        "а"
      ],
      [
        "c",
        "u"
      ],
      [
        "к",
        "о"
      ],
      [
        "o",
        "g"
      ],
      [
        "р",
        "о"
      ],
      [
        "th",
        "ough"
      ],
      [
        "in",
        "form"
      ],
      [
        "x",
        "t"
      ],
      [
        "coun",
        "try"
      ],
      [
        "ple",
        "ase"
      ],
      [
        "b",
        "ig"
      ],
      [
        "s",
        "on"
      ],
      [
        "ch",
        "r"
      ],
      [
        "p",
        "lo"
      ],
      [
        "b",
        "re"
      ],
      [
        "l",
        "im"
      ],
      [
        "res",
        "p"
      ],
      [
        "mil",
        "it"
      ],
      [
        "as",
        "on"
      ],
      [
        "d",
        "ire"
      ],
      [
        "an",
        "ts"
      ],
      [
        "comm",
        "un"
      ],
      [
        "ir",
        "a"
      ],
      [
        "or",
        "t"
      ],
      [
        "н",
        "и"
      ],
      [
        "d",
        "if"
      ],
      [
        "st",
        "ill"
      ],
      [
        "gr",
        "am"
      ],
      [
        "h",
        "ome"
      ],
      [
        "re",
        "c"
      ],
      [
        "il",
        "ity"
      ],
      [
        "isl",
        "am"
      ],
      [
        "ke",
        "t"
      ],
      [
        "v",
        "ol"
      ],
      [
        "w",
        "in"
      ],
      [
        "п",
        "о"
      ],
      [
        ")",
        "."
      ],
      [
        "wh",
        "ite"
      ],
      [
        "ul",
        "ar"
      ],
      [
        "wh",
        "y"
      ],
      [
        "su",
        "l"
      ],
      [
        "op",
        "er"
      ],
      [
        "pro",
        "du"
      ],
      [
        "f",
        "ar"
      ],
      [
        "as",
        "h"
      ],
      [
        "c",
        "are"
      ],
      [
        "fol",
        "low"
      ],
      [
        "ha",
        "pp"
      ],
      [
        "it",
        "ut"
      ],
      [
        "--",
        "--"
      ],
      [
        "r",
        "un"
      ],
      [
        "an",
        "other"
      ],
      [
        "str",
        "u"
      ],
      [
        "sup",
        "port"
      ],
      [
        "att",
        "ack"
      ],
      [
        "are",
        "n"
      ],
      [
        "n",
        "er"
      ],
      [
        "americ",
        "a"
      ],
      [
        "p",
        "ho"
      ],
      [
        "s",
        "m"
      ],
      [
        "cla",
        "im"
      ],
      [
        "ira",
        "q"
      ],
      [
        "in",
        "es"
      ],
      [
        "s",
        "ou"
      ],
      [
        "offic",
        "ial"
      ],
      [
        "w",
        "w"
      ],
      [
        "po",
        "wer"
      ],
      [
        "n",
        "um"
      ],
      [
        "tr",
        "ans"
      ],
      [
        "per",
        "cent"
      ],
      [
        "l",
        "it"
      ],
      [
        "v",
        "ide"
      ],
      [
        "pro",
        "gram"
      ],
      [
        "f",
        "er"
      ],
      [
        ")",
        ","
      ],
      [
        "m",
        "us"
      ],
      [
        "1",
        "1"
      ],
      [
        "s",
        "im"
      ],
      [
        "mon",
        "th"
      ],
      [
        "pers",
        "on"
      ],
      [
        "s",
        "ame"
      ],
      [
        "ver",
        "t"
      ],
      [
        "h",
        "and"
      ],
      [
        "m",
        "illion"
      ],
      [
        "cho",
        "ol"
      ],
      [
        "f",
        "t"
      ],
      [
        "com",
        "ing"
      ],
      [
        "as",
        "k"
      ],
      [
        "se",
        "arch"
      ],
      [
        "se",
        "t"
      ],
      [
        "med",
        "ia"
      ],
      [
        "read",
        "ing"
      ],
      [
        "th",
        "ree"
      ],
      [
        "c",
        "a"
      ],
      [
        "r",
        "u"
      ],
      [
        "st",
        "art"
      ],
      [
        "ap",
        "pe"
      ],
      [
        "polit",
        "ical"
      ],
      [
        "d",
        "y"
      ],
      [
        "to",
        "p"
      ],
      [
        "f",
        "ree"
      ],
      [
        "art",
        "ic"
      ],
      [
        "h",
        "ar"
      ],
      [
        "s",
        "chool"
      ],
      [
        "p",
        "at"
      ],
      [
        "r",
        "is"
      ],
      [
        "we",
        "en"
      ],
      [
        "pol",
        "ic"
      ],
      [
        "n",
        "uc"
      ],
      [
        "ge",
        "st"
      ],
      [
        "m",
        "ust"
      ],
      [
        ",",
        "\""
      ],
      [
        "$",
        "$"
      ],
      [
        "m",
        "er"
      ],
      [
        "k",
        "ill"
      ],
      [
        "call",
        "ed"
      ],
      [
        "cont",
        "ro"
      ],
      [
        "pl",
        "ace"
      ],
      [
        "bet",
        "ween"
      ],
      [
        "je",
        "ct"
      ],
      [
        "h",
        "ing"
      ],
      [
        "hu",
        "man"
      ],
      [
        "nuc",
        "lear"
      ],
      [
        "pr",
        "of"
      ],
      [
        "d",
        "s"
      ],
      [
        "pho",
        "to"
      ],
      [
        "d",
        "en"
      ],
      [
        "it",
        "al"
      ],
      [
        "iv",
        "es"
      ],
      [
        "wr",
        "it"
      ],
      [
        "v",
        "ir"
      ],
      [
        "ac",
        "cord"
      ],
      [
        "includ",
        "ing"
      ],
      [
        "s",
        "ide"
      ],
      [
        "to",
        "o"
      ],
      [
        "are",
        "d"
      ],
      [
        "ne",
        "ver"
      ],
      [
        "bo",
        "th"
      ],
      [
        "in",
        "ess"
      ],
      [
        "cam",
        "pa"
      ],
      [
        "re",
        "ce"
      ],
      [
        "v",
        "ent"
      ],
      [
        "n",
        "at"
      ],
      [
        "con",
        "tr"
      ],
      [
        "campa",
        "ign"
      ],
      [
        "h",
        "n"
      ],
      [
        "i",
        "ans"
      ],
      [
        "ac",
        "y"
      ],
      [
        "re",
        "cent"
      ],
      [
        "d",
        "ist"
      ],
      [
        "inte",
        "rest"
      ],
      [
        "t",
        "ail"
      ],
      [
        "st",
        "o"
      ],
      [
        "th",
        "or"
      ],
      [
        "ct",
        "or"
      ],
      [
        "rec",
        "s"
      ],
      [
        "p",
        "ay"
      ],
      [
        "se",
        "cur"
      ],
      [
        "u",
        "ally"
      ],
      [
        "milit",
        "ary"
      ],
      [
        "ar",
        "ound"
      ],
      [
        "to",
        "day"
      ],
      [
        "ic",
        "ally"
      ],
      [
        "f",
        "ind"
      ],
      [
        "c",
        "ity"
      ],
      [
        "m",
        "one"
      ],
      [
        "g",
        "re"
      ],
      [
        "to",
        "ld"
      ],
      [
        "igh",
        "ts"
      ],
      [
        "u",
        "res"
      ],
      [
        "j",
        "or"
      ],
      [
        "part",
        "y"
      ],
      [
        "b",
        "ur"
      ],
      [
        "b",
        "ers"
      ],
      [
        "u",
        "es"
      ],
      [
        "li",
        "st"
      ],
      [
        "iz",
        "ed"
      ],
      [
        "uni",
        "vers"
      ],
      [
        "ak",
        "es"
      ],
      [
        "cr",
        "im"
      ],
      [
        "accord",
        "ing"
      ],
      [
        "wom",
        "en"
      ],
      [
        "f",
        "ace"
      ],
      [
        "am",
        "es"
      ],
      [
        "b",
        "en"
      ],
      [
        "ch",
        "ang"
      ],
      [
        "pr",
        "om"
      ],
      [
        "p",
        "ass"
      ],
      [
        "af",
        "f"
      ],
      [
        "jo",
        "hn"
      ],
      [
        "i",
        "ent"
      ],
      [
        "re",
        "ally"
      ],
      [
        "in",
        "a"
      ],
      [
        "way",
        "s"
      ],
      [
        "ex",
        "per"
      ],
      [
        "op",
        "en"
      ],
      [
        "pres",
        "ent"
      ],
      [
        "ad",
        "vert"
      ],
      [
        "р",
        "е"
      ],
      [
        "ce",
        "pt"
      ],
      [
        "sh",
        "ip"
      ],
      [
        "c",
        "as"
      ],
      [
        "p",
        "ed"
      ],
      [
        "eu",
        "ro"
      ],
      [
        "russ",
        "ia"
      ],
      [
        "child",
        "ren"
      ],
      [
        "n",
        "ess"
      ],
      [
        "or",
        "gan"
      ],
      [
        "b",
        "ill"
      ],
      [
        "p",
        "op"
      ],
      [
        "form",
        "er"
      ],
      [
        "go",
        "t"
      ],
      [
        "fore",
        "ign"
      ],
      [
        "ch",
        "ange"
      ],
      [
        "f",
        "und"
      ],
      [
        "ta",
        "x"
      ],
      [
        "fe",
        "ct"
      ],
      [
        "h",
        "am"
      ],
      [
        "news",
        "let"
      ],
      [
        "por",
        "ts"
      ],
      [
        "p",
        "ur"
      ],
      [
        "fed",
        "eral"
      ],
      [
        "1",
        "2"
      ],
      [
        "ad",
        "minist"
      ],
      [
        "ag",
        "es"
      ],
      [
        "en",
        "se"
      ],
      [
        "se",
        "em"
      ],
      [
        "re",
        "qu"
      ],
      [
        "m",
        "al"
      ],
      [
        "with",
        "out"
      ],
      [
        "secur",
        "ity"
      ],
      [
        "read",
        "y"
      ],
      [
        "chr",
        "ist"
      ],
      [
        "pol",
        "ice"
      ],
      [
        "k",
        "o"
      ],
      [
        "e",
        "ve"
      ],
      [
        "f",
        "ire"
      ],
      [
        "te",
        "m"
      ],
      [
        "at",
        "ch"
      ],
      [
        "w",
        "on"
      ],
      [
        "h",
        "ist"
      ],
      [
        "i",
        "x"
      ],
      [
        "ag",
        "o"
      ],
      [
        "s",
        "ol"
      ],
      [
        "pos",
        "s"
      ],
      [
        "su",
        "m"
      ],
      [
        "grou",
        "p"
      ],
      [
        "n",
        "ed"
      ],
      [
        "in",
        "cre"
      ],
      [
        "au",
        "thor"
      ],
      [
        "so",
        "cial"
      ],
      [
        "mo",
        "ve"
      ],
      [
        "bus",
        "iness"
      ],
      [
        "л",
        "и"
      ],
      [
        "ne",
        "xt"
      ],
      [
        "h",
        "ol"
      ],
      [
        "mone",
        "y"
      ],
      [
        "5",
        "0"
      ],
      [
        "c",
        "y"
      ],
      [
        "ac",
        "c"
      ],
      [
        "ke",
        "ep"
      ],
      [
        "ro",
        "ss"
      ],
      [
        "c",
        "ame"
      ],
      [
        "con",
        "gress"
      ],
      [
        "m",
        "en"
      ],
      [
        "t",
        "le"
      ],
      [
        "cur",
        "rent"
      ],
      [
        "/",
        "/"
      ],
      [
        "f",
        "a"
      ],
      [
        "ter",
        "ror"
      ],
      [
        "fe",
        "w"
      ],
      [
        "1",
        "8"
      ],
      [
        "н",
        "е"
      ],
      [
        "f",
        "ac"
      ],
      [
        "le",
        "ft"
      ],
      [
        "islam",
        "ic"
      ],
      [
        "s",
        "ing"
      ],
      [
        "l",
        "ater"
      ],
      [
        ":",
        "//"
      ],
      [
        "ag",
        "ree"
      ],
      [
        "iz",
        "e"
      ],
      [
        "u",
        "g"
      ],
      [
        "re",
        "f"
      ],
      [
        "cl",
        "int"
      ],
      [
        "h",
        "tt"
      ],
      [
        "3",
        "0"
      ],
      [
        "c",
        "ase"
      ],
      [
        "se",
        "x"
      ],
      [
        "g",
        "reat"
      ],
      [
        "g",
        "iv"
      ],
      [
        "ma",
        "jor"
      ],
      [
        "cour",
        "t"
      ],
      [
        "te",
        "ll"
      ],
      [
        "pro",
        "ble"
      ],
      [
        "at",
        "or"
      ],
      [
        "comm",
        "it"
      ],
      [
        "fam",
        "ily"
      ],
      [
        "was",
        "hing"
      ],
      [
        "or",
        "der"
      ],
      [
        "sc",
        "ri"
      ],
      [
        "m",
        "it"
      ],
      [
        "thing",
        "s"
      ],
      [
        "s",
        "our"
      ],
      [
        "artic",
        "le"
      ],
      [
        "ap",
        "pro"
      ],
      [
        "le",
        "ct"
      ],
      [
        "un",
        "t"
      ],
      [
        "ne",
        "y"
      ],
      [
        "se",
        "cre"
      ],
      [
        "f",
        "il"
      ],
      [
        "l",
        "ing"
      ],
      [
        "m",
        "ight"
      ],
      [
        "lo",
        "t"
      ],
      [
        "s",
        "al"
      ],
      [
        "г",
        "о"
      ],
      [
        "us",
        "ing"
      ],
      [
        "iz",
        "ation"
      ],
      [
        "h",
        "ard"
      ],
      [
        "mar",
        "ket"
      ],
      [
        "t",
        "re"
      ],
      [
        "se",
        "cond"
      ],
      [
        "e",
        "ver"
      ],
      [
        "de",
        "part"
      ],
      [
        "clint",
        "on"
      ],
      [
        "washing",
        "ton"
      ],
      [
        "end",
        "ing"
      ],
      [
        "p",
        "ing"
      ],
      [
        "lead",
        "er"
      ],
      [
        "po",
        "t"
      ],
      [
        "w",
        "a"
      ],
      [
        "c",
        "lear"
      ],
      [
        "g",
        "lo"
      ],
      [
        "j",
        "u"
      ],
      [
        "in",
        "c"
      ],
      [
        "fr",
        "i"
      ],
      [
        "t",
        "or"
      ],
      [
        "w",
        "al"
      ],
      [
        "dif",
        "fe"
      ],
      [
        "say",
        "s"
      ],
      [
        "some",
        "thing"
      ],
      [
        "li",
        "ber"
      ],
      [
        "re",
        "sul"
      ],
      [
        "polic",
        "y"
      ],
      [
        "bl",
        "ack"
      ],
      [
        "id",
        "er"
      ],
      [
        "s",
        "k"
      ],
      [
        "con",
        "st"
      ],
      [
        "bu",
        "ild"
      ],
      [
        "s",
        "ch"
      ],
      [
        "f",
        "our"
      ],
      [
        "on",
        "d"
      ],
      [
        "for",
        "ce"
      ],
      [
        "ish",
        "ed"
      ],
      [
        "fri",
        "end"
      ],
      [
        "minist",
        "er"
      ],
      [
        "ate",
        "ly"
      ],
      [
        "b",
        "s"
      ],
      [
        "l",
        "ight"
      ],
      [
        "im",
        "m"
      ],
      [
        "h",
        "al"
      ],
      [
        "р",
        "и"
      ],
      [
        "i",
        "ence"
      ],
      [
        "day",
        "s"
      ],
      [
        "spe",
        "cial"
      ],
      [
        "h",
        "old"
      ],
      [
        "ho",
        "we"
      ],
      [
        "w",
        "he"
      ],
      [
        "в",
        "о"
      ],
      [
        "leg",
        "al"
      ],
      [
        "administ",
        "ration"
      ],
      [
        "comp",
        "any"
      ],
      [
        "p",
        "aren"
      ],
      [
        "me",
        "m"
      ],
      [
        "h",
        "ill"
      ],
      [
        "sy",
        "ri"
      ],
      [
        "ve",
        "lo"
      ],
      [
        "id",
        "ed"
      ],
      [
        "inform",
        "ation"
      ],
      [
        "m",
        "id"
      ],
      [
        "i",
        "red"
      ],
      [
        "le",
        "ast"
      ],
      [
        "republic",
        "an"
      ],
      [
        "к",
        "а"
      ],
      [
        "te",
        "ch"
      ],
      [
        "pro",
        "te"
      ],
      [
        "em",
        "ail"
      ],
      [
        "for",
        "t"
      ],
      [
        "gr",
        "ound"
      ],
      [
        "b",
        "i"
      ],
      [
        "howe",
        "ver"
      ],
      [
        "pl",
        "ain"
      ],
      [
        "lit",
        "tle"
      ],
      [
        "if",
        "y"
      ],
      [
        "be",
        "st"
      ],
      [
        "vi",
        "ol"
      ],
      [
        "st",
        "ree"
      ],
      [
        "secre",
        "t"
      ],
      [
        "de",
        "b"
      ],
      [
        "de",
        "p"
      ],
      [
        "ne",
        "ar"
      ],
      [
        "ex",
        "pe"
      ],
      [
        "al",
        "low"
      ],
      [
        "fo",
        "od"
      ],
      [
        "tr",
        "u"
      ],
      [
        "ele",
        "ction"
      ],
      [
        "pe",
        "t"
      ],
      [
        "1",
        "5"
      ],
      [
        "s",
        "un"
      ],
      [
        "is",
        "ra"
      ],
      [
        "advert",
        "ise"
      ],
      [
        "p",
        "ly"
      ],
      [
        "r",
        "an"
      ],
      [
        "r",
        "al"
      ],
      [
        "j",
        "ud"
      ],
      [
        "serv",
        "ices"
      ],
      [
        "ie",
        "f"
      ],
      [
        "bo",
        "dy"
      ],
      [
        "ar",
        "s"
      ],
      [
        "euro",
        "pe"
      ],
      [
        "part",
        "ic"
      ],
      [
        "s",
        "it"
      ],
      [
        "end",
        "ed"
      ],
      [
        "c",
        "it"
      ],
      [
        "j",
        "ob"
      ],
      [
        "de",
        "velo"
      ],
      [
        "com",
        "es"
      ],
      [
        "americ",
        "ans"
      ],
      [
        "_",
        "_"
      ],
      [
        "i",
        "k"
      ],
      [
        "off",
        "ice"
      ],
      [
        "sub",
        "scri"
      ],
      [
        "p",
        "ast"
      ],
      [
        "re",
        "ed"
      ],
      [
        "im",
        "port"
      ],
      [
        "en",
        "er"
      ],
      [
        "i",
        "er"
      ],
      [
        "ve",
        "l"
      ],
      [
        "ch",
        "ief"
      ],
      [
        "m",
        "c"
      ],
      [
        "g",
        "row"
      ],
      [
        "de",
        "ath"
      ],
      [
        "pro",
        "v"
      ],
      [
        "st",
        "op"
      ],
      [
        "re",
        "search"
      ],
      [
        "cl",
        "ass"
      ],
      [
        "u",
        "de"
      ],
      [
        "al",
        "i"
      ],
      [
        "g",
        "in"
      ],
      [
        "ex",
        "p"
      ],
      [
        "al",
        "d"
      ],
      [
        "su",
        "pre"
      ],
      [
        "s",
        "an"
      ],
      [
        "в",
        "а"
      ],
      [
        "invest",
        "ig"
      ],
      [
        "n",
        "ight"
      ],
      [
        "ke",
        "y"
      ],
      [
        "act",
        "ion"
      ],
      [
        "te",
        "am"
      ],
      [
        "happ",
        "en"
      ],
      [
        "201",
        "6"
      ],
      [
        "st",
        "e"
      ],
      [
        "com",
        "ple"
      ],
      [
        "pos",
        "ed"
      ],
      [
        "l",
        "ate"
      ],
      [
        "v",
        "ious"
      ],
      [
        "т",
        "е"
      ],
      [
        "be",
        "come"
      ],
      [
        "re",
        "le"
      ],
      [
        "т",
        "а"
      ],
      [
        "de",
        "al"
      ],
      [
        "ent",
        "er"
      ],
      [
        "u",
        "ary"
      ],
      [
        "g",
        "n"
      ],
      [
        "qu",
        "e"
      ],
      [
        "li",
        "ve"
      ],
      [
        "g",
        "ed"
      ],
      [
        "so",
        "ci"
      ],
      [
        "num",
        "ber"
      ],
      [
        "russ",
        "ian"
      ],
      [
        "ag",
        "ency"
      ],
      [
        "fe",
        "el"
      ],
      [
        "r",
        "ad"
      ],
      [
        "e",
        "ach"
      ],
      [
        "spe",
        "c"
      ],
      [
        "me",
        "an"
      ],
      [
        "advertise",
        "ment"
      ],
      [
        "w",
        "o"
      ],
      [
        "on",
        "es"
      ],
      [
        "m",
        "and"
      ],
      [
        "is",
        "s"
      ],
      [
        "g",
        "un"
      ],
      [
        "1",
        "6"
      ],
      [
        "2",
        "5"
      ],
      [
        "issu",
        "e"
      ],
      [
        "1",
        "7"
      ],
      [
        "univers",
        "ity"
      ],
      [
        "19",
        "9"
      ],
      [
        "a",
        "way"
      ],
      [
        "c",
        "ri"
      ],
      [
        "ent",
        "ial"
      ],
      [
        "ut",
        "ion"
      ],
      [
        "sh",
        "are"
      ],
      [
        "m",
        "aking"
      ],
      [
        "id",
        "es"
      ],
      [
        "fin",
        "an"
      ],
      [
        "н",
        "ы"
      ],
      [
        "u",
        "k"
      ],
      [
        "ab",
        "ly"
      ],
      [
        "report",
        "ed"
      ],
      [
        "w",
        "atch"
      ],
      [
        "co",
        "st"
      ],
      [
        "id",
        "ay"
      ],
      [
        "ye",
        "t"
      ],
      [
        "on",
        "t"
      ],
      [
        "up",
        "d"
      ],
      [
        "supre",
        "me"
      ],
      [
        "b",
        "ed"
      ],
      [
        "m",
        "ass"
      ],
      [
        "beli",
        "eve"
      ],
      [
        "r",
        "ights"
      ],
      [
        "ro",
        "om"
      ],
      [
        "b",
        "ing"
      ],
      [
        "c",
        "and"
      ],
      [
        "al",
        "ready"
      ],
      [
        "pri",
        "v"
      ],
      [
        "pr",
        "is"
      ],
      [
        "bet",
        "ter"
      ],
      [
        "quest",
        "ion"
      ],
      [
        "д",
        "е"
      ],
      [
        "inter",
        "national"
      ],
      [
        "nor",
        "th"
      ],
      [
        "s",
        "co"
      ],
      [
        "ban",
        "k"
      ],
      [
        "con",
        "cer"
      ],
      [
        "depart",
        "ment"
      ],
      [
        "d",
        "av"
      ],
      [
        "con",
        "serv"
      ],
      [
        "n",
        "on"
      ],
      [
        "id",
        "ence"
      ],
      [
        "co",
        "ver"
      ],
      [
        "b",
        "ased"
      ],
      [
        "sp",
        "ir"
      ],
      [
        "ren",
        "ce"
      ],
      [
        "as",
        "soci"
      ],
      [
        "econom",
        "ic"
      ],
      [
        "on",
        "ce"
      ],
      [
        "ough",
        "t"
      ],
      [
        "whe",
        "ther"
      ],
      [
        "f",
        "ur"
      ],
      [
        "g",
        "ive"
      ],
      [
        "m",
        "ic"
      ],
      [
        "n",
        "al"
      ],
      [
        "un",
        "e"
      ],
      [
        "vide",
        "o"
      ],
      [
        "e",
        "ast"
      ],
      [
        "ie",
        "ld"
      ],
      [
        "pos",
        "ition"
      ],
      [
        "know",
        "n"
      ],
      [
        "ie",
        "ty"
      ],
      [
        "we",
        "st"
      ],
      [
        "htt",
        "p"
      ],
      [
        "c",
        "iv"
      ],
      [
        "л",
        "ь"
      ],
      [
        "it",
        "or"
      ],
      [
        "n",
        "ame"
      ],
      [
        "bus",
        "h"
      ],
      [
        "ex",
        "e"
      ],
      [
        "i",
        "or"
      ],
      [
        "am",
        "ong"
      ],
      [
        "ct",
        "ions"
      ],
      [
        "h",
        "y"
      ],
      [
        "m",
        "ind"
      ],
      [
        "em",
        "plo"
      ],
      [
        "b",
        "as"
      ],
      [
        "л",
        "е"
      ],
      [
        "d",
        "uc"
      ],
      [
        "tr",
        "ad"
      ],
      [
        "ex",
        "am"
      ],
      [
        "contro",
        "l"
      ],
      [
        "gen",
        "eral"
      ],
      [
        "did",
        "n"
      ],
      [
        "in",
        "al"
      ],
      [
        "mem",
        "bers"
      ],
      [
        "ener",
        "gy"
      ],
      [
        "f",
        "ail"
      ],
      [
        "br",
        "it"
      ],
      [
        "glo",
        "bal"
      ],
      [
        "re",
        "cord"
      ],
      [
        "st",
        "ep"
      ],
      [
        "de",
        "l"
      ],
      [
        "un",
        "ch"
      ],
      [
        "r",
        "ic"
      ],
      [
        "so",
        "c"
      ],
      [
        "don",
        "ald"
      ],
      [
        "ar",
        "ing"
      ],
      [
        "def",
        "ense"
      ],
      [
        "newslet",
        "ter"
      ],
      [
        "w",
        "ed"
      ],
      [
        "exe",
        "cut"
      ],
      [
        "c",
        "le"
      ],
      [
        "sm",
        "all"
      ],
      [
        "al",
        "ways"
      ],
      [
        "is",
        "is"
      ],
      [
        "ag",
        "ed"
      ],
      [
        "e",
        "qu"
      ],
      [
        "add",
        "ress"
      ],
      [
        "cr",
        "it"
      ],
      [
        "k",
        "es"
      ],
      [
        "ful",
        "l"
      ],
      [
        "stree",
        "t"
      ],
      [
        "th",
        "reat"
      ],
      [
        "on",
        "y"
      ],
      [
        "h",
        "or"
      ],
      [
        "i",
        "th"
      ],
      [
        "su",
        "c"
      ],
      [
        "ur",
        "y"
      ],
      [
        "lar",
        "ge"
      ],
      [
        ",",
        "''"
      ],
      [
        "cour",
        "se"
      ],
      [
        "l",
        "in"
      ],
      [
        "if",
        "ied"
      ],
      [
        "n",
        "a"
      ],
      [
        "const",
        "itut"
      ],
      [
        "d",
        "ol"
      ],
      [
        "or",
        "d"
      ],
      [
        "other",
        "s"
      ],
      [
        "b",
        "it"
      ],
      [
        "dr",
        "ug"
      ],
      [
        "li",
        "am"
      ],
      [
        "you",
        "n"
      ],
      [
        "cand",
        "id"
      ],
      [
        "civ",
        "il"
      ],
      [
        "f",
        "ight"
      ],
      [
        "g",
        "l"
      ],
      [
        "ol",
        "og"
      ],
      [
        "import",
        "ant"
      ],
      [
        "sou",
        "th"
      ],
      [
        "en",
        "ough"
      ],
      [
        "like",
        "ly"
      ],
      [
        "p",
        "al"
      ],
      [
        "cer",
        "tain"
      ],
      [
        "c",
        "ast"
      ],
      [
        "д",
        "а"
      ],
      [
        "i",
        "ther"
      ],
      [
        "re",
        "ason"
      ],
      [
        "unt",
        "il"
      ],
      [
        "imm",
        "ig"
      ],
      [
        "st",
        "ar"
      ],
      [
        "ab",
        "ility"
      ],
      [
        "vo",
        "te"
      ],
      [
        "t",
        "ar"
      ],
      [
        "tal",
        "k"
      ],
      [
        "w",
        "ater"
      ],
      [
        "g",
        "old"
      ],
      [
        "me",
        "mber"
      ],
      [
        "ang",
        "er"
      ],
      [
        "h",
        "our"
      ],
      [
        "1",
        "3"
      ],
      [
        "f",
        "av"
      ],
      [
        "n",
        "y"
      ],
      [
        "su",
        "g"
      ],
      [
        "col",
        "le"
      ],
      [
        "official",
        "s"
      ],
      [
        "ak",
        "en"
      ],
      [
        "hist",
        "ory"
      ],
      [
        "ind",
        "ust"
      ],
      [
        "con",
        "ne"
      ],
      [
        "f",
        "ut"
      ],
      [
        "se",
        "ver"
      ],
      [
        "tail",
        "s"
      ],
      [
        "pr",
        "im"
      ],
      [
        "an",
        "k"
      ],
      [
        "is",
        "ion"
      ],
      [
        "do",
        "ing"
      ],
      [
        "re",
        "main"
      ],
      [
        "n",
        "s"
      ],
      [
        "it",
        "ions"
      ],
      [
        "lead",
        "ers"
      ],
      [
        "w",
        "il"
      ],
      [
        "lo",
        "cal"
      ],
      [
        "ck",
        "s"
      ],
      [
        "spe",
        "ak"
      ],
      [
        "add",
        "ed"
      ],
      [
        "l",
        "er"
      ],
      [
        "ur",
        "al"
      ],
      [
        "k",
        "ind"
      ],
      [
        "act",
        "iv"
      ],
      [
        "л",
        "а"
      ],
      [
        "diffe",
        "rent"
      ],
      [
        "p",
        "ie"
      ],
      [
        "miss",
        "ion"
      ],
      [
        "e",
        "as"
      ],
      [
        "ant",
        "i"
      ],
      [
        "s",
        "ent"
      ],
      [
        "cons",
        "ider"
      ],
      [
        "d",
        "ri"
      ],
      [
        "t",
        "ro"
      ],
      [
        "sour",
        "ce"
      ],
      [
        "s",
        "po"
      ],
      [
        "pro",
        "cess"
      ],
      [
        "econom",
        "y"
      ],
      [
        "hill",
        "ary"
      ],
      [
        "s",
        "at"
      ],
      [
        "to",
        "ge"
      ],
      [
        "hal",
        "f"
      ],
      [
        "id",
        "s"
      ],
      [
        "democrat",
        "ic"
      ],
      [
        "ask",
        "ed"
      ],
      [
        "b",
        "ad"
      ],
      [
        "ha",
        "ving"
      ],
      [
        "con",
        "f"
      ],
      [
        ".",
        ","
      ],
      [
        "t",
        "ion"
      ],
      [
        "te",
        "e"
      ],
      [
        "1",
        "4"
      ],
      [
        "dis",
        "c"
      ],
      [
        "coun",
        "t"
      ],
      [
        "toge",
        "ther"
      ],
      [
        "add",
        "ition"
      ],
      [
        "в",
        "е"
      ],
      [
        "st",
        "or"
      ],
      [
        "le",
        "y"
      ],
      [
        "201",
        "7"
      ],
      [
        "f",
        "f"
      ],
      [
        "cent",
        "er"
      ],
      [
        "n",
        "es"
      ],
      [
        "mus",
        "lim"
      ],
      [
        "ris",
        "k"
      ],
      [
        "a",
        "w"
      ],
      [
        "mar",
        "k"
      ],
      [
        "ad",
        "v"
      ],
      [
        "sever",
        "al"
      ],
      [
        "in",
        "vol"
      ],
      [
        "ir",
        "d"
      ],
      [
        "ul",
        "ation"
      ],
      [
        "clo",
        "se"
      ],
      [
        "we",
        "ap"
      ],
      [
        "sh",
        "op"
      ],
      [
        "r",
        "ich"
      ],
      [
        "з",
        "а"
      ],
      [
        "no",
        "thing"
      ],
      [
        "de",
        "cl"
      ],
      [
        "do",
        "cu"
      ],
      [
        "2",
        "4"
      ],
      [
        "ann",
        "oun"
      ],
      [
        "lo",
        "ve"
      ],
      [
        "finan",
        "cial"
      ],
      [
        "j",
        "an"
      ],
      [
        "dire",
        "ctor"
      ],
      [
        "ww",
        "w"
      ],
      [
        "к",
        "и"
      ],
      [
        "m",
        "akes"
      ],
      [
        "republic",
        "ans"
      ],
      [
        "f",
        "all"
      ],
      [
        "poss",
        "ible"
      ],
      [
        "d",
        "one"
      ],
      [
        "j",
        "our"
      ],
      [
        "dep",
        "end"
      ],
      [
        "d",
        "ail"
      ],
      [
        "m",
        "ur"
      ],
      [
        "gr",
        "ap"
      ],
      [
        "w",
        "s"
      ],
      [
        "de",
        "st"
      ],
      [
        "dail",
        "y"
      ],
      [
        "g",
        "ir"
      ],
      [
        "us",
        "h"
      ],
      [
        "giv",
        "en"
      ],
      [
        "n",
        "am"
      ],
      [
        "to",
        "ok"
      ],
      [
        "isra",
        "el"
      ],
      [
        "o",
        "il"
      ],
      [
        "an",
        "al"
      ],
      [
        "sh",
        "ort"
      ],
      [
        "f",
        "ive"
      ],
      [
        "us",
        "es"
      ],
      [
        "g",
        "ame"
      ],
      [
        "r",
        "ound"
      ],
      [
        "v",
        "ic"
      ],
      [
        "d",
        "an"
      ],
      [
        "ed",
        "uc"
      ],
      [
        "----",
        "----"
      ],
      [
        "fr",
        "ont"
      ],
      [
        "chang",
        "es"
      ],
      [
        "sa",
        "fe"
      ],
      [
        "r",
        "ac"
      ],
      [
        "rel",
        "ig"
      ],
      [
        "turn",
        "ed"
      ],
      [
        "re",
        "am"
      ],
      [
        "comp",
        "an"
      ],
      [
        "at",
        "ors"
      ],
      [
        "democrat",
        "s"
      ],
      [
        "go",
        "d"
      ],
      [
        "d",
        "at"
      ],
      [
        "cit",
        "iz"
      ],
      [
        "se",
        "en"
      ],
      [
        "bo",
        "x"
      ],
      [
        "stud",
        "y"
      ],
      [
        "r",
        "ul"
      ],
      [
        "in",
        "ation"
      ],
      [
        "work",
        "ing"
      ],
      [
        "h",
        "it"
      ],
      [
        "v",
        "ar"
      ],
      [
        "act",
        "ually"
      ],
      [
        "ro",
        "y"
      ],
      [
        "month",
        "s"
      ],
      [
        "produ",
        "cts"
      ],
      [
        "b",
        "illion"
      ],
      [
        "in",
        "fl"
      ],
      [
        "just",
        "ice"
      ],
      [
        "м",
        "е"
      ],
      [
        "does",
        "n"
      ],
      [
        "su",
        "per"
      ],
      [
        "gen",
        "er"
      ],
      [
        "st",
        "at"
      ],
      [
        "g",
        "es"
      ],
      [
        "is",
        "ed"
      ],
      [
        "sel",
        "ves"
      ],
      [
        "ch",
        "ur"
      ],
      [
        "bu",
        "y"
      ],
      [
        "fut",
        "ure"
      ],
      [
        "2",
        "3"
      ],
      [
        "b",
        "all"
      ],
      [
        "sc",
        "ient"
      ],
      [
        "say",
        "ing"
      ],
      [
        "л",
        "о"
      ],
      [
        "oc",
        "cur"
      ],
      [
        "т",
        "ь"
      ],
      [
        "so",
        "on"
      ],
      [
        "ard",
        "s"
      ],
      [
        "m",
        "om"
      ],
      [
        "cl",
        "ick"
      ],
      [
        "dol",
        "lar"
      ],
      [
        "d",
        "ou"
      ],
      [
        "tr",
        "ies"
      ],
      [
        "bo",
        "t"
      ],
      [
        "f",
        "un"
      ],
      [
        "pl",
        "ic"
      ],
      [
        "k",
        "en"
      ],
      [
        "ter",
        "m"
      ],
      [
        "i",
        "but"
      ],
      [
        "sen",
        "ate"
      ],
      [
        "to",
        "wn"
      ],
      [
        "under",
        "stand"
      ],
      [
        "al",
        "ong"
      ],
      [
        "soc",
        "iety"
      ],
      [
        "c",
        "ul"
      ],
      [
        "prof",
        "ess"
      ],
      [
        "b",
        "om"
      ],
      [
        "s",
        "l"
      ],
      [
        "re",
        "present"
      ],
      [
        "youn",
        "g"
      ],
      [
        "chur",
        "ch"
      ],
      [
        ".",
        "''"
      ],
      [
        "of",
        "ten"
      ],
      [
        "though",
        "t"
      ],
      [
        "sug",
        "gest"
      ],
      [
        "c",
        "ult"
      ],
      [
        "м",
        "и"
      ],
      [
        "f",
        "ield"
      ],
      [
        "pro",
        "per"
      ],
      [
        "mar",
        "ch"
      ],
      [
        "ef",
        "fect"
      ],
      [
        "m",
        "ag"
      ],
      [
        "str",
        "ong"
      ],
      [
        "proble",
        "m"
      ],
      [
        "*",
        "*"
      ],
      [
        "d",
        "ro"
      ],
      [
        "y",
        "es"
      ],
      [
        "it",
        "ter"
      ],
      [
        "follow",
        "ing"
      ],
      [
        "pl",
        "ac"
      ],
      [
        "ben",
        "ef"
      ],
      [
        "disc",
        "uss"
      ],
      [
        "2",
        "2"
      ],
      [
        "ab",
        "o"
      ],
      [
        "with",
        "in"
      ],
      [
        "po",
        "se"
      ],
      [
        "cor",
        "por"
      ],
      [
        "en",
        "vir"
      ],
      [
        "li",
        "es"
      ],
      [
        "iv",
        "ed"
      ],
      [
        "me",
        "e"
      ],
      [
        "me",
        "ans"
      ],
      [
        "pro",
        "duc"
      ],
      [
        "envir",
        "on"
      ],
      [
        "m",
        "ad"
      ],
      [
        "iv",
        "id"
      ],
      [
        "off",
        "ers"
      ],
      [
        "ev",
        "idence"
      ],
      [
        "al",
        "most"
      ],
      [
        "ful",
        "ly"
      ],
      [
        "it",
        "ch"
      ],
      [
        "ass",
        "ist"
      ],
      [
        "suc",
        "cess"
      ],
      [
        "s",
        "ha"
      ],
      [
        "ch",
        "an"
      ],
      [
        "ev",
        "ent"
      ],
      [
        "t",
        "aken"
      ],
      [
        "or",
        "ig"
      ],
      [
        "ge",
        "or"
      ],
      [
        "f",
        "reed"
      ],
      [
        "fe",
        "l"
      ],
      [
        "any",
        "thing"
      ],
      [
        "m",
        "i"
      ],
      [
        "m",
        "ess"
      ],
      [
        "re",
        "t"
      ],
      [
        "c",
        "op"
      ],
      [
        "inst",
        "e"
      ],
      [
        "inter",
        "net"
      ],
      [
        "p",
        "an"
      ],
      [
        "z",
        "e"
      ],
      [
        "polit",
        "ics"
      ],
      [
        "syri",
        "a"
      ]
    ]
  }
}